ا ل
ا ت
ال م
ي ة
ا ر
ف ي
ا ن
م ن
ا م
ي ن
ع ل
ال ت
ر ي
و ل
و ن
ي ر
ا س
ال أ
ا ب
و ر
د ي
ل ل
ال ع
ه ا
ب ي
م ا
ال ح
و ا
ر ا
ال س
ن ا
و م
ل ا
عل ى
ي ل
2 0
ش ر
د ة
ت ر
م ع
ي ا
م ل
ال ج
ال ب
و ق
س ت
ال ك
ا ئ
ال إ
ي م
ب ر
ال ق
ع د
أ ن
ال ص
ال ف
ار ة
ال د
ك س
ت ح
ع ن
ا د
ال ن
ا ء
ع ة
م ح
و ي
ال ر
ل ي
ل ة
ر ب
ا ف
ل ك
ال خ
م ي
و س
ال ش
و ت
ق ة
ع ر
ر ة
ال ا
و ب
و د
م ة
ي د
ك ل
ي ف
اس ت
ي ت
س ل
ك ة
م ر
ا ح
ال ل
ل ى
ال ي
م د
ك ت
ه م
و ج
ذ ا
ك ن
س ي
ق د
ج ر
إ لى
ن ت
ل م
ف ا
ال ط
س ب
و ع
خ د
م ص
ح ن
0 0
م ت
ب ن
ب د
ار ات
ا ج
ال ث
ت ص
خ ل
كس ارة
ن ي
20 1
ال ذ
و ز
و ف
ب ا
ب ل
2 1
د ا
أ و
خ ر
م ج
ح ة
ق ي
عل ي
ي س
ان ي
م س
ا ه
ص ل
بي ع
و ك
د ر
ط حن
الت ي
ب ة
ق ل
ع م
و ض
ر ق
ك ر
و ط
ه ي
ا ص
ت م
ت ج
ب ار
ه و
ح د
س م
ع مل
ح ي
و ال
أ س
ت ن
ط ة
دي د
م ش
ك ان
ا ع
ه ذا
ت ق
ير ة
ف ر
ا ض
20 21
الم ح
خ ص
را ء
و ان
إ ن
ي ات
ه ر
شر كة
ت د
ار ي
و الم
ت ع
وق ع
ال ه
ي ك
ن د
ف ة
ج م
ت ل
ك م
أ ي
1 0
و ات
ب ين
ذ ه
ح ق
ط ل
ور ة
الم ن
ل س
ال ة
ف ض
ن ع
ك ات
الل ه
و ص
ا ق
ت ك
ت س
ي ج
ي ع
و ح
مي ع
ق ط
ن س
ب ح
ب ع
و ظ
ال ات
أ ك
ال غ
ت ي
ان ية
أ م
ب و
س ن
ع ام
ذ لك
رب ية
ت ه
ث ر
ز ي
ب عد
ون ي
ف ى
طحن ة
غ ير
ع ا
ه ذه
م ق
ك ي
ول ة
ال ية
ول ا
و ري
ج ميع
1 4
1 9
خد م
ري ق
خ ط
الم ر
ص ر
ب ت
م طحنة
و الت
ال ز
ل ات
الأ س
ح ت
م و
م ست
اف ة
الح جر
ح ر
ال ان
ا خ
ا ط
و أ
ئ يس
ف س
ه د
ه ات
ع ب
د ات
ر س
الم ست
ن ية
ط م
ال عل
ام ة
ت ش
ج ن
1 5
آ لة
يم كن
ا ز
ين ة
ق ر
لل بيع
و ى
الأ م
الم ت
و ية
رق م
1 2
م يل
ق بل
ب ط
ري د
ع ي
ل ام
الي وم
ب ات
مح طم
ه ل
الع الم
ز ة
ج ل
ا ش
ام ج
ري اض
ط ر
الس ي
الذ ي
م ار
ع بد
ف ع
ع ار
خل ال
دي دة
1 3
مص ر
الس ع
اب ة
ل ت
ص ف
ي ق
را ئ
م وا
خد ام
ن ظ
الم ص
فض ل
و ار
ك ز
ج ه
ال شر
ود ية
ال آ
أ ح
ئ ة
ح ل
م ث
الم د
2 5
ب ه
عل وم
ان ة
الم وا
ال ى
و في
ال اس
الأ ول
ش ي
3 0
مح مد
لك تر
ه ب
ت ط
است خدام
ن ة
الم نت
ز ل
ح م
مص نع
الم ش
ل ف
ام ل
ب ش
ا ي
س اب
م وقع
1 6
ك ية
ب ال
الع مل
ك يف
خ ام
ت ما
عن د
الع ربية
ب ية
نا ء
ت ت
20 20
و بر
ان ات
س ة
عد ين
ع ية
ول ي
ب ير
ل د
غ ر
ج ي
الم س
عر ض
ون ة
و دة
1 7
ك ور
ف ق
و ة
م ه
عل يم
ج د
ر د
ي وم
ت ها
الذ هب
اري خ
ت را
ص ة
ث ير
الإ لكتر
ل ق
ض ا
1 1
ب ق
السع ودية
ك ا
مع دات
الخ اص
ط ن
الم ج
ال بي
قد م
يت م
هات ف
دي و
ب س
ب ك
ت خ
ه نا
اس ة
ر ج
ت ست
ين ا
ال است
ي ش
ار ية
الح ق
ف ت
أ خ
ف ل
أك ثر
اس ي
ك وم
م ط
را ج
الص ين
م ات
تح ميل
م ية
الف ك
ص ي
بي ق
ن امج
م ؤ
أ فضل
ك ما
الك رة
ج ز
ف ات
2 4
ص د
1 8
م خ
م سل
الب ر
يل ة
إ ذا
م ك
20 0
ون ا
م ان
حي ث
كت ب
و من
الم تح
ن ق
ب ري
و ث
ب اب
س ا
ر ض
ح ول
غ ة
ض ر
س عر
ل ه
2 2
5 0
علوم ات
خ اص
الم ق
الم ع
ز يد
في ديو
ل ع
و ير
ن ج
عل م
دي ث
ائ ية
م يم
1 00
ص ح
و الأ
الح ل
ائ ل
آ خر
و ش
عم ال
الر ئيس
اله ند
شر ة
ح ص
عر ف
ل ب
ش ف
من ت
را ق
أ ف
ج يل
الت ج
ان ا
ص ور
الب ح
الت ح
الق ر
خد مة
ا ث
اس ية
ال رياض
ام عة
ض اء
ال وط
ا ك
ع بر
لا ح
وي ت
ط ف
الإلكتر وني
ق ع
م ال
مسل سل
عد د
أ ول
خر ى
أ د
ر ئيس
علي ه
كت وبر
الج ز
وا ئ
س ين
مر كز
ج ديدة
ائ ر
ل ن
2 3
تر ك
غ ي
بع ض
تن ظ
الع ام
ت أ
حت ى
ي ح
إ د
ت ب
المتح دة
ال نا
ب ها
ا قة
الع ر
ور د
س حق
ع ات
بر نامج
ق ائ
ق سم
وف ر
ور ية
الح ر
د ل
م تر
ت ز
قي ق
سل ام
ري قة
ي خ
الد ول
ار ت
غ ط
أن ه
الب حر
ت ف
تد ى
ون ية
ا ة
اب ع
ج تما
مث ل
ري م
2 7
ك ام
لا ث
غ س
ك ون
الت ر
مح ف
الص ح
را ض
عل ام
الحق وق
الم غ
ج ديد
مش ار
وق ت
د ون
من تدى
د ول
و ين
اب ات
2 8
201 9
ث م
من تج
ض افة
الم وقع
م ز
0 8
ي ست
عمل ية
ري ر
ي ط
ال ض
م ض
لا ء
لا ق
شر وع
أ كتوبر
ان ت
وظ ة
أ حد
ا و
ب را
ر وس
ل ح
وج ه
تح ت
الم ؤ
الت عدين
ج ان
ي ه
ما ء
الص ف
3 7
ج ات
بش كل
وس ط
الت ق
وض وع
و إ
سب ب
م ام
يا دة
البح ث
وا ح
مش اه
الأ خ
كور ونا
وا ء
الح ص
شر كات
محف وظة
ين ي
وا ع
ح جر
و تر
ر ح
دي م
ش ار
ال ام
2 9
ش ة
ط قة
و ه
و الع
اف ظ
ج ة
4 7
الت عليم
الت س
وا صل
يا ء
الخاص ة
ق ا
ص نا
تط بيق
ي ون
6 9
الف ر
غ يرة
و عة
ار ج
و يل
ئ ي
يك ون
ط ي
اس م
أ ش
مي ز
ب اح
يم ة
تر نت
ان يا
مل كة
ش ن
عا دة
خر وط
ري ف
ائ ي
ق ص
ن قل
مج لس
الم خ
ي و
6 0
الت ص
ظ ر
عر وض
الحل قة
خدم ات
و اب
ع يد
د د
د ى
خ ي
تص اد
وز ارة
ير ان
الا جتما
الث اني
ائ ف
ل إ
الد ر
ر ات
يا ة
ض ل
نت اج
ق ية
ج امعة
ق ات
أ ة
في ه
الم نا
كس ارات
الخ د
تل ف
3 2
الح ديد
3 9
يف ة
الس ل
وز ير
و دي
دا خل
عن وان
ا عد
ب إ
منتج ات
ط ب
مو عة
فا ع
اب س
الل غة
الم ه
الا ق
مج موعة
الت ن
201 8
بو اس
إ لي
ط اح
4 0
تص ميم
ال في
و الإ
الك ويت
ق ال
ح اد
ش خص
بواس طة
لل م
طف ال
ي ز
ش ب
خ ول
2 6
حق وق
لل ت
وض ع
ري ب
ح ساب
ذ كر
ف قط
ذ ية
ا ول
ري ع
س ر
كان ت
أ ع
ك ب
ك ري
ص يل
لس ط
0 5
ل ية
الأ ح
ان ون
المح م
الع امة
العر بي
دي ل
تنظ يف
كت اب
ك ار
الب ريد
مد ينة
الم ملكة
ها ز
و هو
00 0
كت ور
من ذ
م با
ط ريق
جن وب
م خروط
الإ سلام
ن فس
ص نع
الع م
ريق يا
الر س
هنا ك
الف حم
بح ث
ما ك
ظ هر
اب عة
كوم ة
ع ق
صي انة
الث الث
يمكن ك
الق د
ع الية
ن وع
عل ن
ول وج
ح سب
ا ون
ل ها
ت بر
تست خدم
ا دي
يج ب
تك ون
ل و
الص حة
الس عر
د ه
ذ ات
الج ديدة
س كس
3 8
الا خ
أ ر
لا ين
الم عد
ب لا
ه رب
اس ات
ز ا
الك س
الرئيس ية
ط ار
اه رة
ت اريخ
ئ ية
وج د
ول كن
ز ام
5 9
وب ا
ط ريقة
س ان
ب نا
سب ة
و الن
البحر ين
ح ات
201 7
صر ية
4 1
ج راء
كيف ية
وظ ائف
ق م
رائ يل
ي ب
201 6
و الح
الش يخ
د ث
نظ ام
أس عار
بد أ
س لة
ت مع
خ ور
ل دي
ب الت
س ام
وي د
قط ع
إ س
م وس
ا ذ
الإ م
م ين
اد ر
و ما
وا حد
3 5
ار س
الع راق
7 9
الص نا
الم علومات
ن ف
و الس
ال شركة
ص ال
ن شر
في ها
ش اء
الم زيد
الج ي
م شروع
ك رة
الأ د
وا ج
ت نا
ض من
اف ضل
ب ول
ا ية
لي ز
و بي
الآ ن
الأم ري
ض ع
ال ولا
اب ن
س ات
الج مع
وري ا
وب ة
ع الم
ن ين
طل ب
ح و
مع ر
أ خرى
ني ع
أ بو
الخ ط
لك ن
اق ات
د ور
ف إن
الا ح
الد ين
ل بن
أح مد
تس جيل
الخ ام
إد ارة
الإ ن
اه د
وق ف
ق ام
الت ط
يا ه
قي قة
الش خص
با ط
عل ان
علي ها
كس ير
3 6
و اس
في ن
ج مع
ب م
الإ س
الك تر
أ ص
ض ة
ح ب
الإ نس
ف ية
ج ري
أخ بار
آ لات
الج ديد
متر جم
مح طة
ح الة
عد اد
ن ص
الحص ول
جه زة
الص ور
ف ن
ال اب
ل أ
سا عة
الم لك
وج ود
الم وضوع
اح ة
ر ك
م بار
تس وق
ي ين
كن ت
نا ية
ف تح
د ين
اع دة
لل أ
تر كي
3 4
الث ق
ب أ
ست ان
س و
م رة
المد ينة
الك ت
دي ات
الت ش
ك امل
وق د
وا ق
زي ز
فا صيل
عد م
الر ح
8 7
قائ مة
اب ل
ب اد
ا عة
ظ ام
مشار كة
الف ن
طاح ونة
اس ب
ع مر
الأول ى
رب ع
ه اب
مل ة
ان ع
م كان
سل سلة
ش هر
الش عر
لل إ
0 9
لي س
ز مة
الم وس
من ها
غ ل
ا دة
اب ط
ب ريد
ف ح
عل اج
جه ة
الع ق
ال يا
ض يع
ل غ
الص خور
و الج
ح وق
مشاه دة
ك بير
الد كتور
ف ظ
ار د
و الق
الإم ارات
ل يل
أي ضا
رب ة
0 6
من ه
سن ة
غ يل
طل ق
ب الم
الس ود
ب ور
الب ن
ت ا
اس بة
ث لاث
ع ش
ز يل
ك و
و هي
الن س
ص لاح
ات ف
المن زل
ع ض
الس ريع
ائ ج
الق اهرة
خاص ة
ج دا
من طقة
ا ا
الذ ين
الأ ن
6 5
ز م
كن ولوج
صنا عة
ط ق
هي ئة
ش راء
ب ناء
أ ق
أف ريقيا
ذ ر
ام ا
آ ن
مح افظ
أ هم
الت د
أ ث
ج ار
ض د
ما ذا
اف ية
الولا يات
بي ا
تم بر
إ لا
بل غ
الج ة
عند ما
سب تمبر
الوط ني
ت عرف
0 1
لبن ان
ن ها
تي ار
كل فة
الن ف
خص ص
ز ب
ل ان
ب سبب
و الب
الق ط
تص نيع
ط لاق
س سة
اع ات
أن ها
س ير
بد ون
تر ة
المش ار
العالم ية
شر ات
كب يرة
سب وع
ت علي
ين ات
دول ار
بي ل
ف اء
ما ية
ق ق
8 5
ه ور
الخ ص
د ع
راء ة
ح ية
ا غ
ر ش
د اد
الس لام
لي ف
ع ط
ز ين
د ائ
م علومات
ن ى
ت ون
بي وتر
تل فة
ت وي
ق لة
و الد
و التي
حد ث
الصف حة
اف حة
تق ديم
ص الح
ؤ ول
م كن
جن ة
0 4
الم ل
الم سل
وح دة
ز ات
و فا
ت ين
ب ج
ال وز
الج ن
ون ات
لسط ين
ف ريق
واح دة
لا ف
الخد مات
ت لك
ت عدين
ن يف
مس حوق
ت ري
4 9
ط ات
ي وني
وم ة
الر مل
ظ م
المنت دى
المغ رب
ال لا
أ ل
و ذلك
ج ع
اس تر
ب الن
الشر كات
الد ولي
و غ
مي س
ظ مة
ك يل
الع ديد
م را
دا ول
د ية
3 3
ص غيرة
الإ د
ب ان
لع بة
ص ابة
ق نا
الي من
السي ارات
قر ار
العل وم
أن واع
س ع
ال دي
الخ ارج
الث ان
أك بر
ث ق
0 7
و خ
الك ثير
9 9
0 2
الح كومة
لا د
الق ي
لل ح
أم ام
ع ين
و ء
201 5
ي ار
كل مة
في لم
الث انية
ال وقت
و صل
اش ة
سي ارات
تح قيق
4 8
ح لة
را ف
ب الإ
موا قع
الجز ائر
ت بار
ي حت
الك ل
مل ابس
ص ورة
الموا د
د بي
الح ياة
ت مر
المعد ات
ال وا
ن ب
ز وج
201 4
ج هاز
الد خول
ترك يا
ح ين
ا خل
ب ما
الد ولة
الث لاث
أ ور
فا ق
من ا
ير ا
اف لام
و الف
بي ب
4 5
كنولوج يا
المنت جات
إ نتاج
وص ول
ائ ق
الم ورد
ن وف
الاق تصاد
الإن ترنت
الأ من
دل يل
غي ير
ف قد
ي ص
م بر
ذ ة
بي ت
الس اعة
الجي ري
الس اب
سن وات
قط ر
الا ول
في روس
الك هرب
ليز ية
مع الجة
الم ط
د ار
ذ ج
هد ف
شر ين
ض ي
الأمري كية
0 3
ه يم
نس ية
ش عر
مج انا
الس بت
7 5
مل يون
الح ج
سب وك
في ذ
الت واصل
ف ش
الا ش
ن حن
را د
ول د
ام ي
نا د
ه ار
6 1
شب كة
ن عة
التج ارية
غ م
يوني و
ب أن
الوط نية
شر ح
ه ما
بر امج
أم ري
ب خ
الع رب
ع اد
وا د
الش ع
ض ح
ي ؤ
تأ ثير
ك ين
ر مض
المص ري
3 1
سل يم
الر ج
اب ي
ج ير
الك ر
ه ه
وي ق
ض ية
ل أن
ري ال
علي ك
وب ية
أ غس
الأ عمال
ول ات
ن ش
ف ور
مار س
ج مة
خ ة
فس ير
لك ل
ري ا
الس نة
الأ ك
الدول ية
ت غ
ت كسير
ح سن
ز يت
أك د
اح ن
201 3
وت ي
لد ى
يج ار
الجمع ة
الح ديث
الن اس
5 6
الأ ش
لك م
تخ ابات
ولي و
المنت ج
الا ع
ش اهد
عل ق
الط اقة
أ جل
ان ه
م ما
ض م
ان د
الم اض
8 8
ط يع
الإنس ان
مد ير
الص غيرة
با ك
الت اريخ
مي زة
الع اب
الات صال
س ية
مح م
رمض ان
ش ا
وص ية
الأ ور
ج اج
ث مار
س كر
الر مال
ب الج
7 7
ك د
ت وا
م كت
ر ؤ
ت قد
نت ائج
و غير
وي ات
ولا ية
تص فح
4 4
من زل
أ لف
و تح
ف ري
دا ث
ما يو
وفي ر
مل فات
8 9
ي وليو
ما ع
الت ربية
الاجتما عية
ه ن
مبا شر
و أن
ب ث
ا كس
م الي
ال الكتر
سي اسة
ينا ير
الد اخل
ت وى
الس ن
نا صر
المحم ول
وم ي
بن ات
تركي ب
مج ال
الع ناية
النف ط
ر أ
عمل ة
ز ر
الب ط
ك افة
دي ا
و الش
مك افحة
ل من
في ر
ش فى
الات حاد
ث ل
طر قة
الأ طفال
ط با
ح اس
4 3
الم الية
الأس عار
خر ج
يد ر
ف ه
كام لة
القر آن
ط الب
8 0
ك شف
ش ك
ل ين
ات ه
ال لي
ت كلفة
ت عليم
المج تمع
الأ رض
كل ية
ب الق
المحم ولة
الم ياه
ت قدم
بال رياض
و الك
ع و
ر ف
در ويد
الصح ية
تم ام
ئ لة
في ات
ت ام
عر بي
لا ع
و است
الح ي
أ ما
ه ج
م ون
إ ضافة
الس يد
ال را
عن ي
ا جر
المص نعة
و الر
ط س
د ولة
ط رق
مؤ سسة
س وف
مي د
اب ية
ط اق
ج دة
و حد
س يا
5 2
ك ه
5 4
ق ول
زي ارة
8 4
ج اه
ق ت
شر وط
الت الي
بري ل
لا ئ
الن بات
تع ريف
ر ان
ط ان
ك لة
الص حي
الل بن
ه ير
الد وري
س وريا
الت عا
الط ل
ام لة
س ك
ك مة
مس اء
ط وان
ز يادة
إ كس
اج تما
ا كل
رق ام
لا ة
السع ودي
مبار اة
ال ها
الف صل
المن طقة
الن ق
مبا شرة
المر كز
الكت اب
س ه
الخ ميس
الم تن
25 3
ال ار
نق لة
الأ ع
لع اب
اس عار
ح ديث
ص حي
أم ين
عام ل
توي تر
مست وى
ل است
وس ائل
الس يا
ات يج
سو ارات
ب غ
عل انات
ت قي
حل قة
ج عل
برا ير
ارت فاع
الإ علام
ال فيديو
رس الة
الن ظام
نوف مبر
ب الب
ف براير
الج ام
در اسة
في سبوك
شي ء
يل ي
المع اد
س وق
ف وق
مت نقلة
ور ات
الموس م
دي سم
التس جيل
الغ ذ
إن شاء
ب استخدام
الن شر
ني ه
المر أة
ديسم بر
الر ق
دي ق
أي ض
الخارج ية
بي ان
201 2
جراء ات
أ ب
ض غط
الس ر
صف حة
بي انات
ف لا
ق ب
الخ لي
أ بي
ش ير
ج ين
الأ رد
ش كل
5 00
ع شر
ص باح
أغس طس
م غ
ك ال
أس ر
التط بيق
الإسلام ية
الك ريم
٠ ٠
وب ات
سب اب
أي ام
7 3
و الا
خط ط
ح جم
ث ة
أ لم
مد رس
الط بيع
الم صرية
الاجتما عي
الأ خرى
ت عمل
الخ بر
ش ع
الب ناء
ج از
و هم
خ ب
جان ب
إ عادة
ق انون
اخ بار
6 8
ف صل
يج ة
الكس ارات
الإلكتر ونية
أن ت
ن ز
الر سم
الت ف
المست خدمة
وم ات
أحد ث
أ غ
الأ حد
ع ربية
ظ ة
من ة
ش ها
5 5
20 22
الأ مر
ت مد
بن ي
19 9
ما دة
ماك ينة
حص ول
تن زيل
اد ات
تق وم
ص اح
ذ ي
الإ نج
مل ف
ق اء
ت فاصيل
أ نا
7 8
ر ين
الك م
الأخ بار
مو ذج
ض اف
وائ د
ر وا
المن ورة
ص حة
تط وير
الع ن
الأ ق
س يد
ع ى
در جة
نا ئ
وفا ة
ار ك
ال يد
الح د
الت علي
ل تح
م كتب
و حة
بريد ك
أ ج
فا ض
ن حو
الكس ارة
6 4
ائ ح
الان ترنت
و الص
ال ور
قط اع
إ خ
ش ل
السود ان
د عم
الخص وصية
ص لى
ه يل
ز يا
تق رير
العالم ي
الم قد
الع د
الاس منت
ك ثير
تش غيل
الداخل ية
ا يا
الساب ق
و هذا
أ ت
ف ار
ر فع
الموا ضيع
اح صل
محافظ ة
وي س
م وضوع
المست خدم
ت قل
ن يا
ف لسطين
الش عب
ي وجد
ج ا
اج ة
م اس
صف ات
مج انية
ف عل
ب الك
ترا ك
اري ع
أث ناء
وك الة
ص يد
خ ارج
غ رب
عا ية
الشخص ية
الق انون
تح دث
ز ن
و ام
ث نين
الرح من
الا حت
7 0
ق س
ع دة
السي اسية
يك ية
ائ رة
أ بريل
وس ي
ت شرين
ل قد
و الط
6 3
وع ات
خل ص
هر جان
تح ديث
تل ال
ص غير
تك ي
ري بة
بيع ات
الجز ء
لا ك
ظ ل
الم ك
ت عر
الم ث
ئ ات
س ون
خ لي
ت علن
ت هم
وظ يف
إس رائيل
ن ان
غ ب
د ورة
3 00
ي عمل
ل نا
وف ق
و ست
ه ام
الج امعة
4 2
201 1
الب لد
الج ودة
مت ع
الثالث ة
عمل يات
حي ات
الت ع
ج ودة
الن حاس
يق وم
ش ري
الأم ير
رس ال
وظ يفة
أ هل
الس وق
وق ال
الم طرقة
ج ى
ه لي
ذه ب
وص يل
من ع
معر فة
س يل
وس لم
قنا ة
الس اد
الع زيز
ما ي
ف ال
البي انات
ص وت
مت جر
عن ه
تكي يف
الأ ز
موا د
في ما
الق ائ
الأك ثر
الم را
هد اف
الم لف
ت ؤ
س عيد
الن ص
ب الد
فا ظ
6 6
ق صة
خي ص
7 2
اب ون
ش ه
ل ذلك
الش باب
ا ولة
ب كل
أش هر
الش مس
أح ذية
اسي وط
ار ب
الأ ص
مس ؤول
لد ينا
رج ال
البر نامج
نا ف
ر هاب
القد م
م الية
با ع
الخد مة
بير وت
م راج
صد ار
سي ارة
ج و
ت فسير
ج يد
ا ور
بش أن
اخ تيار
4 13
مط عم
و عنوان
الموا قع
المشار كة
الح ب
ناد ق
مشاه ير
قل يم
ني وز
ا كت
ن وات
ارت باط
ح مد
الاب تد
الم ز
ق راءة
تق ال
أ ز
الع ض
و و
من ي
الج يش
ع قد
د ف
طل بات
وم ع
اب ت
ار ه
مخ تلفة
ب المدينة
في د
هي ز
الأ سبوع
لسط يني
لي ات
الإ خ
غر فة
ش طة
79 7
ال اد
الق ص
غ ان
و إن
ج لس
وات ساب
أ عمال
تر ام
أ قل
ند وق
الط بية
ر أس
الج سم
أد وات
بت اريخ
وك ان
ب من
م م
كات ب
ار ا
مق ابل
ع بة
ك ش
الم عر
ت فع
يك ا
إلي ها
بر ج
س اعات
تن فيذ
خ فض
س سات
سي ق
أ بر
مست شفى
المعاد ن
ك ير
ت ريد
ص ار
بد ء
سي س
تنظ يم
الت ى
الج نس
ش د
جز ء
08 7
مر ض
و يم
نس ا
ري ح
و كل
إ يران
ط ع
يت ي
ج رة
الشر ق
مط احن
ب ب
ز الة
قد ر
تح مل
797 087
عبد الله
5 8
الأ ف
المر ك
مو عد
ام ر
وي ب
هو اتف
ير ات
تي ب
أ رب
طوان ة
ج ام
لل حصول
تد اء
المج لس
وج ل
مع نا
ؤ ون
مخ تلف
ال اف
الط بي
أ رقام
مدرس ة
شر ق
الأ ربع
وز يع
د م
ا هم
ع ج
اخ تر
و على
ق ه
ت ض
إ ذ
47 37
المست وى
مر ار
ل هم
و الخ
س ري
عم ان
وض ة
ب اء
لي ب
س اء
الج مه
ح كم
ج ما
الكم بيوتر
ور ت
ب ض
الم در
ر جل
الاقتصاد ية
اج ل
مص انع
الأ ل
4 00
المص نع
من ح
ت ار
الف ل
و كس
ض ور
شر ف
خ رة
ري س
د خول
صح يفة
ت غيير
الب ري
25 0
الي ات
ال وس
منت ديات
ر سم
الام ارات
تح ديد
ل ما
د ير
ؤ ال
في ف
غس يل
ول يس
شن ط
وي ج
ش قق
خ لا
الد فاع
س كري
ن طاق
الر د
المتن قلة
الدر اسات
الع ين
ران يت
ك وب
الج هاز
ال رائ
تلف ون
ت اج
خ ري
ق وات
الثلاث اء
وج ة
جم يل
ب اسيوط
اف ر
لل ع
ب نت
ف ني
تر م
إ لكتر
خص م
201 0
العمل ات
م الك
الصنا عية
الان تخابات
آ ل
جز اء
ول م
نا دي
ح ف
ب الكويت
ائ ع
ل ماذا
ه ة
ان ونية
مص ادر
صح اب
نها ية
ك يم
در ية
مج اني
بالإ ضافة
را ط
البر امج
الش ار
ط ح
حق ق
إ علان
الأ لم
الذ ات
ات صل
سكر ية
يق ول
ه ند
المر حلة
تص ل
أ على
وا عد
خص صة
الإد ارة
الحج ارة
الوز راء
ص الات
أ جهزة
ج ون
جمع ية
وس ف
ال وق
ط وير
ت مت
أ مر
مق ر
الماض ي
الم شروع
خ الد
الاح تلال
ست خدم
ش عب
مش كلة
نا ئية
ح سين
طبا عة
الخام س
روس يا
4 6
ط و
ف ترة
مخروط ية
7 1
الثان وية
يست خدم
ح ا
ام ات
الخلي ج
ط بيع
بط اقات
الن قل
ر عة
الح كوم
ل ز
الت نظ
تعلي ق
ت تم
أور وبا
تون س
ي ض
الأس منت
ت ى
ا خر
خ بر
ظ اه
الموا طن
الغ ر
ح زب
العل م
نظ ر
را حة
ند ق
ب الف
لم دة
م طل
المر ور
اض غط
الخ ر
الر ابع
محم ود
المح لية
الد م
الأخ يرة
إ ست
العم لاء
ال ارتباط
أخ ذ
الب شر
فاء ة
ثلاث ة
يف ون
لل ا
ن وعة
المورد ين
5 10
برا هيم
را قي
ق يم
و الي
٢ ٠
أ عل
ل جنة
تع ديل
ر ابط
لدي ك
ف ان
را في
وبا يل
ج نيه
ك ريم
مح ر
ب سي
حر كة
ق ف
ع ص
م هرجان
وك يل
تج هيز
ث ان
ع ز
ت نت
الآ خر
ا في
الالكتر وني
ح صل
ي ام
التر كي
ف وائد
السي سي
م قد
الن ها
خ راج
ن سي
بد اية
إ ش
الط ب
س د
الخ رس
العل اج
الل غ
مج لة
فر نسا
ماك ينات
المل ابس
9 0
أس اس
تج ربة
وتي وب
ش حن
إ ث
وح ات
ح ياة
الف ور
تحت اج
لق اء
ذ ف
ع ائ
ن سبة
الم ال
بالن سبة
اص مة
تص نيف
نت يجة
ك هرب
عام ة
يحت وي
الس وري
كت بت
الك تب
كل مات
الأ ر
خ ذ
ري ض
ط ول
ل هذا
فا زات
غ سل
الع دد
ك ث
الش اشة
وال است
ح ال
ال وجه
الم بار
الز را
ألم انيا
مشار كات
مل ك
وق ات
أص بح
ميز ات
لي ك
ج اء
ص ب
ج ائ
ش باب
اله اتف
ي قدم
جم وعة
5 1
ال وصول
ي عني
تق نية
ش اب
الم طل
خص وص
كم بيوتر
إ صابة
بري ط
كن درية
العل مي
ا ذا
الص ورة
ب وك
أمري كا
ف اف
ير جى
اب و
الص وت
المح افظ
الط رق
تع الى
دي مة
عن ها
فا عل
الح رب
السي اسي
قط عة
ت وفر
المخ تلفة
نس اء
ح ضر
ي وسف
ط رة
ب وت
التص نيف
الم سي
ك ول
الأربع اء
الم اء
ج ابة
ت ابع
ب تد
ص اد
ذ ب
ب الغ
تنا ول
الأ على
ش مال
لل است
النس اء
در د
الق اد
الب لاد
مع رض
ث اث
بط اقة
دا يا
ت وفير
الك بير
الق سم
من ظ
ن موذج
الم ي
الن فس
أ سبوع
ئ ين
7 4
س واء
لل ان
وس طة
ار نة
الوط ن
من صة
وص ف
بي ض
ها ي
اط ع
المن ش
المنا طق
الن بي
س تر
ب الصور
ث ار
القد س
تج ارة
ون د
الح مل
إ ل
أ ه
ت يا
رب ات
الرياض ية
وت ش
نا ه
الأرد ن
ن ور
الط فل
اتيج ية
ال استخدام
الش هر
الإس رائيل
العر وض
ل ون
ائ د
الن ت
نفس ه
ق امة
ف كية
ب اسم
وار د
اد ية
ست اذ
إ براهيم
الي اب
لي زي
راض ي
الإ مام
غر بي
ت ات
ي صل
عام ا
وظ بي
تت اح
شار ك
لي بيا
البر لم
الإ ست
اا اا
وغير ها
ح ماية
ت علم
اط ق
ين ت
أع ضاء
الساد س
م لا
ع فش
ص در
لل صف
أم ير
9 6
و الذي
م ول
وج ودة
التعا ون
ن ات
الن ي
الفر نسية
اب ر
الع ث
الش ب
ك ود
بر ى
وت ق
د وري
ني ك
ش ات
وح يد
د قيقة
بن ك
مق الات
ب است
ئي سي
تح ويل
ق يمة
ح فظ
تح انات
الد رد
وع ية
السي ارة
وهم ية
س فر
الاس لام
ط ور
8 2
اط ر
الش ه
الن ج
تطبيق ات
رؤ ية
الف رق
ب لة
ي انة
الع مر
ر ت
تص ادي
در اسات
ح قي
خ ز
ا عر
ض مان
ض ير
ض يف
خ مس
طر ف
ائ دة
اكس سوارات
الط ريق
لي ست
الاس تر
ب ص
ه ون
م ير
الغذ ائية
الان ج
مكت بة
ب الأ
استخدام ها
البن ك
ل جميع
14 27
0 50
خ ار
صر ف
الل جنة
عد دة
غر ف
اجتما ع
ت و
7 6
ات ب
ق ض
الف لسطيني
ن ه
الأ هلي
ني ات
إ ف
عط ور
المح جر
ش يف
20 00
درد شة
لل غ
د و
وت ع
ق تل
ب الس
التس وق
إ رسال
س يتم
ع يم
العل مية
ش هد
ش اشة
ل ط
الخرس انة
مت از
رس ائل
ح س
الط لب
العل يا
المح توى
ص ندوق
وان ات
اب لة
قد رة
لو حة
خ طة
أ من
بار ية
الت فاصيل
رح لات
خط وط
طر ح
اح مد
ارد ن
ان واع
ي علن
يم ان
إ طلاق
ول ن
بل د
ضا يا
آ ت
الت ه
ح مل
الم كت
سا عد
عل قة
جري دة
مص ري
مق تل
الل ون
الق لب
كت ابة
ظ هور
ش اط
ت عرض
15 0
ب شر
متر جمة
تقي يم
ب ز
مالي زيا
مل يار
مست عملة
الثق افة
الج ما
الأمري كي
ام ية
صاح ب
الت الية
غ ذية
لغ اء
الس د
حساب ك
ار ير
الم حد
الكهرب ائية
ات حاد
وا فق
مع د
الب د
ك أس
الدرد شة
ص لة
ئ اسة
ش اه
ض بط
الح جم
نائ ب
مج م
الز يت
م مار
الحص ى
الش حن
الد ورة
ين ما
مص در
بل ج
سب ق
الش ري
وك ذلك
يت ه
واب ط
خط يط
مؤ تمر
الت ون
وان ين
تع زيز
ح ز
الجمه ورية
جم ه
الأس طوانة
س يم
البي ت
وع ي
وم ان
الط عام
علي كم
العمل ية
ت وق
ي ور
موا ضيع
لل ق
ج وجل
ب اني
را ع
5 7
قص ى
ار قام
ز ه
الا ص
ب الر
ا عم
بط ولة
م ف
التر كية
ط فى
في زا
ي عد
ع ود
ري ات
فا قية
التص ميم
ما د
مح جر
ف وز
الأم يرة
الشر قية
الف ت
الموا فق
هو ة
رس ول
تك وين
أس ماء
ل غة
جر د
م فت
ش ق
را ح
ب كر
الرس مي
ن ك
الرياض ة
ف قة
ر أي
ت داول
الإ نتاج
الخ ي
ج ور
وائ ل
الأس اسية
مر حلة
صل ية
اله واء
من ظمة
جم ال
الم ار
تس اعد
رياض ية
ض افية
خط ر
العن وان
الأ وسط
الم با
5 3
وث ي
صحي ح
الح ساب
تما د
بو ابة
راق بة
حص ان
وت ن
حد ى
د فع
شها دة
الأع ضاء
إلي ه
بي ه
التش غيل
اس ل
ا ومة
الكهرب اء
التج ارة
انت اج
يا ج
الاست ثمار
الدول ار
التعليم ية
لل ط
الت أ
الشر طة
وب عد
الل ح
ر بيع
تح ليل
طو يلة
ول يد
لا عب
الج رانيت
إ عداد
وا ز
29 3
ج دات
الد ع
مش اكل
فر ع
أ رض
ت يل
خ ال
دون يس
الحر ارة
بح ر
طب خ
8 6
خ ير
ات ها
د خل
الوز ن
دي كور
تق ى
الط حن
ع نا
بق ى
مس اعدة
ا وي
الإنج ليزية
ق بال
طي ب
ق وة
ب الع
ق فازات
ا وز
ع ه
رياض ة
أ تي
طل اب
الوا قع
بي د
الشع بي
س ح
بد و
لم وقع
الس اخ
ن ورة
ان تها
م مكن
6 00
مح ل
شار ع
ر ر
ك اء
أ جزاء
الثق يلة
ل عام
من اطق
الب ار
الس فر
اب ا
يا د
م تح
ان ف
دائ ما
الي ه
بط ال
الأم م
أ سباب
ت واصل
قص ص
ل ج
ضر ورة
الخ ير
الك ي
نص ائح
خط وات
لل ه
الت كنولوجيا
ته تز
التح كم
ك وك
الد فع
س جل
ول ه
س ق
ا يل
الطل اب
م باد
ها د
الصين ية
100 0
ح اء
يع تبر
يك شف
لك ي
الت كسير
تش كيل
08 8
الم تصفح
9 5
الإسلام ي
ب الش
عض و
وك يف
الص لاة
الق وات
ت تح
إ ح
وا ي
جز ر
ه ى
الت عامل
إن ها
المس ؤول
سل م
الف لسطين
قل ب
القط اع
ض خ
ار ى
دونيس يا
تر تيب
القي ام
الإنس انية
من از
اج ه
خ فاض
ال هيئة
الف ريق
ض ف
بين ما
الإ ير
تج اه
صف ح
الص انع
بريط انيا
5 293
تح سين
ف هو
ز ون
بن ى
أ مس
مراج عة
المرك زي
الأور وبي
ن قدم
الب شرة
المه نية
التن مية
أ ون
الن وم
س عد
مج ة
فا ج
السل طة
9 15
المق بلة
ب اس
وف ة
ح رب
ش ئ
الاش تراك
ش غ
مرا كز
ع ون
د اب
ن وم
وت س
الفن ان
وم ية
تست طيع
الإ رهاب
تسوق ي
ح الات
و ذ
ش ارة
وصل ت
شي خ
كن دا
البري ط
جن بية
الع راقي
ا عرض
تع تبر
ما كن
ح كومة
الطبيع ية
التق نية
ائ تم
م خطط
الس يل
طاح ن
ح ملة
م ظ
لي ه
الفلسطين ية
إن ه
تن مية
الف نية
هر ات
15 84
مص طفى
هه هه
وب ين
الس ير
مس اب
تش ار
م ور
مع ا
الع رض
الح شرات
القر ن
إ م
حل ول
الد ور
200 9
ع ت
كم ال
ري بية
ر وح
تك شف
أهم ية
القائ مة
المست قبل
إ جراء
ول و
اك ثر
أك يد
1584 41
لل عمل
شر طة
و آ
نج اح
الق ديمة
مع ظم
ه ولة
ين ية
م وت
الأ جهزة
بال فيديو
نق وم
يج عل
ب الا
تحت وي
ني جي
ع اجل
ال ري
الط ريقة
ائ ري
موا جهة
الس ورية
الك يم
ص ديق
ط بق
يك ي
الح كم
الف ني
مح توى
الم قبل
الدر اسة
وض ح
مه مة
الح الي
اله يدر
مع دل
للأ طفال
ع ث
غي ار
ن جر
الح سين
الم ادة
أبر ز
الغ از
مح د
ي وتيوب
أ زمة
ت وقع
الث ا
ال و
ت وجد
أ لعاب
الد عم
ت عد
ت ث
ناف ذة
الف ترة
اللبن انية
الج ميع
اق رأ
ح صرية
اش ات
لل بنات
ماع يل
بد اع
الصنا عة
اد ث
اد رة
مج تمع
جمه ورية
نس خة
دي س
ع رب
ذكر ى
اق تصاد
ذ ن
د وز
ري با
مق ارنة
مش اريع
إ حدى
اش تر
ط يل
اخ تبار
يت ها
لاح ظ
من ى
مت وسط
العراق ية
جر ام
ش ارات
النا قل
الإ علان
مت ابعة
التعلي قات
ي اس
الر جل
ترام ب
أد اء
الف كر
العل اقات
ند س
الت داول
الم ف
ف حص
لم ات
المد ارس
في س
المش اه
بار يس
لي ح
ور ك
وس وف
الرج اء
اض ي
في ض
بن سبة
ه ان
س ما
است خراج
البشر ية
اح ات
الأش خاص
جي دة
الفور كس
زي ون
هو ية
وا قع
ب وي
ع يادة
ائ ب
اللبن اني
المشار كات
البرلم ان
الأس ود
الأس رة
وفر إكس
كان ون
تن سيق
س بيل
لل ج
ر ى
مع نى
200 8
إ ضافية
رج ة
بغ داد
من هم
المعد نية
سن ان
س ورية
م ى
المسل مين
الب را
الش ي
أس تر
ار ض
بمن اسبة
ب ذ
ال زي
فا دة
ي كن
ل فة
6 7
شل ونة
ك ذلك
وج ب
الم صر
ا ير
ز را
ي دي
الت زام
س ورة
تج اوز
الجن وبية
التعلي ق
و ها
دي قة
اللغ ات
الن ار
ج ب
9 8
الحق ول
نيجي ريا
بط ريقة
أ صحاب
اول ات
وا جهة
اي ضا
وا ف
إ زالة
مط ار
خل ف
واس ع
تب ارات
ن دي
قائ ق
در وس
الر خام
إلي ك
دا ع
قي اس
وف قا
ش ح
وا جه
14 43
ل ال
الإ ل
ص ات
الض غط
وار تز
ن صف
4 12
الن ظر
الج ان
ش اف
اط فال
اف تتاح
ق اعدة
شن طن
إ يج
الم فت
الق انونية
ك ذا
ل وا
ان س
عل اقة
إ صدار
موا صفات
علام ات
الم عار
ط بي
مد ى
يس اعد
الأح مر
م وز
تع يين
ش مس
المؤ تمر
فت اة
ت بحث
1 20
مر ح
الز مالك
ش ام
تج د
للا يجار
الع اصمة
ط نا
المد ير
الك ون
بل وم
ر غ
طب اء
الدر اسي
جديد نا
الحديث ة
مر ت
اب د
إ طار
عب ارة
ج وز
الدي مق
ت لا
للإ يجار
عل امة
أش خاص
بح اث
ن اس
د كتور
غ زة
فا صل
مل ي
ب يرة
الرج ال
مسلسل ات
بر شلونة
ف ندق
38 2
سليم ان
ب الح
تد ريب
الج بس
ح فل
لل نساء
موا طن
ز واج
أ رد
الم جموعة
لل رجال
للغ اية
ر غم
الع سكرية
غ ا
دا عش
الشار قة
بن فس
ال ظ
بع يد
ر ون
وحد ات
وف د
ت كنولوجيا
الع الي
وين دوز
المد ني
الغ ربية
علي هم
الق ضاء
ائ ن
13 61
كا دي
يق ى
ل هذه
الش مالية
م وظ
المنزل ية
ت وصيل
العث ور
مس اعد
أن ك
ق ضية
وا جد
ست ير
ليز ر
مت عددة
وا شنطن
الرق مية
من ش
أ ثر
ه دايا
ور اء
أ خر
واس عة
وق ة
الج ونة
ث انية
الرسم ية
التنظ يف
حد ود
الغ سيل
ج اد
ا كتوبر
الآ لات
يم ين
وم يت
نا ئي
المن ظ
34 1361
الج لد
ف هم
العل امة
البي ئة
الت ك
ث اني
تح رير
أس ئلة
ن بي
موقع نا
ال وج
تأ جير
مع ه
طر ية
إ لغاء
الأ بيض
مبار يات
الج وية
الي ون
سي كون
الطبيع ي
و يا
الح سن
مصنع ي
تر ف
صباح ا
امر أة
ط بيق
ص ابات
ك رب
روا ية
الك برى
ي غ
خري طة
ن ار
الر ابعة
ب وب
فر صة
را ث
ت بدأ
و الل
ل يلة
الجز يرة
وت ين
تعلي قات
إ سلام
تح قق
ف ك
مست جدات
وق يت
الح الة
مي ات
أم راض
ع زل
اث اث
الن ظ
مناز ل
ال وضع
و يمكن
الر طب
ام ين
عاد ل
را ك
جه ود
التح قيق
رائ عة
تر كة
ئ ل
أ ولا
ما ج
ش ت
باك ستان
الز وج
أستر اليا
الابتد ائية
قر ام
الن قد
يت علق
عم ار
س ارة
ظر وف
مس احة
ي عرف
الم شر
الرس ائل
ج ح
را ز
بالك امل
ت ابعة
الم وجودة
الف ات
الم غربي
دا ة
ول ية
في ا
الأ فضل
م ذ
4 17
الم طاحن
تد فق
المواطن ين
ذ ار
وت ص
الن وع
ح ان
الص د
حو الي
الاق تصادي
راج ع
الإ ثنين
من ز
ان ها
ك ورة
مت نوعة
الحكوم ية
س وبر
ط لاع
ل أنه
غ ذ
زام ية
غان ستان
صالح ة
ل ند
حر ف
ن صر
س س
راط ية
ال اردن
ر مز
بع اد
حقي بة
الم عا
لز مات
الماض ية
وم ح
الخ لا
الص لب
غ ض
يف ر
والت عليم
قل يل
جي ب
ب اللغة
ت وزيع
م هم
الحر كة
ث مر
المح لي
شخص ية
لل كمبيوتر
الس ينما
الم كان
إ جراءات
فر ض
ال بيع
ير ه
الا علام
الح مام
ن ست
وفي ات
ر فض
ر اب
الا ثنين
منزل ية
ي حدث
ف نادق
وس ية
مطل وب
الحي وانات
ائ ط
ط ائرة
تل قي
الر ابط
ر مل
ن ون
در س
الم رة
الط الب
الذ كر
ظ يم
تز ا
المنا زل
رح لة
طل ع
م ها
بي ئة
نش اط
البي ضاء
ت ان
تر جمة
مد ارس
ق ى
الد اخ
ام يم
عد ات
س اد
8 1
ح قيقة
لا قة
وم ست
الاخ بار
نق طة
المت علقة
اس مي
لل مشاركة
إ ي
الملف ات
س خ
كس ر
الص يد
مل موس
الك وارتز
ون يا
وفي د
الك اتب
التن فيذ
وأ ضاف
ه ز
ع ودة
وص فات
غ لاق
الج نسية
تج عل
الر ئيسي
معر ف
المح اجر
الز واج
دا ية
الع سكري
الساب قة
ب هذا
الا ه
الم فض
ط بية
الر غم
الت خ
مح اولة
200 7
ل تص
قر ية
ري مة
أح داث
نا ول
مد بلج
م كة
و اني
لل س
السي اسة
وي ف
مر ور
جم الي
مر ك
تص ف
ص اص
ال وظائف
الفل بين
تص ر
مد ريد
الإسرائيل ي
ثق افة
ار بة
الأد ب
الش ريف
الت اس
ب لي
طن بول
كر م
اح ث
الن ز
ان قر
ي بحث
ب ود
التس ويق
التج اري
تح ان
المس اعدة
م وبايل
ز ياء
أعل نت
الش راء
خل ق
الج وال
المغ ربية
الط بيب
شير تات
جم يلة
قر ر
الك بيرة
حد د
اد ل
تفع يل
بن ها
ت ظهر
المص در
ائ لة
ون ه
تص در
و عد
الانج ليزية
ش ط
بالب شرة
ر كة
تسوق وا
المق ال
الج ميل
ت لاف
تر غب
ي ي
فا وض
مت خصص
وج يه
غ دا
النبات ات
يم ون
الأم راض
يحت اج
تج اج
س اخ
بلا غ
خط وة
حاد ث
ف ول
تس ربات
الت ل
ف هي
س نت
الشخص ي
لك رة
الذ كية
المر ض
الم كتب
الم ض
يوم يا
شك را
تر دد
الإل زامية
الكتر وني
اب ه
الح زام
الح وار
ل ذا
ار ئ
غط ية
الجمع ية
مع ها
ال وحدة
وا خ
الع قل
به ة
منه ج
تر ات
ش ين
وات س
تع اون
فر د
ان خفاض
م ياه
ي ريد
شر كت
تد خل
السل طات
ات فاقية
ح اليا
الرياض يات
الس كر
ائ ص
ط راف
القد رة
طع مة
حز يران
الف ض
ام يك
النت ائج
يس ى
مي ديا
اج مل
أ مل
السد اسي
37 7
اس ير
م وقف
ق واعد
36 28
ل أول
التح رير
دائ م
اله جرة
مج مع
وك انت
الح م
الخ ض
أح كام
ب فيروس
الل عبة
الت عب
صح ية
خل فيات
الك لمات
الث ورة
آ سيا
ك را
8 3
غ ني
جائ زة
وي ه
ش ؤون
الن و
وح تى
أ ست
الهند سة
ل شركة
عم لاء
طر اب
الحد ود
سع ودي
الق يمة
الم وت
ش فيات
ز ال
الح س
الفر نسي
الأ لعاب
وي ض
ائ م
مح كمة
ار ع
ري ت
السيا حة
عمر و
لق اح
سل مان
ال وسط
س ف
الق ض
بد ر
الس بب
فع اليات
قي يم
مرح با
ب ذلك
ظ ار
الع ا
مش ق
ك ف
اللا زمة
وائ ية
م ورد
ال وظيفة
الس اح
الد و
الأق سام
وجه ة
ل تر
السيل يكا
المج ال
ال هي
الأس ئلة
إ يط
في فة
تح كم
الصنا عي
الملك ية
مر ات
اليوم ية
المؤ سسات
مح اض
رش يف
بج ودة
ب ى
الع ص
إد خال
الل يل
ف و
الد ست
وص ات
را هيم
ت طلق
مظ لات
ط وم
رج مة
أ بطال
مد ار
ان طلاق
ا كم
الخ يمة
الب عض
ات ين
يؤ دي
نق اط
أ عرف
تم كن
ري حات
رائ م
ي لا
أن حاء
خط اء
المح كمة
ب ون
مار كت
ر ع
بس رعة
ج نس
عبد الرحمن
ن دا
من ية
با ي
وا دي
غ رة
الجي زة
غس الات
د قائق
مل ات
وي كي
الح ض
كل ام
ال ويب
الثق افية
أف غانستان
المح ت
ج لة
الز جاج
ك بار
ر ام
ص لاة
الصح افة
عا ون
ث الث
ذ وي
الم طبخ
الن ه
ري ك
وا ة
الط بع
اح تف
الالكتر ونية
الرس الة
تخ ب
م متاز
مح طات
ي ان
رب ما
6 2
المنت ديات
الأ قل
الأس د
عل اقات
ح اول
را ص
الشر وط
ملموس ة
لل ب
ز جاج
أن شطة
ام تحانات
ق رة
ت با
قر أ
م ود
ح لم
ائتم ان
قي ام
الع ناصر
الجام عات
هل ية
أ علن
ب هذه
س ور
ائ عة
رس وم
جلس ة
الأ ستاذ
الح رة
ذا كرة
تص وير
من ك
اح دث
بد ا
كس سوارات
تج مع
ما ذج
الع ودة
وال ان
أ هداف
الم خروط
سه لة
س ؤال
مت ه
ر اس
مي كر
يا ط
فه وم
ك اب
خص ة
المصنع ين
ون حن
يج وز
بي لة
الط ي
من خفض
من اف
مل تقى
ب وس
الن واب
رائ ع
وف رة
اب تد
الق راءة
ف أ
تح ضير
المن اسبة
بق لم
المست عملة
واح صل
اح تيا
الأم ور
تج ارية
ص اب
ي زيد
غر ام
ت وس
الأس هم
ل حقوق
قا في
المق الات
غس الة
عب اس
ج وم
مح رك
مع هد
اجه زة
ش عار
و المح
فر ص
الك امل
ط نة
المت وسط
سر عة
د ام
الج ه
ف كر
ح ذف
مز د
سام سون
دع اء
الأخ ير
باح ية
إ علام
الع امل
أف لام
الك املة
وج ي
لم س
المؤ سسة
الق بض
اش ترك
قول ه
ف رق
تع ب
الكت ابة
مق اطع
صي ب
ان ى
المد نية
ت فا
اق شة
ي حي
المدر سة
ي وفر
الإ جتما
ان وني
المعر فة
الأ رشيف
ص بح
ط فل
ح كوم
ول يكية
إف ريقيا
تق ارير
ت ور
م دة
الم وارد
خ اذ
ؤ لاء
ز اد
ف لات
بالق رب
ك افحة
غ از
23 21
التق لي
اد ارة
لند ن
خي ارات
لوا زم
ص ابون
أ ية
مد ونة
جم ات
فا ه
قام ت
ائ قة
خص يص
التح ميل
اب ق
نج وم
9 00
تم اما
ب أفضل
جد ول
الت ابعة
القر ار
س ريع
تج ديد
الخ ز
ق رب
و إذا
ك وفيد
الأس واق
ات ك
المبا شر
الع ميل
لل مست
سب ت
وت م
الس ابع
الأمن ية
ات صال
نا ة
ج اب
ار م
ش يد
ح شرات
خد رات
الحر ية
الت رب
الآخر ين
اح فظ
الجز ائري
جز يرة
تح ول
سم ير
ص ول
س كان
ث لا
وث ائق
عالم ية
و هذه
النا ئ
الم بيعات
تح صل
ن عم
الأ سنان
مع اي
ائر ات
س ى
مط الب
مصنع ين
ائ ة
يا دات
كل ات
الإ صابة
ب حيث
الق يادة
الف نادق
م بيعات
التطبيق ات
ت كن
يم يل
ت خصص
ك يلة
عد ادي
الم ميزة
بسي طة
ا وم
من اسبة
لل عام
م ميزة
الت علم
اب راهيم
ف ذ
تش مل
ق وم
ح زام
المش اريع
ك فر
أ كت
الك شف
الات فاق
الس ؤال
الت رجمة
الت جميل
ز و
الإد ارية
رب ول
الس ري
إ مكان
تع امل
8 00
اج م
البرا زيل
الج يل
الألم انية
الم عن
ش م
أف كار
كم ية
ط قم
ش قة
ص خرة
ال ضر
ي أتي
أمري كي
الح الات
ين ه
ام ري
الياب ان
ب هم
سب ورت
الت خلص
الإ جراءات
ط ويل
الخي ارات
أ لة
وم ل
الب لاست
والع ن
نا قل
الم الي
الشر عية
وا ط
تم ويل
غر ض
العم ودية
تد وير
الص ل
الص ابون
وري ت
غ ار
غ ال
ار تك
الق نوات
عل ينا
الاس م
آ لاف
ط بيب
الرس وم
أول اد
أ طفال
إلكتر وني
أب وظبي
الر وسية
م استر
غ الب
كثير ا
قي ات
بالد مام
الر قم
المن ام
لي ت
في تام
الخام سة
فا يات
النس خة
س الم
المنت خب
ل أي
ع ناصر
فاض ات
ل علاج
ل ر
سي اسية
الن بوي
ار ين
السي وم
يق اف
الس ما
زا يد
ئ ا
الك وك
يع ود
سق وط
يم ي
الق هوة
ح ار
إ صلاح
الدين ية
ال هواتف
أك ادي
8 05
س كن
المحد ودة
الم لا
مقد مة
ف ئة
المت وسطة
بري دي
ات صالات
٢ ١
ي بدأ
لدي ها
اه ر
الك رب
الات صالات
بس هولة
الس ف
عل ماء
د مشق
ص ع
ل وك
خر وج
فق ال
ت وظيف
الف رد
المطل وبة
م سب
م ربع
الاس ب
الب احث
ثان وي
س ود
ند ية
ت اب
آ ب
ر كن
ق الت
ف كرة
ن بات
باح ث
ض وء
الخ ل
العل اقة
ط ه
ير اد
وب التالي
12 71
الع ب
والم وقع
أر سل
قنا ع
هج وم
حضر ات
مساب قة
العض و
ري بات
ق يد
وي ع
الذ ى
فس ارات
المسل سل
م بدأ
المقد مة
في ل
وا ض
غ و
أر شيف
59 37
س طح
التد ريب
در هم
الم علم
أ طلق
الت مو
خز انات
بر ة
بدأ ت
الم كس
ل ول
زرا عة
قيق ية
دي ب
يح صل
وم س
س يتي
در جات
الداخ لي
البحر ية
مك ونات
سامسون ج
تي ح
م ب
الم ذ
دين ار
ش به
العل ماء
يا ئية
المن اسب
الم يز
الق وة
يؤ كد
ج يج
خ ات
ح وار
اد م
ر حم
البح وث
الا ثاث
أس ود
الع هد
الشب كة
الاجتما ع
ب كم
ور قة
ر ز
الح مد
الر ؤ
الص يانة
الح فاظ
ت غير
حد وث
عق ارات
ل طحن
را فية
الص يف
ق وية
كيل و
است خدم
كث يرة
المد ن
ممار سة
الح ماية
ش ان
تر ح
السل امة
الاس كندرية
موس ى
ب مدينة
وء ة
ه لك
ته ن
والت ن
ات فاق
الإ قليم
ور شة
مدير ية
الإ يط
الب داية
تط ور
الت هاب
الن يل
الرياض ي
ان ج
ب جامعة
ساب ق
لس نة
ث ابت
البن وك
والت ر
الع دل
والعن وان
ت بع
ه لاك
ف ف
الب اب
ز ع
الذات ية
الثان وي
إيط اليا
الج مال
ليف ربول
الجام عي
الب ص
الم وظ
المفض لة
س في
تص اص
م فر
الدول وميت
جر ى
إ ع
يل ه
الخر طوم
ك اش
ز ية
أ ين
و الخدمات
الس كن
كان وا
قل ت
و حي
وي ورك
ي كتب
أ داة
جور ج
الاول ى
ا ى
عث مان
ذ و
والم ست
ك فاءة
المحافظ ة
مل خص
سل وب
تس ويق
ح ث
ج اح
ال هر
الإ سب
اص ر
الإ ضافة
اس بات
ال وزير
اله لال
805 1
الان تاج
الش اعر
الع صر
ل استخدامها
لي وم
47 78
إث راء
الب لا
موس م
مسؤول ية
والن شر
4778 28
الصح في
ان ته
معاي ير
مي ك
مج ه
ام ام
سل امة
بت وقيت
ب غي
أرب عة
العمل يات
ي بدو
قائ د
اني ات
جري مة
ان تشار
سع ود
9 7
ن قد
ريم وند
الق ديم
ان مي
جما عة
مس جد
كين يا
اب ين
الأ يام
تر ول
المث ال
ضع ف
الت حقق
مل ح
عبد العزيز
الأم وال
تع بر
كل ه
لدي ه
و عدم
ج بل
ك يك
الاص طنا
ش و
الت لف
ل عب
الابتد ائي
الأ جنبية
الن صر
قي ب
وض يح
دائ رة
تص ار
ب خصوص
ك اف
الن شاط
الأ سباب
الع بد
خي صة
الرس ول
كي ب
عم لائ
مه ارات
ما ش
م راقبة
الأ غ
مي لاد
كر ات
و أو
دي دا
الع الية
آ ثار
المستخدم ين
ل تحقيق
ا يج
أع راض
يست طيع
ب هدف
ث نائية
س ار
ري ست
اح د
ق مت
يو ما
لي ون
تز از
مد ن
الل ق
القاد مة
فح وصات
ق ار
9 1
ح ه
الم حي
اك بر
فع ال
تت بع
اس لام
ج ارة
راء ات
شن غ
ح ض
ش اشات
أسر ع
ظاه ر
الح قيقة
الك ام
وفي ق
مؤ شر
محر كات
بح سب
ور ه
ر ومان
أج مل
المش ترك
ب أنه
ض رب
في دة
وط ن
سي ط
وال ز
تك ار
السود اء
حم ام
الأد وية
توا فق
1 10
س مع
الك السيوم
السيا حية
عق ود
الغر فة
وي تم
س يف
الر وا
ه لا
ضر ار
وت ا
الذ ه
الت وصيل
تغ ذية
است مرار
تب ديل
لل د
لس فة
نفس ها
وات ر
200 6
ك لا
ان ك
المشاه دات
الصح ف
الح قي
الط قس
مو دي
اد ه
قر ارات
ه ؤلاء
بس عر
الاحت يا
الم عل
وري د
طبيع ية
الس لع
ري ج
الق ول
ب وص
الأخ ضر
مج د
الن ات
لي لا
تج ار
أ ضف
مت ى
وا دث
من تخب
م ميز
النائ ب
طبيع ي
الغ يار
ب القاهرة
ز اء
مار ك
الت فسير
بالف عل
م ري
ح اجة
ا خرى
الق ارئ
م زيد
الاف ترا
87 5
قص يرة
مست قبل
الر عاية
قل اب
الد نيا
و امل
حي ان
ف اس
ال وزارة
بلا د
اف ات
ا كن
زوج ة
ق يادة
ك وريا
م شر
سي ير
مباد رة
ار ف
الشعب ية
صف حات
ي ظهر
ف ما
الم فر
كال يف
ج سم
ف رة
اك مة
الث قافي
الط يران
المس جد
ترا جع
والم نا
الأح داث
با ق
تج رب
ان تخابات
الف را
ان دونيسيا
وغ ان
أن درويد
يد عو
و الله
لين كد
غ رق
خارج ية
ول ى
وث يق
مط بخ
9 4
الر أس
الا طفال
الج هات
اري و
خلال ها
مجم وع
ات هم
ل معرفة
مار كات
أ كس
جد ارا
أ يل
السي طرة
أصبح ت
تق ع
تري ل
الأور وبية
ذ يب
بر لم
ث ي
ز لي
طار ق
23 4
الإ علانات
الر بيع
و شي
الث دي
مك ياج
المق اومة
ومن يوم
نا طي
كل ين
الي ب
خ الية
البريد ية
ومن تج
الفي روس
الد قيقة
تيل قرام
ب أي
إ علانات
الاش ترا
ائ ه
الص باح
د اء
و تحميل
المؤ لف
وك ي
نس خ
ا ظ
هند سة
الخ ار
مص غرة
الط ائف
هر ان
س ائر
الس ويد
ني ويورك
أ لا
ت وقف
ط ورة
ن مو
تعلي قي
وا حة
وز ن
ه وا
أي ار
لد عم
إمكان ية
فس اتين
ل وس
ابتد ائي
لل مح
دي ه
البي اني
أ عد
م بي
ر ار
الق مر
جر ين
المؤ من
المه ندس
التق ويم
ر ضا
ب عنوان
ق وي
الأ قصى
ط بع
ز اب
الإ نت
تصاد مية
الم كر
الر بح
النفس ية
أيل ول
الأد اء
ج اك
م فاج
الأ صلية
والم ؤ
لل مر
س وى
السود اني
المبار اة
ق تصاد
دع وة
الج اف
الصنا عات
دي وان
لاح ظة
قد مة
سل حة
ح اج
ت سم
ق بيلة
عنا وين
إ سب
ل مح
الن تريل
الاخ تيار
ت وب
خمس ة
أسر ار
بين هم
ور ق
ث ورة
فيديو هات
من جم
والت ق
بح اجة
را كة
الإخ بارية
الأ مة
مذ كرة
اج د
الإ ف
اللح وم
مك اف
انف جار
مو ية
كا ة
التح الف
أكادي مية
ج را
ين و
وت طوير
الق در
ع الي
غ ليف
ب صورة
تق ول
دور ات
الإير اني
الأ ب
الزيت ون
حل يل
انتها ء
م ميزات
الغ ير
الأ زمة
ثق يلة
ح بي
مصر ية
ع راض
مت صفح
ور ا
مقر وءة
ع يسى
الأم ين
الآ داب
را وي
استر اتيجية
ق ضايا
را ه
ائ مة
يد ن
أن ظمة
الح اج
البريط انية
عش اب
كس ي
تر بية
مو ديل
طل بة
يو بيا
اه تمام
اه مة
يق ع
ف ون
است عادة
الاسلام ية
والأ ح
رائ ب
4 59
ج هات
ي طلق
ع هد
بو ية
9 3
تي ال
ق ين
مث ير
شر ون
الفي لم
اس ماء
المش تركة
أف راد
المسل حة
ل تقديم
المست شفى
خط أ
شي ط
غ ام
ط اع
ب حق
الرح لات
13 0
ماس نجر
ند ات
ح ظ
في صل
ض مام
المقد س
ح فر
ق نوات
ناطي سي
المش اكل
م جرد
خ يل
ع شرة
الك فاءة
ر واد
تخ زين
ث لة
لل أس
الديمق راطية
ج ذ
ت ة
س يت
تي ش
الزرا عة
الس يرة
الر أي
مس رح
ا طة
الدر اسية
مث لا
ل أنها
تص ليح
غر امة
ض اع
اله دف
الر ئ
حر ارة
والم س
ع طر
حر ية
مي سي
جم ان
الل هم
الا عمال
فات يح
س حب
خص ائص
ال واحد
اط عة
بق يمة
الد مام
الح اجة
أد ناه
ح فاضات
ح ام
الان تق
ر ية
لل ف
واج ب
الط وب
تر ض
نها ئي
لي د
نفس ك
ب كورونا
68 875
الف ة
تق نيات
شنغ هاي
قي دة
ج ئين
ح ريق
الد هون
مد رب
ح ضور
مست لزمات
ت ال
الك ني
التص نيع
تج ميل
الك لية
الم مكن
بو ة
ملا يين
شركت نا
الف ئة
ن جم
دا ود
الث قة
بد ال
صد قاء
مست ويات
لن دا
مت نقل
الأ كادي
المسي ح
الح الية
الب ور
البي ان
رض ي
عا ش
قد ام
بج دة
9 2
ما دي
لم واجهة
الق نب
الجن وب
الع يون
اس تح
المش كلة
الرائ دة
لس حق
وس ل
لا يف
تر ى
الم كون
الك لام
الشار ع
لل تجارة
تش ارك
الخبر ة
السن وات
الش ها
الحر ارية
ق اد
اع تبار
الر وح
الأس اسي
السر عة
المخروط ية
الساخ ن
ا وت
و هناك
ج اع
الإ بداع
ح يل
ها ج
خل ط
الص رف
الش ام
القي اس
حب وب
خد مت
بد لا
200 4
ائ ها
خي ار
ر وي
لل مق
دي ان
ق انونية
بد ل
قا ذ
ت سليم
الت غيير
الك لي
ي ول
الش ت
سري عة
الف قه
وائ ز
ت بة
نوع ية
ان تق
اس طنبول
أ سي
ح جز
تم دة
والم ع
غ رافي
إ نت
وو وو
المي لاد
ف من
تص ريح
69 4
دول ية
م من
الغ رب
الت خصص
الخط وط
الم اس
وص فة
ث ناء
ز يم
بر س
نس ائية
فإن ه
عل مي
الوق اية
خ ان
خب راء
صد ور
توا جه
ق مة
توق يع
الإس كندرية
التون سي
د امة
مست عمل
ش كر
لل ص
ساب قة
جي ش
الزرا عية
الأول ية
لإ عادة
للان درويد
الفن ون
ط يران
ائ ى
الان تها
المكت بة
است عداد
ط ا
وال يد
ث رة
النا دي
ص فر
د قيق
كل ها
الس ويس
مش ترك
ظ افر
غ وط
بن ده
لح ظة
اون لاين
تج نب
الص غر
وب اء
ج ول
ر خيصة
الف ع
بي ديا
وار ع
ضخ م
ح اص
لل شعر
ق ابل
صح في
ود ه
ف لل
وع مل
ود ر
ائ زة
التق رير
الرق مي
استخدام ه
اض افة
ود ع
أ بناء
رس مي
الج اري
تت ضمن
ست ي
والم ت
٢٠ ٢١
الب الغ
مس ار
الق ريبة
الحم راء
ل تس
إن جاز
كر ون
الكر وم
وك ر
النج اح
3 20
لإ نتاج
آخر ين
يد خل
ني سان
مح لات
الل قاء
أ صل
ب ديل
اب يع
ري بي
الف عل
الح وث
ه كذا
ط يف
أم وال
ح ديد
شار ب
الا ك
ست كون
ب راء
الان سان
أ ربع
خبر ة
الت غذية
بالج ملة
يح مل
وب ل
لل دراسات
صد ارات
و هرات
ضح ايا
با يدن
ما غ
ست ون
فا ي
الآ لي
ع سكرية
ط وال
مح لية
يت د
ف را
سان س
مع ينة
ن ماذج
اف ع
١ ٩
الساخ نة
فيتام ين
صيد لية
تم ثل
المج انية
الن موذج
ت ذ
الن ور
ر عاية
ك لي
التج مع
وان ا
حساب ات
الع فش
بر ابط
الد رجة
ش امل
قل ق
بل دية
كهرب اء
م فهوم
ثلا جات
ظهر ت
3 50
المار كة
لم كافحة
اكت شاف
الأش ياء
لا يت
ون يات
ل بيع
نق ص
س اع
الم طحنة
الحقي قي
اح ترا
مؤ سسات
م علم
لح ماية
ف هد
موس وعة
ا عمال
الأص لي
الل عب
ما ئ
وي ش
وت خ
الولا دة
أد وية
ان شاء
غي اب
عل مية
القر ان
الح اسب
ق ابلة
تب طة
دي ال
اس منت
الع ظيم
تع تمد
اب وظبي
د ان
با ه
والم ر
الص غير
النه ضة
د را
إ رهاب
لتح سين
ني و
وم ت
م طرقة
نظ افة
ون س
تف اسير
اله ندي
ا وى
لينكد إن
الثان ى
و عن
الخ شب
كل م
تص ريحات
العق اري
الف ق
الص الح
وم ر
شر ب
إ ير
حل قات
هد اء
الأمير كية
بين ها
اث نين
فر ات
كرب ونات
الش ؤون
يس مح
لي سانس
ن ح
مز ود
ه يدر
المج الات
ت سبب
طل الة
اب خ
الأ لغ
وار ب
الق صة
تع ود
غ انا
مبار ك
اليمن ي
المرا ه
الج دد
تأ سيس
كس اره
الح زب
است عمال
الم خدرات
القاد م
الم ائة
الصين ي
بق وة
ف لم
ن و
يد ين
راج ات
مز ايا
ش املة
كر ر
اب يب
ب جميع
من اجم
ح مة
المسؤول ية
صي غة
الع نف
الم عي
ظ اهرة
عام لات
وار ئ
الإنج ليزي
المه ني
الن شرة
الص اد
العل امات
وي ست
ري دة
وثي قة
اع تماد
كت لة
ع صر
و خاصة
س ج
س انية
الفن انة
الت كلفة
بي س
مج الس
تث بيت
يط الب
شغ الة
وت ه
14 82
١ ٠
شعب ية
ت زيد
النف سي
خط اب
أن نا
با خ
الإخ وان
فري قي
ري ش
هد ية
حق ا
200 5
الش كل
النها ئي
فا ز
وم عدات
يع يش
ين بغي
سي طر
ق بول
أن ي
ا يران
خ را
ل ضمان
ل اب
يوم ي
عائ لة
ز من
عق ب
18 0
شاه دة
د ق
الخط وات
الق وى
ير ى
تج اري
كت ورة
أساس يات
تر د
ات جاه
س هل
لي غ
ك اري
الف ا
ري ه
بنا طيل
س ائل
الطبي عة
خ ين
مل عب
7 694
ل غرض
فض لا
ص انع
اع تقال
أور اق
مي ري
وي تي
و أكثر
ح كا
المخ تص
ريم ون
كت ي
اااا اااا
تش كيلة
الم ولد
بن شر
ال وحيد
الف وز
ائ يات
أس واق
مسل م
ين يا
تن اسب
وق الت
وف ية
الر غ
مرض ى
والم ج
من اسب
لف ل
سل طة
عد ام
وال علوم
عي ون
ويكي بيديا
الحل ول
عل ا
تر فين
أم ان
ول ين
يم ات
حر ص
وم ين
تا يل
ب ته
الأ ماكن
اليد ين
الصح راء
التص وير
ند سين
ير د
ث بت
بر مجة
ان ست
أز ياء
الأ راضي
ح يدر
وز يرة
الام ري
ش ستر
التاريخ ية
ف ز
وائ ي
الم باد
ك ك
موا عيد
ي بلغ
ق ريبا
مت عة
طبا ق
تت ميز
الأل ومنيوم
مه ما
النفط ية
لل ي
أن هم
جيد ا
قي ه
يور و
ن هر
تخ فيض
مت طلبات
مرا حل
س انت
الر وسي
ش ال
الجميل ة
الد ار
الت لق
الت أمين
الت خطيط
ط عام
ثم ارات
ل حم
المع هد
سع ودية
أما كن
الان تخ
الز وار
التنفيذ ي
الأف لام
الب از
البريط اني
سن تر
تص اميم
ئ ناف
العض وية
عط اء
اص دار
مع ين
إ قليم
أ راضي
الد قيق
الب ل
اح تجاج
ئ اب
لدي هم
الك ور
25 54
ون ها
ث نائي
اف ريقيا
ضا من
الم قر
توقع ات
ج يت
ري ز
القط ع
اغ رة
بر ز
بتد ئين
هر س
خصوص ا
رسم يا
الد واء
إ قامة
رحم ه
اج نبي
لن قل
الكيم يائية
كل ف
لك ية
تس جل
كام يرا
ور ين
ع ديدة
مس ا
المح ر
الم هم
الع يد
ر وابط
ترا ع
وا ضح
الص در
ت يم
حي ح
المح رك
زوج ها
يست قبل
ق ذ
ست ها
مق اس
ل خام
الأ رب
بار ك
ير ون
تم وز
وكيف ية
مجم وعات
كوب ون
ز ز
مج الات
الت وظيف
الأك بر
الض وء
ست اني
مراج عات
المخ اطر
تم كين
وض ية
نظ يف
مق اومة
م لاحظة
ح ظر
نق ابة
السي دة
الأ نظ
ا علان
با عة
ها ء
و الث
در ان
كات ه
المحافظ ات
بالت عاون
ق صر
الأمير كي
الإ باحية
ف لة
العامل ين
ك اس
البط ولة
6 79
النا قلة
ط اء
ق وانين
ح ذ
17 8
مس يرة
تعب ئة
ديكور ات
سي اسي
بك رة
الم تر
المت احة
بح ضور
الت قييم
زوج ته
الاصطنا عي
بوص ة
مع اد
التط وير
ق ن
المس ار
بار ي
الات جاه
و أكد
س وم
فا ط
الم ا
المبار ك
يز ال
موقع ك
الط ائرة
الأد وات
ح ى
المد ونة
ست ار
كام يرات
را طي
المركز ية
سين اء
ف ص
در ج
وائ ر
أ وب
الق ومي
ب الله
الف ضاء
ي في
شا عر
أس رة
من اقشة
ات خاذ
الج ولة
ومنتج ات
م طر
ت خطيط
الح وثي
إ غلاق
شب كات
خل يل
نظ رة
الذكر ى
فر ان
داخل ية
الإ قامة
والت ص
عد ن
ن ستخدم
الث نائية
ن وفر
لل سيارات
آ ية
أ قدم
خ ش
الاس تح
ل وحات
الملك ي
وف ى
يا دي
لم ست
مخ تبر
الب وكس
الصحي ح
الموا صفات
في لا
يل تقي
م أرب
م وجود
صف قة
أمري كية
الق ل
تتم كن
الفر ز
ب طل
الم ري
ب دي
د ن
تد عو
مخ ت
ط ارات
الذه بي
و العمل
يص در
س مي
الأل وان
ؤ ل
وت ل
ال ظهر
الساد سة
الجان ب
ون ت
الت راث
تهن ئة
الر مز
مت ها
ط بة
حد ائق
هي ار
ر وب
ن عمل
وج ات
ام ه
الم الكي
تم ارين
ف بر
الح اس
16 0
الإعلام ي
آ لية
مي وم
الرد ود
ف ورد
الس فير
الم جم
إلكتر ونية
وز راء
الثا من
الفي تام
ساخ ن
ات ش
إنها ء
7 00
مس ك
مت اع
التد ريس
ئ يات
الجزائر ية
الد رس
اد ت
ت بلغ
كهرب ائية
الشمس ية
وت ج
مت خصصة
ع سكري
ص ادر
تؤ كد
ب محافظة
الساح ل
ير و
ب أسعار
هد د
المس اعد
فاوض ات
ف وري
ر ه
تقدم ها
ومن ها
ر وم
فريق ية
للم رة
ل شراء
أص ول
البر تغ
الان تقال
وال غ
هاي بر
الف ج
الموا فقة
قل ال
التق ديم
مي يز
المست شفيات
الس كان
اس رائيل
ند وة
غني ز
الص نع
تأ تي
المه مة
الأز هر
غل ال
لي ص
ضاء ة
لان د
الك اش
ل غير
إ جمالي
و هل
وم ؤ
النها ئية
من طق
الم وجود
واق عة
الفكر ية
الخ مس
فس ار
ب عة
فا ير
ح ك
ف إذا
الح بيب
الع ش
تز م
عم ودية
اص د
الث ابت
مل حق
وس ة
تعليم ية
منز لك
ر ئيسي
الفي سبوك
م بيع
أ لب
الس ج
ال يف
تر ين
م كيف
تص بح
ي تحدث
صد ق
ز ار
و شر
الحي وية
با غ
الكني سة
الذ رة
أك مل
بري س
التي ار
خ م
احتيا جات
ض ريبة
اع ي
للب شرة
جل د
وب د
ري ري
البلاست يك
تح ر
الأ طباء
العق ارية
لان كا
المار كات
صنا عات
إ ج
الج ملة
الق اضي
تع ا
نت ين
ت أمين
فر قة
وأ خ
عر فة
7 65
الآ ثار
الع مال
فق ه
تس ليك
ديد اس
مو ث
الأن شطة
ا وف
24 8
ش اري
يت ك
ان درويد
ح افظ
ه لة
ولا يات
أخ بر
النو وي
اد وات
ف ريد
ذ ير
سل طان
ال التزام
معر كة
با قي
أ لق
التقلي دية
الخ لف
محم ولة
الت حليل
الج لس
الس ح
خلي فة
ال ليزر
يمكن كم
السر طان
ي خص
ن ر
وأ ح
سب ح
مت وسطة
صي دة
است ثمار
يط ان
فلا ش
2 20
يم ر
الش امل
الف لا
ئ يا
سه ولة
ق اب
ني ين
نا ح
الت قدم
الطل بة
الألغ ام
ب فضل
ام رة
المج مع
اللي بي
التف كير
وط نية
العد الة
وت و
ت بط
ا عرف
تج ميع
المطل وب
ات ي
س اح
أس فل
مخ اطر
نظ م
ر في
م خل
مان شستر
التح ديث
الأد نى
وي لا
الغ بار
الد ه
ال وار
الشه يد
اليمن ية
ل صناعة
ق ولة
الن مل
ت مل
اج عل
ت وكيل
الق ضية
ش رائ
تس مح
حديث ة
بو ري
سل سل
الخر وج
وا يت
ي اب
الذهب ية
عا ة
الز من
مص ل
ق ش
جد د
الجام عية
وص ي
الاستر اتيجية
وس ع
م سي
الس م
ه ري
التاس ع
المت جر
يك اني
يمكن ني
ع وض
ار ته
اح ية
وري وس
ر ئاسة
م مثل
وف اء
12 5
حيات ك
وك ولات
با دي
الحر مين
ز ائر
ت أس
لل معدات
ماج ستير
يد عم
ست ايل
ت اي
تر ب
بر و
ص لي
ترا ض
البلد ان
كس ب
ئ ه
نا حية
من صور
للت عليم
والم نت
والت طوير
الم سم
الخط وة
ت وضيح
غير ها
ج ولة
الم متاز
يل ات
الم لح
الوسط ى
العم ومية
رب ط
الأ رج
الأ ثاث
الش مال
المن غنيز
خ اط
وان ية
ولن دا
ز فاف
يع تمد
ج وال
حي اته
فر وع
الز ب
ب زيارة
يم ثل
بي وت
السير اميك
وا كه
مس ألة
س ائق
اف لة
رسم ية
الوق ود
و أم
الشب كات
اح ف
سب احة
يمكن نا
النها ية
الط ين
التر م
الج اه
قد ير
لكن ه
وط ة
وجد ت
شر كه
ش ى
راج عة
خد مي
ف لت
الأ هلية
حل ب
الاس عار
س ول
س عة
المت اجر
مق ال
الخ بث
الب و
الشت اء
ق ريب
است ضافة
روا يات
العق ود
ج ابر
ن ن
أ ى
شها د
طالب ان
إ له
تح اول
ه شام
م كاتب
س وري
المصر ى
الف كية
ن خ
د ب
راق ية
خ فيفة
الف ساد
إ ين
تف جير
المن ظمة
يد اع
فق ات
تي شيرتات
بري ميوم
ظ هار
ق الة
و أس
تخ تلف
الل يمون
الن هار
الصل بة
ام ير
التش ري
لل بن
أرد وغان
الت نا
اي ه
ق ادر
محاض رة
اتيج يات
وس يلة
يا ف
الاع تماد
الحب وب
أبو اب
م ريم
الشع ور
الن مو
شخص ا
الني ابة
هاتف ك
بين تي
ذ ل
لل جميع
مست حضرات
ترا ف
اء ة
الدي كور
ا كي
بينتي ريست
ج رائم
ب عمل
ب تقديم
غ ريب
بال ضغط
ق وى
اكت شف
است قبال
ع كس
بأ قل
من وعات
الأ طعمة
التون سية
الاست فادة
ص وص
مط اعم
تؤ ثر
تم ث
شي ئا
ثمر ين
جد وى
السل وك
التلق ائي
ر ال
ا ديداس
لا خ
ست ة
ج ية
سيا حة
م بلغ
سل طنة
الع قد
الكويت ية
تز ال
فع يل
ب منطقة
تخ فيف
الل واء
حت اج
الطي ونة
المر ج
ف لي
أق وى
سب ار
طن جة
العمل ة
خل فية
ت ومي
وق عة
العام لة
ي ير
الخض راء
يحي ى
إسب انيا
الأ صل
التركي ز
أ ستاذ
ك نا
سي ما
نف سي
5 12
ت اد
أ عم
ود ا
كل اس
ور حمة
الع ائلة
بار د
وت أ
ن جد
ل تجهيز
تمت لك
المست مر
مت لك
حاص باني
الثا منة
المع دة
بي ات
الإ عداد
قي س
ت عل
المت خصصة
الش اب
رائ حة
الح ال
ع جمان
الذ كاء
لل أم
ف ارس
أون لاين
عن صر
الش ائعة
المش تري
أخ ير
٠٠ ٠
الن فايات
منخفض ة
س عي
الق بول
ز وار
اغ اني
الق وانين
ون ز
العق ارات
بم جرد
ل اس
الموظ فين
الياب انية
الح لق
صح فية
كتب ها
ف هذا
ت يك
حصل ت
باب وي
أد خل
ف حم
بك ال
ذا كر
ت ميز
مث يل
اللا عب
والتن مية
جائ حة
ع ف
الف ضة
اللا جئين
ج ال
فر ن
الكل مة
جل ب
اص رة
1 200
الإ صلاح
الغذ اء
حم اس
خط يرة
وا طر
اليوم ي
الإسرائيل ية
الصوت ية
الكرب ون
تر كية
سين ما
ترا ق
والت ح
الفيتام ينات
المنش ورة
عن ى
بسي ط
التمو يل
ونا يتد
المق الة
سر طان
سي دة
الأور اق
الا كت
الأ ج
هم ية
مت ابع
ح لا
ح تي
م عل
الد بلوم
الز فاف
المغ ناطيسي
أد نى
بل س
سب اق
الفي زياء
بإ مكان
14 96
الس ائل
تا جر
الإ بتد
أول ى
مست خدم
الحر ام
اء ات
الصحي حة
عالم ي
لل خدمات
ماي كر
اغ نية
وس يا
تك اليف
تص اب
الخ بز
إد ارية
اب حث
اله جوم
الإير انية
إن دونيسيا
المكون ات
وا ص
لل شيخ
التع ريف
المن زلي
المس رح
ان و
تق ريبا
المح اض
الزي وت
غض ون
يف ا
ي تح
من تصف
ع مة
بعض ها
ممار ستها
14 42
ع بين
ن اب
آ ي
من اه
و خدمات
نس يت
الش املة
وج بات
يز ور
رياض يات
في ز
خص ائي
ط اقة
اخ تبارات
كو ست
ع ائل
بعد ما
اني ه
أبي ض
المس ئ
الق مح
ط ال
تب ليغ
م ذه
الحكوم ي
ش باط
الإ ش
ور ى
سر ية
14 41
وض اع
لم زيد
س احة
ب المغرب
د وا
أل وان
الس ابعة
الأح كام
أق رب
ش اغرة
الا غ
مس جل
وط رق
بل است
ج يع
غط اء
ب ام
ال وه
بذ ور
الاب يض
ن سب
وائ ح
ي منع
يص بح
يع بر
أن بوب
كي ه
تس ع
باد ل
لل نشر
النس ائية
الص لة
السما ح
بق اء
ثلاث ية
ف سي
تش ي
النا طق
أش كال
م بنى
الأس ماء
3 60
المنا خ
لف ات
ظاه رات
كبير ا
مخ تص
بي اء
فع الية
الت سيير
هي كل
سي دي
ك لاين
الد ليل
الأم ان
الق طرية
شي ري
المت وقع
المنا فس
عل اء
شخص يات
ع اج
مزد وجة
السن وي
ر م
تش كل
الاه تمام
الغر بي
المت قدم
س وا
طر ابات
فش ل
م خصص
ص ق
ها ش
ج راحة
للم زيد
الد كتورة
بن غ
الخ براء
أر خص
لغ ات
مس اح
الخار جي
طر د
ج وا
الإعلام ية
ك از
يؤ ثر
ب الشعر
الج دول
ول ذلك
الإ ع
بور صة
إ حص
وس م
خلا ص
عو يم
الأ كس
مع ي
سا هم
ت ضم
الجمه ور
الار ض
ف نية
والت س
يش ارك
لت طوير
الت م
بعد ها
المست شار
الم ها
ق الب
تف قد
الإ جابة
ك بة
أ قصى
وت ست
ش ديد
الق ضايا
١ ٤
إ ثر
غ اف
وأ نا
مص ان
التنظ يم
الأز ياء
اي ام
ي واجه
ب تنسيق
المست جد
يت عرض
الم عم
يج ري
ف ستان
ش غل
ؤ اد
تس عى
اه ل
للت أمين
الهيدر وليكية
ب الان
العا شر
قل وب
سح اب
إس ماعيل
دي ش
الد جاج
ري ل
الغذ ائي
المد ى
الباز لت
ع شرات
الام ام
وب عض
ف هل
الدع وة
تكييف ات
فاط مة
مه ندس
ل إدارة
ور و
الت وتر
الف م
أز هر
ل ابن
المعار ضة
الشخص يات
ب البريد
الم ريض
الرائ عة
مجد دا
ي تر
ل صالح
ف ائقة
المكس يك
التش كيل
وم د
الف ئات
رس يفر
رج و
الأ طراف
خ لاف
ه امة
لل مت
جاز ة
الأس اس
الق س
الي وتيوب
با دة
وج ميع
هههه هههه
مبيع ا
المحي ط
الت عرف
ذكر ت
تص فيات
الخ يار
فر ش
مس ئ
مؤ ك
ا من
لل أولاد
أس اسي
أ جر
التح ويل
ترا حات
در اما
مص الح
المت واجد
الم طر
ار تداء
المفت وحة
دي ك
ل زيادة
المعر وف
الم وبايل
وبر كاته
ن يل
فن ون
كي يف
ق ديم
الم ضافة
ص ن
عب ارات
مفت وحة
ل حل
السينما ئي
صد ير
تؤ دي
كر ز
بح وث
الإ يمان
لل حد
است لام
طراب لس
الأر ز
يح ب
صنع اء
14 0
ك وا
مع ك
عمل ه
يت ين
سي و
ع اص
تت علق
الأز رق
ال الم
خر س
ن صي
ضا دة
وج هات
الت عويم
ح يا
ما كس
التر تيب
الت مر
مد ف
رج ى
الموس يقى
القص ص
المه دي
بق ية
الأد بية
ا علانات
ح امل
مست شار
جمع ة
البح ري
200 3
الل ات
الف ار
يد ا
تل قائ
مع الج
دا ي
لت ضف
إن سان
الف ائ
بم وجب
السل طان
اج از
الخ ش
ام ت
ث بيت
ي واصل
أن فس
وم وا
الثلاث ة
الام تحان
مار سة
أح مر
واح ين
الب ا
الف ولا
فا خرة
ي علم
الق ناة
الوس يط
المن يا
وال آ
أه لا
فا ة
جد ه
ك الفن
الانج ليزي
الم وز
الت ابع
الف طر
و طحن
تل قى
لل وصول
ع مي
ج يم
و اللغات
بع ين
الج و
ال ظروف
الس ماء
للمر أة
ار خص
قد رات
ي ضم
اسم ين
ت تيح
مع مل
يت س
و اريخ
والم وا
للم بتدئين
الحاس وب
الها ش
الجن سي
ت وجه
تط الب
خ بير
م وريت
ر وضة
ج واز
أ وت
التاس عة
الس كري
أ خطاء
ق اسم
الص ندوق
إ يقاف
ف خ
بول و
لائ حة
ي ونايتد
اللا عبين
30 1
هج رة
ت ير
لم جلس
اش تري
عملائ نا
شئ ون
وك رب
ك ارت
الح ار
غط ي
رب ت
كري ست
د واء
ال هم
مست مر
الف تح
مر اس
الب خ
بن ظام
مشاه د
يوم يات
الق يم
المص الح
الي س
اللق اح
الزي ارات
مفت وح
اق ش
الفر ن
شق راء
ام ح
الأ مل
فقد ان
ع ما
د وت
را شد
ك ى
الس لة
الموضوع ات
يت نا
است هلاك
الج افة
إ عدادي
الس جن
تج ارب
ب ولي
ح ط
يت ات
لي فة
ع زي
الم يكاني
رب ح
الع ثم
غير ات
أص در
الكر ام
16 5
تع قيم
ميد ان
الاحتيا جات
الر وم
الا ز
ل أحد
الق انوني
ك يا
د ولي
جن ب
ومل ابس
وي كون
0 10
اح نة
وق اف
لس لة
مث لة
من د
أق سام
محافظ ات
تن شر
لي ش
الأ حيان
ت وك
مكت وب
اني ين
اب ير
الش مالي
فري ش
الان درويد
التق نيات
وم ق
كس ل
الذ كي
مش هد
منظ ومة
ال ود
ز ق
الترب وية
الانتها ء
الع وامل
7 50
غ ن
موت ور
يش ن
ر صيد
الح دث
ض ار
ع زيز
ون ى
طف لك
ك راج
ق ضاء
بر ئاسة
ي ذكر
د ت
الم اج
ناه ية
ر صد
تن في
الا ج
ويج ب
ز ان
البي ض
البوكس يت
ممتاز ة
الت حر
يد ل
عا قة
الكيم ياء
وع ه
ب تر
ل بعض
الج ير
النص وص
اد ير
لاحظ ات
المت قدمة
جع فر
بين ي
ي سبب
الم ب
مت عدد
س يرة
الت أكد
غرافي ا
نف ط
للع ناية
أش ياء
وهو اتف
بي عة
إث يوبيا
الرمل ي
مد خل
عي ش
وص نا
التن سيق
بد ع
موس كو
ز نة
تع طيل
كر تون
ف لسطيني
صنا دل
الص راع
فاعل ية
اول ين
رج الية
غ ينيا
طل الات
الع ذ
ا يفون
وت ك
بعد م
مح اكمة
ف اد
الفج يرة
الوار دة
الد وحة
شري ك
تب ادل
وق ي
مح دد
الط احن
الفلسطيني ين
ي وف
الأ نف
س فير
مي ه
انت ظار
الرح يم
ور ش
الع ادية
ل إن
سل وك
ادث ات
يون س
الرؤ ية
إ صابات
لل عربية
بل دة
بو ينت
بع ث
ز الت
است يراد
للت واصل
لم صنع
وان ب
الهند سية
رؤ يا
ت ضمن
ا ديث
وسوف ت
د وات
وإن ما
الكل اس
القر ارات
لل تنمية
الع سل
فل ون
الف وت
تأ جيل
1 15
يت ميز
ت أكيد
الب اط
الت سليم
مت وفر
ك وت
الش هداء
صنا عية
ت ضع
فس ية
لم شاهدة
تص دير
ال يم
إسلام ية
غير ه
مست قلة
وم خ
الوس ائط
الض مان
المرض ى
بن جاح
الأرد نية
الب نت
مك عب
خط ي
و وضع
أم ور
تنظ م
اسلام ية
وم ه
م اري
جميع ا
تاريخ ية
ان تخ
ال وكالة
وص يات
الخير ية
الطل بات
المست هلك
ذر وة
بط ية
جر عة
مواطن ين
ات باع
ور ئيس
الفت اة
تم ديد
ه اني
فيه ية
14 20
الح فر
ولوج يا
جم هور
ح وادث
مل ع
ست خدام
وت د
الذ هاب
ميم ي
س ني
ف جر
زيم بابوي
ل معالجة
ت وليد
نظ را
و استخدام
كار فور
الدست ور
المح امي
السري عة
ش هور
وائ م
وص يانة
فا هيم
ماس ك
ها دي
فت اء
والس لام
مؤ شرات
ل تعزيز
الم وضة
ي عرض
والع شرون
حق ائب
كن يس
ق ليلا
ال هوية
مت ناهية
را كز
وغ رب
الشها دة
بد قة
س ويس
ام تحان
ون قل
ر وك
ذا ذ
بنفس ك
التف اح
وق اية
تلف زيون
لم ؤ
الج وي
ا ين
مس ر
الف ندق
كش اف
تد عم
أح ب
عار ف
يس مى
يت هم
وج بة
مصل حة
عل اق
مح امي
وتق ديم
ص يف
تركي ز
الت حول
لل اطفال
بن ية
عق ار
ت دي
08 5
لل استخدام
ت ذكر
الل طيف
نت ي
ب اللون
ر خام
الن بوية
را ي
الإ ج
مث يرة
الاخ تبارات
ص خور
مح ور
هي زات
الحساب ات
البد ء
لل منتدى
أد ى
لا ي
الم طار
يس ر
ب أنها
ل خ
وز ي
تا يم
مح ارم
ب مشاركة
المق اوم
تر اب
المت هم
الا جهزة
ل عرض
تص رف
الط وارئ
الأ بعاد
ولوج ي
الا ور
المصري ين
الم يد
لكن ها
الب ث
يوم ين
المس حوق
لب ناء
المبا شرة
ذ ور
آ ذار
ح قيقية
مج يات
ن وا
المج اني
ف ؤاد
أ وقات
محم ول
كش فت
ف صيل
غ لب
غ د
مث ال
الب طن
الإ ث
لمن ع
تش ير
البار يت
1 21
ن مط
تر خيص
وث ائ
ج بهة
ت وجيه
الفي س
ق اط
ين غ
خ فيف
شي ش
راب طة
الت والي
تش عر
ح ديقة
الموس وعة
الق واعد
اض ر
عر وس
الشر قي
الإ طلاق
المد ف
30 60
مر ه
لل بحث
الألم اني
م وك
ت كت
نا يك
طبي عة
ث من
زه رة
وتر كيب
المسي حي
فر ج
جن بي
س لاح
الإد اري
واض حة
رش اد
الأ رقام
ل عمل
الأع راض
لت عدين
ل ابد
احن ات
عالم يا
ت وفيق
الديمق راطي
اله دايا
للح فاظ
الص هي
المن هج
الح ريري
ال ذاكرة
رق ية
الف ول
وب ناء
ا وية
لل صد
بلد ان
ش ريف
تق سيم
متح ركة
مت اح
م قطع
المدر سية
الس ت
المتح دث
و البحث
الد قة
مي ت
ص فة
شاه ين
مر جع
عو امل
أكس يد
خل ية
للط اقة
ش يل
شر م
قل بي
09 4
الب كال
ت تجاوز
تف تح
د قة
ل خدمات
00 00
الاح ساء
الأ لب
يش عر
ط هران
إد لب
الص عب
الخط اب
الد يني
ن كر
س وار
ت كر
يت ضمن
شري ط
ط ري
ل إنشاء
اللي بية
يف عل
م وضة
وك ذا
الفض ائية
سم و
ي ضع
مت هم
أس منت
استر داد
المفت وح
الجلس ة
دي اب
الح ميد
والع ناية
أ ذ
و عدد
د ست
يع اني
الكتر ونية
يا طة
لف ترة
الأف كار
مق اطعة
و كسارة
ش قيق
صال ون
أ ريد
ساب قا
ط لاء
الت فا
رب ين
المص ادر
مد ر
ي حقق
س جن
ملع قة
تح الف
الاسلام ي
البو ابة
من حة
خرس انة
وش وب
مس ؤ
مص مم
المؤمن ين
اس يا
وع اء
دي لات
ب مصر
الب ديل
الع ادي
ع وا
ج س
قت لى
ت فاع
ك بس
التعب ئة
للت عدين
رائ د
التك وين
والت كنولوجيا
الر صاص
يش مل
تع اني
و العالم
الط بخ
مشار كت
69 9
الجمع يات
لن كر
الفت اح
يد ه
اد ثة
الا ير
أن باء
ؤ ها
س ال
الس لم
ات ل
ه ولندا
م فيدة
صلاح ية
تح اد
ظ ات
ي طلب
ض ائع
باع تبار
تل ق
ل كسارة
عي ار
عم ق
كه ة
النات ج
باب ا
تد ور
وال اب
ب جانب
ون ظ
لل طباعة
الأ بحاث
اح تم
فر ز
القض ائية
حديث ا
تش هد
رون الدو
اي بر
ر ول
ير فض
الم وقف
اليون ان
الأ وقات
قل يلة
سك اي
المتح ركة
البص رة
م غل
ض ب
الفولا ذ
ت خرج
تق ويم
الس اعات
ك يس
بلا ي
مؤ خرا
ج حة
كول وم
لل سفر
إ ما
ب الخ
ح بيب
ن وب
الع زل
شي ح
سم ك
ج هد
الف ائدة
ا كا
ز مان
ت كم
الن حو
ن شرة
التأ ثير
مباد ئ
الق ادر
بي ضاء
بالب خار
جهاز ك
تح دد
المسي حية
حكوم ية
الروا ية
اق ط
ص ينية
ين يك
الج ل
فن ان
زا وية
ماعيل ية
الصف حات
لاح ية
السف ارة
وج عل
ج لي
القدر ات
الا من
رق اء
آ من
الإجتما عية
ي منح
الق لق
التعب ير
ر مح
الأح جار
أمن ية
جاه زة
م فاتيح
عام ر
الم جر
الج ريمة
19 8
تقل يل
178 094
248 085
الهر م
3060 98
ئ ك
حق ائق
لم جموعة
مار كة
الك لنكر
حمد وك
ق انوني
تع بير
القائ م
وض وح
الك ويتي
تأس ست
ص عب
الن سي
آ لام
مي لا
الح ملة
خل اله
آ منة
الكام يرا
الق اب
اح ت
جا وز
مت ميز
ن غ
المر ح
اج ن
بلغ ت
علوم ة
فض ي
غرب ال
15 00
ش وف
الح رس
و أيضا
الر ب
توي ات
1 13
وا ه
ري حة
ب الل
ته دف
قي ح
رائ ط
ذكر ات
م وج
مس م
المسل م
و تحقيق
موا قف
تب وك
كهرب ائي
الحديد ية
اقتصاد ية
ب مث
ل نظام
موا فق
السع يد
صف وف
والت د
كل ما
ي كت
نج ليزية
و الدكتور
ت ملك
التف تيش
المت ابعة
إذ ن
قا دة
الب ابا
ات ذة
الزوج ية
200 1
ي وجه
الأص ول
عص ام
محد دة
تع ويض
مار ين
الإيط الية
ح ما
وبر امج
قر ط
وإ صابة
مي ص
الش اي
ائ نا
مين اء
الخص م
جل ترا
تخ تار
من صات
الكهرب ائي
بين هما
ذات ه
يت يح
لق ب
غ ز
و ود
س رائيل
إ جابة
نق اش
ضر ر
ضر اب
أ كل
ي قل
الح صرية
في ك
باح ة
ط ائر
بي دات
الن جم
مج وهرات
را وح
الد روس
الط باعة
وح ر
الج نة
مص طل
الآ ية
العد و
مح اجر
إ ت
الج بل
ر ن
عد دا
أث اث
معر وف
كف وري
صح افة
الف لسفة
قط ار
يح اول
واب ل
ب المملكة
4 50
ت خصيص
الس عادة
ها وس
الب دي
يت طلب
الص ادرة
الأح وال
مع هم
ج اي
س ط
ز ما
نف ذ
الإ قتصاد
غس ول
يم ارس
الف هرس
الإ صدار
كن ب
ارس ال
ل تنظيف
ع ال
ولكن ه
حي ب
الم فضل
تع يش
يق ود
دين ية
الد ماغ
10 1
هل ال
ك افية
الأم انة
شر وحات
لل وجه
الر بع
الر وابط
ق ير
59 9
ج ني
ور نيا
ع ان
الط ائرات
ضا في
السن وية
المه ندسين
ا يجار
يد ز
تد ريبية
عش ق
زي وت
اق وى
ج وء
الهيدر وكرب
تن ام
الشري عة
ش يك
اش تراك
المكر مة
حي انا
أس ابيع
أم بير
التد ريبية
شخص ي
التخصص ات
غذ ائية
وش راء
24 0
اجتما عية
الت ميمي
إكس بو
الم ائية
الإ شارة
البن ات
ث قة
عم ودي
وج ين
الع ظام
ري في
نظر ية
حر وف
فر ح
الأف راد
قص ير
والم ن
ي ها
وأو ضح
س قط
م ارة
تعليم ات
شر ط
تب اس
خ تم
ج وائز
الر باط
م دي
الشي عة
خاص ية
والمج تمع
هيل في
رئيس ية
العق وبات
ؤ كد
ف د
أ طقم
عن دي
ذر بي
الك ات
والم عدات
الق اعدة
حص ري
وث ق
مفت اح
لت وفير
ك ثر
المط اعم
5 85
التعليم ي
شهد اء
الاع ضاء
لم تابعة
الشهر ية
الك ريمة
سي طة
تل بية
وتص ميم
ت به
يا قة
ر خصة
ش را
تح ب
مع اني
الف حص
هيلفي غر
الر أسي
عاد ن
الز ه
المر تبطة
الد ل
الخلا يا
الا طلاع
الام ير
لل شركات
شر ت
1 14
بط ارية
عج لة
م بالغ
ل تكون
ع ذ
موس يقى
مت احة
بك ثير
م وجودة
م ملكة
الض فة
الم اك
القص يم
الر حم
عا دي
س داد
معد لات
مصر ع
حم دي
ت غطية
يق تل
الإ يج
امري كا
الب ند
ما هو
ك جم
عد ا
الح لم
والم ه
وأ ج
الإسب اني
بو ست
لل مواد
است بدال
وا ش
الز هور
الإس منت
سو ء
بعيد ا
لا ج
مج ان
اب تداء
ما هي
ش وت
تقد ير
ميك اني
أمير كا
كل وب
النو وية
و علاج
الم ة
الماج ستير
صع وبة
سي اسات
17 0
صد ى
أرب اح
كنيس ة
زي ين
الهيدروكرب ونات
ش ورت
جورج يا
نشر ت
ص م
يف وز
من س
أح سن
باست مرار
وب ه
خ شب
تص نع
كري مة
أ راد
قا عة
الم وصل
الب قاء
12 8
الأكادي مية
مق الة
الم خل
ه بة
ل خدمة
شا كر
إن ما
مر ش
جن رال
آ ر
الاد ارة
مت نا
دور ا
تن قل
ام لات
مر شح
البط اقة
الا خرى
جاء ت
تف عل
وإ عادة
الإيط الي
غاف ورة
الد ان
الاع تداء
الم ات
تك ريم
تق بل
موريت انيا
ج ديدا
ير غب
الا عداد
الط و
أ سلوب
الص وم
الن هر
الم ظ
برلم انية
المش هد
المح اسبة
الج دل
الك ود
ال وعي
عم يل
الف جر
الاشترا كات
لم ساعد
الهند ية
مد ني
نظ ارات
ق لا
س رير
ش في
مض م
المع الجة
ائ ك
لل مع
ب تسجيل
المت عددة
مز يج
كور س
وأ شار
اش ترا
سي طرة
ح سام
تر اتيجية
أغ لب
وت طبيق
ل تحميل
الشه يرة
ع قل
فض لك
ط اليا
الخ ليل
معرف ته
ح بة
المن صة
تد ل
وز يادة
تح دي
ج ملة
ش ئة
وم تر
ف وت
الج ري
مت اجر
المراه قة
ت وم
اف رين
00 9
أسبوع ين
را دة
الر ضا
الو حي
ي حدد
أ طباء
فض ة
اس مه
مؤ قت
ف في
ئ وية
وأ ف
بس اطة
بمث ابة
رج الي
الار بع
عض وية
م كس
حي وانات
كاليف ورنيا
يش ير
للصد أ
غر ين
وات ب
مل كية
ص رة
والأ خ
ت وضح
ل وزارة
الم قرر
رافي ك
شها دات
النبات ية
بي بة
نب ذة
ي ذ
الك ري
الشي ء
بر ية
ود ان
تت وفر
39 6
أس س
غ راض
ه وت
الم عرض
مشروع ات
الد موية
سام ي
الس لف
س مح
ل عدم
ا كتب
أ مي
قب ائل
ق راء
التعليم ات
عمل ها
راج ة
النا ف
الز ر
الح ليب
الس لسلة
يم تلك
ذ كية
غ اية
النظ افة
السوري ين
المست دامة
الم ميز
مايكر وسوفت
والم ق
البر مجة
المجم وعات
و عند
إ مام
ود عم
ت كس
ح لي
ايج ي
من ص
سيد ات
الح كيم
ت فضل
سي ه
نا ك
و آخر
المرا كز
الح قيقية
الافترا ضية
الرا حة
القط ري
مح يط
فور ا
حص ريا
مو ارد
ب تصميم
ول ها
و الصحة
ل يني
الانتخ ابية
بت ها
أ باد
الت نقل
الرح لة
در الية
ور ها
الم وحد
العث يم
ط اولة
الح شد
مه ام
ت عني
الط رف
الإس كان
ذا ك
اما كن
أ وس
اتيج ي
المتواجد ون
استر اليا
م وض
الام تحانات
أغ نية
رج اع
وج اء
عل بة
ضح ى
ث وذ
ش احنة
آ راء
تن ز
مت ن
إيج اد
مص نوعة
موا فقة
الكوك يز
ير فع
لل اسمنت
والم علومات
لل سنة
ح راج
و هنا
إل ينا
الخط أ
ار ضة
مش تركة
والم قا
إعداد ات
تد ين
السكن ية
خط ف
رش ادات
وج ر
ت منح
مش غل
د رة
3 15
محد ودة
وق وع
يت كون
الب ول
وأ ع
ت علق
جاز ان
ما كرون
وال دي
بي ك
ط ين
س ويف
حقي قي
تايل اند
والم عادن
بر وت
ث ى
المث الية
د عا
الفر ص
ؤ ه
مس ح
صد قائ
العض لات
فن حن
ش جرة
أما زون
الص ديق
لل موقع
المه ارات
غا زي
الر اب
ترا ح
الها دي
الس لاح
النس خ
بالج سم
الصحفي ين
200 2
المط الب
يح ذر
ولا دة
وك م
الق صر
س جاد
اب لات
با ور
ي دة
ولوج ية
المت خصص
هز از
الن خيل
موظ ف
الجن وبي
اق ب
الإ صابات
يك في
ي وضح
ا وب
يك و
التح ضير
تد فع
الاستح مام
الأح ياء
3 000
و يمكنك
الت كنولوج
ض باط
الامري كية
الت حت
مح اسبة
ي خرج
الم يت
ث ري
س ديم
شع بة
وأ ش
ج بك
النت يجة
التص ويت
ث ال
0 12
سب حان
بال ضرورة
الع شرين
مزد وج
التر ويج
الأنظ مة
الم الك
الم فاصل
وان ت
القط يف
د بلوم
انت قل
عب اد
النص ائح
الج م
الف وائد
الع قيدة
رح ب
الت وا
ص ير
مضم ونة
الن مسا
آ بل
البد نية
بت ش
ج سر
ز عيم
الجه ود
ق بر
ا صل
الش اف
الأ ه
المذ كورة
ق صيدة
المك ياج
المح ترفين
اليد وية
الص عيد
الأسبوع ية
فعل ا
ار تها
ل ص
مش يط
الرق ابة
الق ن
م خصصة
داع يات
مص ير
الي ك
و الدراسات
لل علوم
ظ بي
تض ى
الأخ لاق
اث ة
اص ي
ق يل
المس افر
توا جد
5 69
الأن واع
الدست ورية
أ بدا
الفل سبار
الأ ثر
أ بل
رومان سية
١ ١
ا عل
عرب ى
التج ار
ي ثير
مست مرة
البي ئية
5 000
والم واد
خ سارة
الجما هير
في ت
مل م
الأس رى
25 5
عص ير
وص ور
ومات يك
البلد ية
هو ديات
م يني
يد فع
عن ة
م رب
الدي ك
ع اء
ا قل
الج د
اليه ود
اس طوانة
الخ ري
ويق ول
الم تك
مكن ك
الط ويل
والت ش
ر وة
ند ل
ت بقى
المع تمدة
وس ويت
الاس اسية
ر و
ته ديد
المست ثمرين
1 19
يش هد
المعن ية
بح جم
خ اء
من صب
مص اب
ش ية
ت فت
تيا ز
الب ق
ولكن ها
و حقوق
وط ني
جلس ات
أعل اه
الخ ضر
ت وثيق
خط ار
المتن وعة
ي تحمل
تساعد ك
تج ن
رج ب
أن غ
الآ سي
وي ك
ضخ مة
المص نوعة
طل بك
بري ت
اه ي
آ ند
م ولد
الم ساب
لو كس
يف تح
وا جن
النق اش
وم ش
ع ماد
الأرض ية
م لاء
تد ريس
ارت فع
للاست ثمار
ل تن
تبا كات
العرب ى
سن ين
في ذية
الاست اذ
ك ميات
ب ست
الد ف
طب قة
لل اع
الإ طار
الف ائقة
الان ف
اخ رة
ز نس
والإ د
البخ اري
جيج ا
ب وضع
وحد ه
التحت ية
وع ا
ون غ
20 30
مت وفرة
المع تمد
فلون زا
تص ال
الخ طيب
الم بلغ
مث لي
القائ د
الدر اما
اث ناء
ورد ين
اح ب
س وي
الأح زاب
ل تق
فض يلة
تر ن
اد خل
النج وم
يس عى
التج ربة
وض ى
مط ابخ
ل عملية
ك ويت
خام ات
محر م
لت أ
الم صل
الس جاد
وا كسسوارات
الغ رض
جام عات
بد عم
الإسب انية
ت وريد
بع ات
دا خلي
الس وبر
اط ف
الشر وق
است هداف
نا وين
الن ارية
ضي وف
صالح ه
والإ علام
قد مت
ا ورة
بي ري
البط اط
بد بي
والإ نتاج
1 16
الم خصصة
ك برى
رئيس ا
ول هذا
إلكتر ونيا
الن سبة
تر تيل
تت متع
سيا حية
الفت يات
رج ات
البر ية
لن فس
إين شيري
ثان وية
أ شرف
الثابت ة
ب العربي
جو هرات
الع ائ
لأ صحاب
ي حر
ح از
بع ناية
ث ور
ل وان
الم زر
جم الية
مش تري
ق اص
أ رج
وال يت
ه ية
رياض ي
الاسب وع
مغ ربية
ق مصان
لي كون
الاخ تبار
ال ورد
الع ج
ياس ر
ست جد
بلج يكا
1 17
ز از
الذات ي
رأ ى
ي بقى
خل ع
غي ب
والم ك
ل استخدام
ن ام
ند اء
العق ار
التح ديات
ب قي
الد وائر
سبح انه
الس وي
اب رات
ق سام
ال وسائل
كتي ريا
أس هم
وش ة
رين ية
التق ارير
منت دي
يع تقد
هن دي
الأكس جين
جام ع
الوه اب
أح لام
وت ابع
عزي زي
القاب ضة
الد ورات
وتح سين
اخ تي
القر ى
ي من
أغ راض
القص يرة
سكن ية
ك يت
يس ية
الأرد ني
لا فت
الش ديد
المر ش
م ئات
الا علانات
بق يادة
الس رير
أع ط
ا يميل
الد ائرة
سر قة
ت ود
تحديث ات
ات فا
المش فرة
ح ري
ا ولا
الج هة
وط ريقة
1 12
القي اسية
الأ ليفة
ما ط
لي وبية
الأس ر
أه الي
سو هاج
است قرار
بعض هم
المع اصر
ت ثير
إ صدارات
سم راء
سل ط
الع ط
الأن بياء
الاسب وعية
اف ل
لل شباب
التد خل
ل ولو
دع وى
خ سائر
الش هير
ال وحدات
المج يد
ثابت ة
يس ير
النق دي
ع ظ
بح ى
ن بيل
عل ما
ترا خيص
الاخ بارية
ع ينة
المس اجد
البور صة
ل وري
الأ جانب
و العالمية
الق مة
10 5
3 13
الاحت فال
المص ابين
الت ميز
ور فع
الس يت
رح مة
س مة
الف قر
الح كمة
وق يع
الش اط
ن ض
الجان بية
الل جوء
و عندما
إ يمان
لا ص
لق ى
سيد س
سن غافورة
ذ ين
أس اسية
يش يا
ابا يت
قائ لا
الز نك
نا ط
فا يف
خص ومات
ح اث
بلا ك
فع الة
المسئ ولية
يع انون
اط باق
و الصور
الك بار
ضاف ات
بق الة
الأ سلحة
در ك
الإجتما عي
لل مس
كس ها
تح ذير
اعد اد
الع مودي
الن صف
الر ضع
تل ميع
وف ات
19 99
است عراض
تع قد
كري ات
رح ى
و ويف
طوان ات
أن س
حم زة
أ ضرار
بح لول
تست عد
السود انية
التن فيذية
النق اط
يج مع
بي تك
استر اتيجيات
مت اب
ائر ية
المل تقى
الب ضائع
سب عة
مع ارض
بار اة
المنظ فات
التخ زين
فري زر
صنا ديق
رح يل
دي سك
لتح ديد
يق ية
لم شروع
س اس
تق ان
القر ص
ع بيد
اط لاق
والم د
هد م
الأ وضاع
روح اني
رائ ق
اكل ات
في وم
صاد ق
بو عة
الف لفل
رج يم
الك ن
ان قلاب
شام بو
الط ف
العقل ية
ق وب
ش ور
أ سم
تك رة
خط ير
طار د
العا شرة
المس احة
يا فة
عج اب
قر ص
حص يلة
ل جعل
١ ٦
ون ش
إ ظهار
الم باني
التق ني
مؤ خر
الأن باء
بحر ية
ق وط
ح سان
مكيف ات
الضر وري
يه تم
ب أس
الناطق ين
وس فات
ر وز
المشر وبات
ون ظام
المط اط
الفيديو هات
السي اسات
19 88
تش يل
تص حيح
و إلى
ني وم
الاس رائيل
لد خول
ب التسجيل
اله امة
مخت ارة
لل كاتب
ا ثر
ئ ن
الت كييف
ال ائتم
انا ة
لل شركة
الأ وقاف
مض اد
تفا هم
غ ريبة
ع ناية
دخل ت
ل رئيس
بن د
مخ الفة
تع اد
تش ين
سن اب
ب العربية
ال ارد
وا خر
اح لى
ال العاب
ا ذهب
حد اد
و ول
ج واب
ج بر
الل يلة
و كة
الأ غذية
الا حد
الط ر
بس ط
شورت ات
الز وجة
الك ث
نس ائي
ف ود
199 8
عش ان
ع اصمة
الان د
الج رعة
يخ تلف
2 25
الط يور
توق يف
شهر ين
ح ليب
ما ئة
التحقيق ات
الخ طة
وم ج
أ ض
وه ى
للت خلص
الأح ذية
را ديو
المدير ية
تاي وان
الم ون
طق س
الز مان
نظ يره
ن وش
ته تم
س وس
ج ث
الفر صة
ف ط
اق تصادي
التل قيح
ور بما
ب صوت
المساعد ات
جز ئة
وش ات
ب تس
أ طول
الجما عة
نها ئيا
اس واق
المرك بات
الاربع اء
لل تدريب
توي وتا
الاست علام
اش ت
يع قد
الفيروس ات
اغ تيال
دائ ق
و ورد
2 30
لي بي
رائ دة
تع ويم
محف وظ
ل مع
بل دي
ق ديمة
فا يز
المق ارنة
مه دي
خ ميس
الم عروض
الق ت
ب الخبر
إ تمام
المجتمع ات
أعل مني
عق يم
ياس ين
عط لة
تغ ليف
الم تع
يف تتح
الم راد
خر ية
لح ادث
زا يا
منظ فات
الط لاق
السعر ات
ف ائدة
ترا ث
لل صحة
است شارة
مناه ج
الميكاني كية
وقع ت
وق وف
مفاج أة
الت فاعل
تنت ج
الخ وف
تنت ظر
مر سيدس
ال وان
واج بات
اد و
دون الد
للصف حات
في ظ
ين ج
الور قية
الد خل
الش يطان
لا حق
ته ريب
الإقليم ية
ي قبل
فس اد
إد راج
المعلم ين
تر فض
الم ميزات
خط ورة
مي جا
الافترا ضي
و عرض
اس ود
ن كون
ت بدو
ن عرف
المنا عة
رب ه
وش ن
كري ا
شهد ت
ث ف
عام لة
ب الص
ان ضم
ل وج
اع ية
ط ائرات
سير اميك
قض يب
اسب وع
المنظ مات
21 0
م ارات
لل طلاب
و إدارة
المعا دي
ترك ارد
باب ي
اذ بية
للمست خدم
تر ز
ك است
است شهاد
بل جة
الأس ماك
مح سن
ب سم
ار يا
مث الي
ل صنع
2021 م
مث الية
ع راقي
الغ رف
ل أكثر
19 87
المصر فية
للأم م
الث لج
ت ني
المن اسبات
ت منع
يوم ية
ها شم
بيانات ك
حس اس
أ خصائي
علا وة
مق ابلة
وض عية
م وم
الس حر
المعل بة
الب نية
كر سي
الشع وب
عم وم
ط يات
دا قية
ي أخذ
الغ د
تق رر
الز ع
التعا قد
المنافس ة
ش ديدة
القي وين
وخ ة
التلف زيون
از ياء
ت وفي
ت طلب
سير ين
ب ولاية
بوت ين
راف عة
الق ب
الاخ يرة
بك افة
العل وي
ص بري
الج را
است طاع
مط الع
ت تكون
الج ر
يش كل
والأح كام
المعا يير
إخ بارية
الصح ابة
ماس تركارد
١ ٢
ص راع
الإقليم ي
المخ تبر
كم ان
از ن
م قدم
جل ال
كام لا
بع ثة
خلا يا
الباحث ين
ام رات
ل يرة
يف ضل
بالت فصيل
واج هات
لل ن
اب ها
مش اعر
دف عة
زي ونية
أنغ ولا
بلا ده
تح ذر
ي هدد
شمس ية
عائ شة
الحر اري
ون يت
ق هوة
العد وان
اص بح
الأ هداف
ح رق
بي هات
اش هر
عي ه
ض حية
ول يكي
ب بعض
ب وجود
و العربية
و الاجتماعية
تش خيص
روس ية
ائ حة
الترب وي
جين ز
رش يد
الحوث يين
اس ئلة
ابد أ
تل عب
١ ٥
والم خ
ول ل
المك اف
وت وفير
إ قرأ
ب وز
الث لا
ي هدف
الح ية
الت را
م مل
سني كرز
الأ ذ
ح زمة
مع الم
١ ٧
المقد سة
ب السعودية
ع ك
الب ترول
ر ويج
ج وه
الدان وب
6 699
ان هيار
ص لا
بور ت
ب الطبع
الأول اد
المت داول
وك ول
ما جد
وق فة
يست حق
صحي حة
الق ومية
الت ها
اح ي
بر ع
اس باب
تت طلب
وه كذا
الم بكر
إيج ابية
الار هاب
بو كس
الت عرض
السر ية
25 75
الك بد
الا على
العم الة
الناف ذة
ت تردد
رد ود
87 79
يع ط
يت وفر
التع ديل
كا وي
بر عاية
خط طات
الدع اء
المه ام
يع طي
خ ادم
الك اولين
مور دي
ت أكد
الاه تزاز
ل ست
الح فظ
فا كس
يت عين
عن هم
نق ول
حل ويات
المت وفرة
وت نظيف
يت متع
لل ر
وال ه
عد نان
سب ل
بج وار
ت بي
7 20
م مة
هيدر وليكية
صف قات
لل ش
نجر ان
مار سات
وح ل
مذه لة
وق ود
والت ى
الت ضامن
ت واليت
بي بي
6699 8779
عار ض
ين شر
و البر
طالب ات
الا ض
الأ نس
و البرامج
البلد ين
وح ماية
الرج وع
خطوط ات
الحر م
الط ابق
الر ئاسة
إن ست
أص غر
عمر ان
الط يب
يل زم
المرا فق
المح طة
وج وه
س كي
بوت اجاز
الس في
وت كنولوجيا
بي تكوين
الأ خطاء
س أ
ام راض
تأ هيل
بالا ضافة
و علوم
لل تن
تط ورات
تر ميم
الاد ارية
الإ جمالي
تت عرض
ب مركز
الم راقبة
تف عة
المف وضية
يه ن
الع طور
ات رك
المبار يات
نظ يم
ي اسمين
10 4
كولوم بيا
البح يرة
بو وتس
الم ور
بو اب
الخ فيفة
نص وص
و أنه
نا ز
السيد ات
بلا ط
هو ري
الثلاث ون
آ يفون
اص لاح
المشروع ات
ع اف
الج يد
است مر
حام د
با ش
تسم ى
الم انيا
أن صار
28 0
التط ور
والت ج
تر ق
وط الب
المشار كين
البي تكوين
بت وفير
لك افة
و ذكر
أو كر
وال رياضة
قر رت
بات جاه
وال ض
ط وبة
الب شري
أو امر
إذا عة
ب التق
م ظهر
ملي ارات
الخليج ية
دم ياط
المدر سي
هي ب
199 7
نت ه
بير و
بالم اء
أن ف
لم صر
الت خص
الخز انات
ف نج
ظ ن
د ستان
الد ائم
حت يا
المحت لة
ص اف
نوع ه
ال وثائق
تن ة
تد اد
التعا ونية
ال ين
الم دة
والمؤ سسات
ي هم
تج ري
وت اريخ
تر فع
مش يرا
الق وي
آ يات
شار كة
ثالث ة
ب وزارة
اب واب
بي ليه
المسؤول ين
الأح ساء
13 6
وق ية
وفي ن
الص ادر
الت وحيد
المز د
الاع تبار
خدمات نا
كر ية
أس هل
وأ فضل
مد ية
حف لات
المرا حل
عق وبات
ش وب
مجه ول
ج ولات
الثان وى
مد ين
جتما ع
بشر تك
ال راج
ئ ها
ما ض
ق ريبة
بر ميل
ت أخذ
يع ي
متصفح ك
الام ر
بش دة
ي ضمن
حظ ك
ظاه رين
للبن ين
فعل ه
الم مثل
ظم ى
مغل قة
بج ائزة
ب مق
علي ق
الفرد وس
الع ز
الش فاء
مع ة
بس ر
وكولات ة
فري دة
واي ضا
مد ون
الب سيطة
ف ج
ع ومة
وص ح
الك لى
وال ى
الق وية
ويع تبر
التج ارب
يق ال
سن ويا
است قبل
مض خة
بالت أكيد
تعا قد
شعب نا
كس ية
ال واحدة
ج اف
الد وار
غالب ا
ف كان
الرائ ع
مع تمد
نيوز يل
و ارات
الته ابات
إن نا
حكا ية
مل ت
شر ك
اخ تلاف
الا هلي
التصنيف ات
يل ية
هد ى
إن جلترا
الاست قلال
س ند
أ عداد
م ولا
الإمارات ي
وت ها
د اف
حر ار
ما هر
ينت ظر
م سبق
الها د
ق لم
الج رائم
حمل ات
الا يط
لتص بح
المحت مل
جير مان
تأ ليف
الم ثل
ور س
إش ارة
منظ مات
ن جيب
ح دة
وس ري
لل أشخاص
للت أكد
كر وم
عي وب
أ بحاث
ح ميد
المحاض رات
مح ترف
كتاب ه
ب أكثر
و آلات
أك ولات
إل خ
ل تجارة
الإ فريقي
كان ية
لم طحنة
م وجة
الور دي
است ئ
لل عملاء
الث من
فإن ك
رؤ ساء
ال واقعة
اخ ت
مخ الف
المعر وفة
نا عم
خ ض
الأن درويد
ست ائر
م اني
ق ادرة
هوا وي
في زياء
الل ى
س بي
مست قل
أد ب
خز ان
المج لة
الع ادة
الغ ام
تص فية
ف أنت
بكال وريا
قر ض
التص اميم
أق راص
تق لي
ح الي
د عي
إ يه
الن طاق
غ ري
تم ارس
تع ز
14 4
بر ون
المستقبل ية
إس طنبول
ت لي
الإ حص
الت ربة
مث ب
البار دة
ت تج
الكور ونا
4 29
نت ها
ذربي جان
ست ن
المؤ قت
الف اخرة
الق بطية
ت ليف
خ ن
الج نيه
الع يش
الم شرف
و الاح
تكس اس
ب العمل
الح جز
ع اب
الجلد ية
ان ظر
أي ها
شر قي
المن صورة
٥ ٠
أو غ
أ صدقائ
ل رفع
وأ هم
م قياس
ق اق
فور كس
عق وبة
ول يا
ل برنامج
كا وى
ر خ
م غربي
الن رويج
الأ لف
أز رق
ا يف
العبد ية
ار سل
است شاري
جما هير
ز ينة
اح ونة
11 8
نشر ها
اج ي
القط اعات
يهن ئ
الشر ح
غض ب
تد مير
طريق ه
ج نسية
بور سعيد
الس هل
ق منا
شه ري
منتجات نا
يتم كن
الز رقاء
آ ليات
وب دون
اف ترا
م واليد
ط ورية
سويس را
ق ماش
كم ام
فل ن
ال وفيات
الض رائب
النقد ية
الش كر
الأ بطال
ميل ان
و ديو
واف ذ
تنت هي
انته ى
الخص ائص
ماي كل
لل كسارة
والق نوات
يع قوب
ا يت
حم امات
ال ائتمان
تر سل
بع وث
أن ني
اب نة
ش أ
مر تين
ط راز
ض يق
جل الة
صل ات
ن رى
اه ة
المش كلات
59 41
وال غاز
يل عب
الز ائر
مش ي
شف اء
الم لائ
569 7
ري ادة
اف ون
اس ى
الم ودي
الصهي وني
ي ث
ال وباء
الشعر ية
ان غ
الأ وس
الز ائد
الل حم
المث الي
م ريض
با قة
ه وم
الي ورو
يس وع
ناد رة
المعار ض
ز رة
اب قة
هر ام
لم وا
ع ربة
بر قم
الب ائع
تح ام
البن زين
أس امة
فض اء
أني قة
إست خدام
10 6
الح ظ
الاست مرار
ون ج
المح ف
المر تبة
و الحر
الخام ات
ير ن
ط عن
التط ورات
ض جة
الق تال
الغ س
لل صناعات
مج اري
سب ليت
تس اقط
الاس نان
من ف
البكال وريوس
مص باح
مر وع
معد ن
تش جيع
الأش عة
ر بي
الخلف ية
طي ز
غ لق
تك بير
كر ه
و الحصول
فر وض
يض رب
س هم
ب شركة
الك السيت
الج بهة
سل طات
ا يد
56 7
است فسارات
المباد رة
أو ضاع
استر جاع
أم انة
الجاه زة
ار يد
الوس وم
آ دم
ه ود
مساب قات
الم يل
المت ميزة
البر وتين
التن فس
ت يد
ه يا
ط عم
يا ئي
التطبيق ية
لاح قة
اس ماعيل
ب معنى
ل تنفيذ
ي قي
ب ورد
ثلاث ي
ك يد
مد بلجة
ال ريف
وأ ما
ار شيف
الر ش
يوني ون
العن صر
الح فلات
وأ صبح
آ فاق
د ود
الج يم
سكس ي
القي امة
اخ ي
يت سبب
خب ارات
الن حل
الأر ثوذ
و البحوث
الاب تكار
إ ر
وات م
وك الات
كت ير
ج ود
وت كون
الأم ثل
أر وع
الل اس
والم بيعات
لت طبيق
تح ار
ح ذر
ب قدر
طبع ا
وس يط
است ئناف
الحل ويات
اف ه
الإ ق
وجي هات
أس اليب
مصر ف
حق ن
جاه ز
حيات ي
بالج امعة
الق نا
ك وين
ست يف
10 9
بو ما
ح ائل
الج لوس
38 6
10 8
المعي شة
أنواع ها
عاج لة
ل تصنيع
ب المنطقة
للح كومة
الع اط
ص عبة
مت كاملة
ق ان
بته مة
المختص ة
ام س
الش أن
ست لايت
تق ريب
ان قطاع
ابي ض
وال علاج
أ حيانا
ت تحمل
ب اليوم
الخلي جي
محاض رات
تق اد
تط عيم
الت مييز
رئيس ة
ال يمين
لل قيام
ب صيغة
الح ضور
اله ض
لل قوات
إ ضافي
ل طلاب
أسر ى
يم وت
زام بيا
وز ع
إن سانية
بم كة
الزرا عي
لل ة
الاستثمار ية
موظ في
بإ ستخدام
يج د
الر ز
السعودي ه
وم صر
يج ي
لل ماء
الك وب
مش كلات
إ بريل
الق ابلة
ش فت
والمنت جات
رائ ية
الآ لاف
حذ اء
ون ص
مح اولات
نت وس
لا كوست
لل تر
الأول ي
وي ستخدم
قر آن
الع اج
لإ زالة
وس يتم
أنفس هم
ه ورة
معاد ن
الس احة
الب اك
للان تخابات
2 60
ليص لك
مح ج
وم حمد
المسلسل ات
الب رد
أ طراف
م للي
المست قلة
نست و
ت سل
ور دة
الإرهاب ية
بأن ك
ما طم
الرغ بة
الج هاد
يش يات
تف صيل
ف وب
وأن ت
سم ية
الأرب اح
مض اع
مج ف
انتخ اب
اد وية
ود اع
لط يف
ال يل
لت عليم
والح فاظ
الرئ اسية
سب ا
من وعة
ت ول
يت جاوز
يت ان
وي قية
نصي حة
الب لدي
وا ية
ح صر
اع تداء
ب كلية
ق صف
الط ائ
ما ويات
حيات نا
نوع ها
غ ات
والت وزيع
الح دائق
مي ق
ته د
بي ها
جن يف
والد ه
ال زيارة
كرب لاء
و الثقافة
بالإ نجليزية
الور ق
الر طبة
بين ا
بر د
المشتري ات
المغ ذية
والت جارة
ار يات
ان نا
خ واطر
مست خدمي
الخ ريف
مس ير
وقع ات
ت فض
غ ناء
التد خين
الأ عشاب
الس باحة
ال ريال
مؤ لف
ر وما
ان تر
ح واء
ص ص
للإ ست
أصحاب ها
إ ني
لح ساب
ون شر
ته ما
و بيع
الد ن
مل ء
موا صلة
الم جد
لإ جراء
13 5
تنز انيا
تبا ه
10 2
الأد بي
الج نين
12 3
وال شركات
الاس ود
الس الم
مث بت
صيد ا
والأ من
فر نسية
الس بع
ري قي
المد رب
وار ث
الأرب عة
وف تح
سن ه
الملك ة
الح اكم
ه تمام
الا علان
ألب وم
ي قر
المح لات
يش اه
ب بساطة
روس ي
الأ نا
أق ول
راز ية
ضا ة
است كمال
ون صف
الصوت يات
أخ نوش
لا زم
وم واد
اليد وي
للمق اولات
تح رك
12 4
لل دولة
سب ع
10 3
أ بد
المن خفض
وتع زيز
موتور ز
الف صول
ال افلام
متح ف
بي ته
ض ارة
تست مر
أس وان
11 1
الع تي
10 80
سخ انات
غل بية
تحت فل
الح ائط
والإ ن
الحي وان
الفنان ين
ح ون
تس اب
الم فق
الرا حل
14 5
ان ترنت
لمساعد تك
الر ومان
وعي وب
الر كام
أج واء
ال هو
عن ف
الب تر
ر وعة
اجن بية
ب عملية
س ؤ
د مج
خات م
الدول ى
المس ر
مورد ين
م ذكرات
الم تصف
سك ربت
نا قلة
ص ري
الحض ارة
الان ضمام
البي وت
الأ صدقاء
يت ا
ور اق
ميز ان
الم شي
وح ية
خ مة
الميز ات
الغ رانيت
كر ونة
الر ماد
س عادة
الأس ير
بر ين
الط لق
ذكر ه
مون ت
الائتم انية
الا خر
ر وت
ط الع
أخ ي
س حر
بو ش
ين تج
مش ة
معد نية
جن ين
العم ود
م فيد
من غ
الم تق
عند ه
الشر عي
ع بي
مه تم
عام ين
ب مختلف
الت وجيه
تقد ر
حت ها
ض و
الك وم
الطب قة
الصاد ق
ئ ون
لل كتاب
العربي ه
بط انة
مرا كش
ع سل
ست ور
عم ود
واق عية
مطالع ات
الك حول
وآ له
ل ورين
يت وجب
ي صنع
ج مل
ت هي
الب وت
ان طلق
وات ي
ب فتح
صار وخ
عدد ها
ميكر وويف
ما ئية
يت ش
مساء ا
لل اتحاد
ض حت
الاح تجاج
يمكن ه
نج مة
اللح ظة
المت ميز
مان ويل
القر ية
تف اء
الأر صاد
مؤ سس
الا وسط
ض ربة
اني وم
أكد ت
الس مك
غ اني
غ رافية
شع راء
ناد و
تعليق ك
حم ض
الفر عية
مج فف
للج سم
ت خص
بأ عمال
حق ات
الع زاء
المحد د
تق طيع
ما عة
لمس اعدة
واب ن
هب وط
والن ساء
الأكادي مي
الب زنس
ي حل
ولي ه
الق راء
ت ضر
ح اق
البي تزا
نشر ه
احتف ال
ي وافق
الشاف عي
المعن ى
قي ود
المت ط
وق طع
راق ب
ين بع
كت الوج
ش دة
الق ليل
والج مال
سع اد
زي غ
لبن اني
وم علومات
تج هيزات
ض ى
ب الاسكندرية
ر الف
الس ين
ني ابة
ث ارة
اخ تصاص
إرهاب ية
خط ب
الم ضادة
اك هة
الجاف ا
مت وا
جد ل
آ داب
ئ مة
قد ار
الاعلام ية
را فة
للا يفون
يس جل
الفك رة
ف ئات
ش اي
اله ول
الشع راء
ه يد
مع طر
ام عات
الشري فين
صل ب
المنش آت
التط عيم
وق بل
م فصل
لل يوم
جي ال
لل دخول
ع جة
عمر ه
بر لين
وس يقى
دي ها
ت فاعل
زي ق
النا صر
إخ راج
دي ف
الزه راء
ب إنشاء
أ وز
الفر ع
لل تسجيل
مين يا
الاست عداد
اع يد
تت راوح
عق اد
ظ رة
الك ول
ثق افية
الأ نص
تام يل
خص وصية
توس كر
أح ادية
س را
س ماء
ت از
ملحق ات
تق يم
17 6
ش راكة
والد عم
لل كبار
الاح مر
الم عاملات
بش ار
تخفيض ات
مرا ه
مست شفيات
د رب
المس اهمة
است غلال
الص يام
الك ه
الط از
إلي كم
إ جازة
أص وات
ل تشغيل
البط ارية
ل عدد
الاست ثمارات
ظ لم
المص انع
اله جري
الف تا
وغرب لة
مع تمدة
وك ما
الإست خدام
دي ز
ا منا
مخ يم
مح ام
الن قر
خر فة
بي كر
١ ٨
المنا هج
حاد ثة
ح بس
ال وارد
ت ذر
وي خ
با ز
تست هدف
أش عة
مي ث
الأم طار
وس واتر
الت رد
١ ٣
عم ارة
تن وع
شي ئ
الن ح
تز ويد
وك يو
الراج حي
المح مدية
ون يك
لا زمة
قي اسية
ل ذوي
ص يني
ق والب
جع جع
غ بين
الق ليوبية
في هم
نا دى
الإ عاقة
وق ل
را فق
أ بعاد
قي اسي
النبات ي
تك رير
مس قط
الجز ر
ال علي
ش ائعة
أع ظم
قال وا
ص افي
س لك
ش وارع
الك وا
ب مع
الن د
الباط ن
ق دة
المر جع
المق ابل
ض ابط
الاع تراف
ج ثة
الك اذ
أساس ا
الك ليات
في تنام
النا شئة
اع تبر
اخ تار
الس جون
المت ابع
لن شر
إ صاب
أك ياس
والت أ
مكت وبة
والتد ريب
إن ف
المت اح
خط بة
عرض ها
وف ان
يو خ
يي يي
و خدمة
هر ية
غذ ائي
دا قة
ته دد
الك مية
تر حات
ب ؤ
ل شهر
إ عطاء
مك ائن
مت ي
المص طل
الش فاه
أوكر انيا
ل مركز
05 5
اجتما عات
10 7
رغ بة
تص ارات
الاست قرار
صنا عي
16 8
الغ ابات
لل حجر
بال اردن
الر مض
ت سلم
اخ تراق
الأ ديان
اف كار
خ تام
الج غرافيا
يا دين
جن ات
الأص وات
ب جد
الم ياة
طي بة
ص دي
امري كي
الم مل
بلاست يك
ش ون
الج وز
والت غليف
ن فا
عمل ت
ش يرة
للإ علام
وا زم
التقلي دي
الكل اب
بخ ير
اس اس
الأب راج
لم خ
ت تحدث
فن ز
حفظ ه
حتيا جات
من كم
لل منزل
ريب وك
ج سد
الإبتد ائي
انته ت
الص عبة
الح لاقة
أي دي
عب ير
لت ا
الك رد
اع ادة
خار جي
الج نائية
حف رة
ج ت
وتع تبر
الأق صر
إ ق
الده نية
ع ري
ارم اني
وأ ول
الك ار
ور دي
ش أن
تر قية
الجما عي
قات ل
ساخ نة
عمل ي
آ نية
ست را
المسل مون
الب ارد
الر شيد
فر نسي
ع ميد
ج لا
الإنس اني
الت مثيل
ي حق
مع الي
ما ئي
اج راءات
ع سير
اس ك
مرا د
أخ لاق
ر ئ
روا ه
وعنوان ها
ل ذي
وم جوهرات
ذات ية
الم وث
وال ام
بلي غ
محد ود
خلي ج
خلا ط
الأش كال
الخبر ات
ا ها
مرك بات
إم ارات
و السعودية
وا يات
رغ بات
م شرف
مك ون
الثق يله
خط ى
المل عب
تس رب
لل مواطنين
الأ ما
ب الحق
قص ائد
ص ود
مس افة
س قف
ل جان
اش تباكات
عل ة
بق سم
ف لسفة
رق ص
النسي ج
ين صح
199 5
ج وي
ب الي
المع الج
ار يف
99 9
مت علقة
ر وبر
إ ضغط
وظ يفي
الإ ح
الش وارع
ستر سل
ق هلية
الض ع
ل شبكة
الش م
ود عات
د ري
مخ اوف
مبي دات
غ رس
مطالب ة
الأ ظافر
اص ابة
المق ام
التركي ب
أطلق ت
يس عد
معا ينة
وضع ت
ولي ست
شرائ ح
الولا ية
0 16
الص اب
كاري ير
ظ ى
إ تصل
طبق ات
والمك ملات
سل اسل
أ بنا
وز ة
ال وكيل
ط وي
ل دراسة
ح قل
وت ة
الم ان
ثم انية
القل وب
سوف ت
الق طن
ل آلة
اك يتات
يخ ضع
مت ميزة
وتح ديد
ني ش
الفر قة
المس جل
البحرين ية
وق ر
الأرج نتين
الأمن ي
ذه بية
م قل
لل تعامل
دي فيد
مجف فات
جاز ات
إن ج
آ ة
ف حسب
متلك ات
الم كيف
الدي وان
36 5
كيم ياء
عض وا
الإ بلاغ
د ينا
الل يرة
شع ارات
الراب طة
رب نا
كات بها
لأ غراض
زب دة
الحر وف
والأ ن
كت ابات
تن بيه
زا من
ه ول
الغ الب
ال ول
وال اس
نج ح
ن شيط
آ لي
قيم تها
اي دة
اله وائية
م وضع
ش باك
نيا هو
ج ناح
سما حة
السل بية
تق وية
الأل ياف
صاح بة
القب ائل
مع قم
ال وب
فول ت
ص يا
الني جر
يد وي
الني ابية
19 0
عمل ك
الم وص
التشري عية
المخ ابرات
حكوم ي
الدي زل
صر ح
ه وي
بن ة
21 7
ل جهاز
صنا ف
د نيا
الكت لة
الج واب
بنغ الور
ؤل ؤ
الآ يات
ميز انية
مند وب
د بلي
الان قلاب
عد ل
صنا ع
سود اء
نا در
منز لي
عل ب
ساع تين
الم ول
إ بداع
سيد نا
أل فا
شعب ان
مق اعد
السل يم
ت طرح
اح ترام
نت نياهو
ر موز
الج ول
ل يم
ف وكس
الح ادي
ينت هي
و أي
إسرائيل ي
بن ان
د جاج
أ با
انتها كات
البرلم انية
الموا قف
ث انيا
السد حان
البلاست يكية
الكون غو
الح امل
الرح مة
ال وفد
راج عات
مه كرة
مر فق
مكاف آت
الف ورية
أ ذربيجان
الح ظر
لل ك
إ طلالة
لاست قبال
ت كتب
حدث نا
الح شيش
الت ور
كوب ونات
ج اسم
فلسطين ية
ق فل
عبد ه
الفع اليات
م فاوضات
ت ية
الهي كل
شار كت
العر وس
تام ر
البرتغ ال
وز وج
طاق م
ح ج
تل مي
الق ابل
ل يا
والم وردين
الق وم
العثم اني
يت فقد
إش عار
ب ذكرى
ر حل
الإ فريقية
الت ام
ا طلع
البنت ونيت
م هد
لمن اقشة
ٱ ل
ش راف
اللق احات
ق ند
جن ود
أ طعمة
ير جع
التخص صي
17 5
النس ائي
ما ز
وب وت
صع وبات
عاد ية
وا يا
التاريخ ي
اي لا
مر تفع
الم تش
بالر غم
الت وزيع
رقم ية
ع اليات
الع ائد
الش راكة
ن رحب
وتن مية
الطو يلة
ين ظم
الق ة
است فسار
يق يم
ائ نات
ت تع
ات خذ
عي ب
لل تحميل
النا يل
كن ة
لل مساعدة
تشيل سي
التش كيلة
كن زات
ل وح
ظ ه
هي ون
سنت ين
التمر ين
علم ين
فوز ي
تايم ز
التن زيل
ن ارية
المح اكم
الر فاع
اجتما عا
أ جنبية
الط اولة
المتصف حات
المؤ شرات
الب وس
السيا حي
العام ه
ع جل
ئ ران
و الحصى
ق وس
م قط
التون ر
المدني ين
تع طي
المحد دة
عاد ت
الف وسفات
آ م
ليل ى
و الدولية
الوحي دة
6 50
زر ع
إعلام ية
ش نت
شي با
الل سان
المست عمل
ا كاة
ئ ر
واح دا
تخ ضع
تع يد
العذ راء
ق صد
بع دة
ح اب
الص لاحية
اع ضاء
تخ سيس
مت كامل
الروا يات
ي ترك
المح رر
ل قطع
الم بيدات
است متع
الإم كان
مز اد
الت وقيت
اط ار
با عد
بد اخل
ط وكيو
الم خرج
شاط ئ
المج وهرات
م خر
ع ظيم
توق يت
ش ارية
الآسي وية
غان م
المص ورة
ع طل
فت يات
يست مر
مض ادات
فت اوى
إن قاذ
فار وق
خ ت
مطل ع
كادي مية
و عروض
الج هد
الم بالغ
الحس اسة
بعد د
الوج بات
الاست شارات
ين ظر
المر فق
ن في
و الاخ
الخ طر
اط لاع
سب وت
وس ن
وص ولا
ن ريد
الم ئة
2 21
مخ تل
مؤك دا
ا يك
غ نية
باست ثناء
ث بات
وع بد
بد ور
علي قات
199 6
الج دار
مناف سات
بي دي
المي كر
من اسبات
الب عث
يج تمع
199 4
كير الا
مك ين
بري ك
تر ط
المك بس
با شب
ذ مة
وس هلا
قلا دة
مع سكر
ع بوة
اق تراح
أ علم
دا ولة
تجاه له
تز وج
تق ر
و تركيا
البن ود
هند ية
م لائ
للق ضاء
عي ين
وموا صفات
راص ير
بل وجر
الإ له
ر سل
والأ ف
الع طر
لل مرحلة
الحر بي
وات ير
الع ميد
كر رة
وت ت
ومن ذ
ين اقش
الب ني
نظ يفة
يف اء
لت ها
الس ب
الس ائق
199 0
عط ية
4 16
مع اطف
دبلي و
تت سبب
ج رب
الاست لام
وتح ليل
البدي لة
كات ير
ط لا
ب شرة
اله ام
أن دية
تسع يرة
ن ط
زين ب
الوا دي
طالب ة
تلقائ ي
ئ ذ
ح لاقة
وار تفاع
تح ديات
وظيف ية
كت شاف
والس يا
لل جنة
عش اق
الد راجات
ر عب
با يت
الح ارة
نب ض
كل اب
عر فت
ي وقع
القول ون
والع شرين
الن ض
مصر ى
و الثلاثون
الإرهاب ي
أس وأ
م باحث
ك اج
يش ار
مام ات
الن شط
الك افي
الميز ان
ب الطائف
والج رانيت
اب ناء
مق ات
وزير ا
حل ال
نا جحة
الب طل
مس عود
ممكن ة
لل خ
صد ارة
وم وقع
ب طلب
ال واجب
يت بع
لق سم
بل سم
الخض ار
ز يمة
الشر ب
المع اصرة
عر ق
وم تابعة
ق وا
العد وى
ال وصف
و الأس
الث نائي
فا ضة
الخ لق
ي قد
ج زة
ت بين
بش راء
لف ت
والأ جهزة
ف خر
كار دي
الابتد ائى
حم ود
وضع ها
مودي لات
وسل امة
الم كاتب
الك يل
ح صة
والمقا ولات
الق ماش
ي طرح
فن ى
الس ط
ال وفاء
الفتا وى
ال وجود
حل وة
الت أكيد
الت سمير
تش و
بن قل
التط بيع
زيا د
الد ائمة
الث وري
سيا ق
5 50
فس ر
ج دران
٠٠ ٠٠
الس ادة
والتس ويق
اح داث
الت ز
لل اتصالات
المكت بات
قض ائية
الدبلوم اسية
هام ش
الق تل
أم طار
الي سار
الب ه
ح رة
از الة
الرز اق
عم يم
ر ابع
قرط اسية
معلومات ك
دا وي
روي ترز
تو شيبا
أن ابيب
الثلا جة
اي طاليا
عن ك
تط وان
الدو ارة
وا ذ
منه ما
بن كية
تجد دة
المص اب
خ يمة
الس عي
الق فازات
المج اورة
ك اني
ك ليب
المن ح
رمز يات
ت داعيات
ير تفع
الكي ان
ق ميص
ال ارتفاع
ت اون
ين ز
3 30
تس هيل
التح كيم
ت تر
الإ ضاءة
اع راض
وك لاء
سمع ت
الشه ري
عد اء
تس ريبات
الع طل
أو ضح
الإس ماعيلية
والم زيد
تق اء
ح وض
ل ار
ق ود
تص ام
الس طح
اض ف
ر نا
الح مار
الميز انية
الص ويا
السيا ق
ه لات
الاحتيا طي
طي ور
ب الاحساء
ما ق
الأح لام
الت جزئة
الع س
وال شر
مع كم
ح ارس
لح ام
المس ألة
م ئوية
المح امين
88 2
و أسعار
اب ريل
أح زمة
الحسين ي
ل محطة
سفي نة
الات فاقية
طف لة
ذات ها
إ رجاع
ع با
بص فة
قت يل
سم ى
أغ اني
تح د
المست ويات
المح اولة
الاص لي
تجرب تي
نص ري
في فا
الري اح
تع ط
مو خ
عرض ة
الج وا
مق راطية
الآ راء
المشاه ير
34 567
ق مر
التق اط
بإ ذن
لل بيئة
توا فر
ب غير
25 6
الف واكه
السفي نة
و علم
وت قدم
ي شرف
لل تع
وي عمل
الت وابل
اض طرابات
الت كاليف
يت وقع
من فذ
الان ت
أ سلحة
منظ ف
ر انيا
بر غ
بالأ سنان
ت سب
الز كاة
كوك ب
وي ح
اش راق
14 40
المش اعر
س لا
أث بت
ب مستشفى
الكلاس يكية
مح تويات
ذا عة
ك ابل
ذا هب
نا يل
التح ديد
الع باد
إ يداع
مه ند
البر مجيات
والت ع
ل زم
ل تنظيم
الت وقف
ل شئون
الطف ولة
است شارات
وم كافحة
يو بي
الج ذ
ان تقال
ابط ال
ز ميل
89 4
21 1
مت أكد
مه نة
النظر ية
لل مقارنة
أع وام
الث وم
الب قع
مر غ
الت صفح
عند ك
الاس واق
إث بات
مص نف
شر ية
الع فو
الع طرية
ل بدء
الم لي
الل جان
بري ف
اد ا
الأ حدث
والع راق
مان جو
تابع نا
للد فاع
الك اظ
لم باراة
ك وي
الج س
شر وبات
الش يوخ
معر وفة
العص بي
حضر موت
المؤ س
التر فيه
الاحت رازية
أول ئك
الإنتاج ية
ؤ من
تست ضيف
بب جي
يد وية
ل بحث
حات م
لل فصل
جون سون
الص فر
أر مينيا
رأ يت
ر فح
الع ظ
وس عر
الهاش مية
34567 89
مك ملات
سي ء
إسرائيل ية
الم سابقة
مرك بة
سيم ات
عج لات
الش ف
اب هة
أخ ضر
ند ى
الف لاح
منتج ع
فيض ات
رأ يك
الأز مات
ود ين
إ طلالات
مك انيات
فإن نا
بغ ض
الي ها
المط بوعة
في لي
يق رب
ائ هم
سع ى
اس ر
مخل فات
إ حالة
الج دران
تأ شيرة
٩ ٩
برا طورية
يت شر
دل ال
إ رس
و الاقتصادية
س جون
تغيير ات
أي من
عاد ات
غ نى
أ لي
يت ن
إخ لاء
الر با
غ اثة
الر في
و ذات
تت ناك
بي تزا
الم بر
وح سب
وام ر
الش را
التن قيب
ضر ورية
الجي دة
الد واجن
100 00
ل قي
ق تي
ب الذكر
حر ام
ت وصيات
ال افضل
ري فات
21 9
ب وم
الح ديقة
الأ ندية
مد ه
م بد
للأ عمال
ل وقف
الوا جهة
تق ف
تست قبل
خ زين
الأ طباق
38 0
ام يدز
والم ل
الق اسم
هن الك
خرج ت
از يا
ان در
سا و
الع ظمى
ع يا
فايز ر
المن طق
والت عدين
الآ منة
الت مارين
اله د
الصح يفة
تن س
غ الي
الف علي
في ش
دخول ك
ق يادات
والم ش
بالم ورد
التمو ين
بح رينية
م امة
ع انة
الس مو
جر ت
تف وق
عل يا
الأ فريقي
كن ز
ال وح
كون غ
الت ليف
ب موقع
ان هم
الف ارس
المس ا
الش قق
مود رن
نا جح
موا جهات
ح كة
ي صف
لاخ تيار
ط واحين
الق ذف
د يرة
ر امي
مس اهم
لأ جل
أب راج
بي ج
الاكت ئاب
الجما عات
ين في
مسؤول ين
اك شن
زجاج ة
م وري
حين ما
مج دي
ال ون
اول اد
فل وري
يوف نتوس
الج مر
البي ئي
يت قدم
نا ث
جر ان
طل ال
است كشاف
و شروط
18 9
رك وب
ح ادي
ا يم
شه يد
4 000
اللا ئ
لل ذهب
ان تي
المتك املة
البطاط س
الم وعد
ر ص
ان ش
ذ رة
الخاص ه
ان ين
وا فر
يس هل
الب وليس
جزء ا
تست حق
المرج عية
الأ ذن
لم ت
س بر
لل كشف
أو ري
والب ناء
لوري ال
المن هاج
مر تضى
سما عات
رات ب
والج ودة
ومن ع
المغ اربة
يون يف
اسب انيا
و الصين
مح لي
من ير
مص ورة
در است
ج ماع
الدع وى
ضح ك
ك بر
وص لة
بشر ية
اص ط
لم سة
لت لك
الط ول
جن دي
المح بة
الأ ض
ؤ دي
أق نعة
بود رة
قر ى
ولن دي
اد عية
الخ اط
لد ولة
ر ود
ص الة
الف وري
بال است
تشين اي
ل صحيفة
12 7
س نس
و العروض
حاز م
للط يران
ل وت
كش ميري
جر حى
التوا زن
ذ كي
إ باحية
غرب لة
199 3
ات فق
تلا وة
الك ورية
ار عة
مبر وك
ل وضع
الاست شارة
لق احات
فنز ويلا
م لاحظات
ع جز
الص ي
أ شار
الس حق
وس ترات
رج اء
انج ليزية
ح اض
فلا شات
واح ترام
كون ه
شع بي
سات ين
الرج الية
خ سر
شه رة
الم فاتيح
الم كي
مؤ س
الجما عية
ن يم
طبق ا
تف كيك
الم فاوضات
التد وير
ب وط
اح سن
كث افة
وأضاف ت
تمر ين
لل اج
التش خيص
بك امل
لا حقا
الأ جنبي
أس نان
بلا زما
يق لل
الج ائحة
حيات هم
الر ك
رفع ت
را زات
عم الة
الصح را
المح ذ
قط اعات
است خدمت
المساب قات
و الثقافية
اق ين
مسئ ول
الني كل
قر ن
ب الخارج
المن وفية
الأ ند
تكر ار
باد رة
اور وبا
12 9
والأ د
نيوزيل ندا
مك المة
تح سن
اس مك
ت كنولوج
بط رق
ي ملك
الا يفون
ص ديقة
ت باع
الأ سبق
ع مادة
مس اهمة
مار ت
الم سب
وووو وووو
الس خ
ن ود
ل زيارة
الت لام
ن وك
المس اء
دي مه
زي ارته
المنا جم
كاردي غان
التف صيل
مري حة
ب وع
وإ زالة
الاستر داد
مس جلة
لا غ
كري مات
فود افون
حيات ها
و كتب
كبس ولات
الم ند
مصطل ح
ذه اب
40 4
والح ياة
بالم ئة
وت ستخدم
الحر وب
مص نوع
وي ين
يك ات
جن وبي
حق قت
ان تش
مح ادثات
بإمكان ك
يق ف
ن علم
المخ تل
ج بال
باب ل
مر كب
مق هى
قرار ا
فتح ة
خ يرا
أق يم
أ ود
كرا فت
اول ى
27 0
ست ريت
الش ورى
جن سي
الز هر
السع ال
الحج اب
الأ جزاء
وم لفات
الق لم
تد ري
ان ز
اب دا
ج نا
ع تبر
الأس فلت
يم يز
وخ ارج
مر تبطة
توس يع
أرد ت
بط ي
4 20
تف شي
اسم ها
م جر
88 88
ر ها
ح مص
النا شر
الم نيوم
وز يت
رد قة
الط رد
فإن ها
إ ب
ب أسماء
وس ام
س واتر
16 00
شا كل
تمث يل
مناف سة
14 9
أو يل
يش به
ر دا
ت غل
أن شئ
أك ادير
ز يني
الن خ
أر كان
ن واب
خ خ
وتش مل
ذ اء
الل وز
التغيير ات
ن وبل
جل وس
حا كم
أع ض
م فع
الحق ائق
والم ط
ذ ك
سل بية
ج أ
ه جمات
بعد ه
وا قي
تد هور
الهض مي
وأ جهزة
فا خر
يست عد
لل رئيس
ز لة
الاتحاد ية
و الطلاب
لتح صل
لاع بين
ز كريا
وح لول
وتش غيل
بريط اني
ن رجو
الس نين
وط ل
و الأم
الشها دات
الشر وحات
مي تها
اللات كس
نا عمة
خ وف
يد ية
الث روة
19 89
ح ولي
نع مة
ور وسيا
ذه بي
خب ز
ب العديد
ملح وظ
تهم ك
يع زز
وال بيئة
كت ل
وتع الى
ب انت
والت عاون
نفس ية
الضر ر
الود اد
الف ضل
الك از
شع ور
اش ية
ش باشب
انست قرام
وب حسب
س ئل
فا عي
المها جرين
13 7
الط احونة
الش غل
و 1
ا يس
ر خيص
ب جر
الم هرجان
ك عب
تعلي قا
بإ عادة
الص ب
ك مل
عد سة
كون ها
الصنا ديق
أث ار
ل تصميم
تاريخ ي
كت ف
سين اريو
بان ور
المح ام
نت منى
الب قرة
تلقائ يا
المشاه دة
الف لل
ن زل
الحوث يون
خ رائط
هي ري
واق ف
الأ شهر
و الذ
الاست متاع
لان ه
مر وان
الب شير
والس نة
نقد ية
مز يل
زل زال
الإ طارات
الإبتد ائية
ل آخر
مكاف أة
حي وان
احترا فية
الشر كاء
مسرح ية
الأن ابيب
بإ جراء
اب يات
لإ طلاق
بالتق سيط
هلا كية
تح م
ها دة
أ ولي
وس حق
اجتما عي
البي انية
الل وج
الخلا فات
كيل ومتر
ش اك
المس افرين
موث وق
هي ان
مد يرة
تن شيط
القد مين
الصيف ية
مرك زي
المعر كة
الت ين
حس ني
ل تجنب
وغير ه
وت عمل
هد وء
الع رق
المط ابخ
3 40
تر تبط
إس تر
مرا عاة
غ وج
الم فاج
أم ثلة
وثائ قي
2 24
وا حي
ب وند
ش وة
زي ارتك
ر وج
ال ظل
كار ثة
ور م
أرض ية
المزر عة
تأ خر
زيد ون
آ كل
وج اكيتات
الف اض
نس ى
ق بيل
حاج ز
بالج بيل
والمت وسطة
ب أول
الس يف
تم كنت
زرا عية
ب الشارقة
17 48
شه ريا
لل نظام
إ يم
ب تحميل
مر و
الأ و
م علومة
الته ديد
الآ تي
صح تك
الخص وص
قات ي
اخ ذ
ت ضي
أ طباق
وم صنع
الضر ورية
شه را
نس عى
الط بق
ج زي
فضي حة
المعاد ى
الفع الة
ن حت
فت اح
بك ين
مد ادات
25 00
هر ج
ح نا
فتح ي
ط يم
بدء ا
القر وض
يج يب
در ويش
ال واتس
ت اح
ح وث
الع بادي
اج تمع
د وما
15 5
مست وط
أ ير
لت غيير
ام ب
ملخص ات
ري ان
لت علم
حقوق ية
بس عة
ام يع
الن مط
تج ز
16 9
عم ير
الإ فتاء
رغ بت
الم وريت
التح اق
ط ابعة
ف قر
بالع اصمة
ذ كور
هو دي
ماكن ات
تس اهم
ص ام
الأ ضحى
الأ بواب
ط في
أ مني
ي وب
غو غل
برا ديش
وه ما
مه نية
سن وي
ب العين
البر وت
يا دية
بر ك
الم زايا
خ ابات
17 28
الع صور
ابي ث
الب وم
ون ق
٣ ٠
نائ س
ب تقنية
التف جير
وصنا عة
ن ضع
ك ليات
إع فاء
الاتجاه ات
مص ممة
أ علام
إح ياء
وي تر
الم تجددة
أ جن
مق اوم
تد ابير
الحص ار
المتح ف
الز اوية
أ طف
لل شؤون
بالت الي
تد شين
فرش اة
الإ يجار
الم ادية
ني وك
مو ش
الت ضخم
بول ندا
قند هار
ل شؤون
تس ريع
ان حاء
ع وم
عا يز
الصح ون
الحل و
والتص ميم
راه ية
وح اول
رومان سي
اللبناني ين
بش ير
التن وع
يت ابع
يقوم ون
وغير هم
سي ور
بار ز
غر ار
الاسرائيل ي
العالم ين
الإبداع ي
يت صل
إ قتصاد
بال ليزر
الك اري
الف اكهة
عمر ها
در ات
أم را
م مثلة
الفرد ية
12 6
سلسل ات
وت هم
وإ يران
ش احنات
الد قهلية
تش به
الس حب
كر ت
اس ه
و الشعر
المع تقل
ضر وري
ق ري
المنظ ومة
سجل ت
الحس اسية
مان ع
مقد ار
صوت ية
سي ئة
تر تفع
مر فأ
يريد ون
بالر باط
مساعد ات
جيج ابايت
ه رة
الص يفي
ضع اف
لي الي
ب تنفيذ
ج ذب
ال ياء
ت وحيد
المر سل
ف هناك
لأ سباب
فيروس ات
الإ تصال
الاق سام
مل امح
الر وبوت
طن طا
لأ جهزة
نشاط ات
لاع بي
جيت ال
مع امل
وتن فيذ
الفوت وشوب
الإقتصاد ية
ار ق
لل جيش
جد ار
نج لاء
الج مل
15 75
و شركات
المرش حين
مطر وح
مؤ من
الاف تتاح
سب اك
عد وى
الز ن
لي ها
لح ملة
عم دة
ت فيد
الك ف
فا ية
وال اتصالات
ين ته
الس مع
اهد ين
الأ فريقية
م وق
در اسية
الأ نت
مي ون
الاستر اتيجي
الن جمة
والت اريخ
س ماع
الحجر ية
ج وانب
ع صابة
قير اط
الح افظ
بي ح
ص ين
ائ ز
بط ريق
الز نج
وإ سرائيل
إحص ائيات
ب عل
الن جار
اط ي
الح ادث
لتح ويل
ز ابيث
بل ات
تلقي ح
ك ده
ال واتساب
الب عوض
و خي
والح ماية
رر رر
ناب لس
للم شروع
اش ي
خ ريف
بان يت
البط الة
مرت بط
فر غ
فرا غ
الج وف
جه ز
الإ عدادي
ب خطوة
تر ان
ن م
است اذ
لل سياحة
المح اس
ل تسجيل
الس با
أح جام
د راجة
الاق تراع
استخدام ات
غ فر
ال آلة
المج الس
للح ياة
المر ز
مؤ ثر
كت به
وتأ ثير
الح جة
الب اس
ن قي
أي ق
وات فورد
و خلال
نت ج
ى ء
الرئ اسي
مض ي
بت كر
012 3456789
د ورية
روي ال
الم اث
وف اته
كم ين
فل تر
سفي ان
الز عيم
وم ص
الزب ائن
يل يا
دليل ك
والم نظ
المحف وظة
الربيع ي
والأ عمال
للمستخدم ين
ضع يف
ت في
غذ اء
عم وما
بخ اخ
الر كن
ائ يه
حس اسية
ول اد
ص باغ
أح ياء
المست مرة
والن ق
الاس هم
كا ظم
الق طار
ت ذاكر
و اري
جديد ه
تح ل
لل نقل
الأس تر
إ عجاب
صدر ت
شعر ك
أع تقد
ل صيانة
مج زرة
مش كل
المط هر
ت طل
الطي بة
في نا
يتشر ز
إح باط
الحلق ات
الاحت فاظ
الج سد
الص دم
تش طيب
عار ضة
الك لب
بور غ
المست جدات
المت وقعة
ال وظيفي
اض طراب
است خلاص
است خد
ص عود
تط اف
شر ع
لل دراسة
كث رة
الص غار
ب أكمل
مط هر
ور غم
ك ليزية
لل شعب
ي علق
ودي وم
إ سم
ف كل
خ لل
المجتمع ية
ط اقات
وي تش
يست هدف
أع ياد
اعتبار ا
ر غب
فت ين
ك وس
الب صل
ا على
تت وقع
الم فاهيم
احتجاج ات
سك يتشرز
مه ندسين
الح اضر
التل وث
الض و
تجرب تك
بق راءة
يت ناول
روب وت
وفا ق
وس يع
النات جة
بشر ى
والاست شارات
13 1
الض ريبة
ند قية
ول يت
تد ريبات
يب اد
الخ بير
لتس هيل
20 23
س اني
تس وية
آ له
ز كي
يمكن ها
حكا يات
أد لة
16 6
في دين
ذ وق
المذ كور
الطب عة
ق وائم
1728 17
المعار ف
الانتق الية
إخ فاء
فا دي
لت تمكن
198 36
و ترك
ج نية
بي انا
وظ فين
وأ دوات
تي ريا
يخ تار
أ وائل
الرس ومات
أك ون
شخص ين
21 6
429 85
فس وف
ج ولد
ج بق
ه اري
39 894
1748 02
يت صدر
يم تر
ل جامعة
وت شي
بير اميدز
ار هاب
الت بليغ
اج راء
جر اند
لمن يوم
أ خطر
وث لاث
ه وب
مت لازمة
ع راقية
الفي وم
جما عي
لل وقاية
بو دي
اح ل
با شا
ت فرض
الآ باء
تص الات
الغ ز
مف وضية
التر حيب
التر جي
الت الى
ائ بة
ح افلة
الإ تحاد
فر انس
سف ارة
الصاد رات
الإمارات ية
لتص لك
أش د
القص ير
تج دد
ل ور
الم ين
ي قدر
الق راءات
14 3
الج ليد
ت غطي
الس وشي
الكاظ مي
اع ه
لس ان
الع شر
قط ات
جون ز
تن فذ
المكاف آت
موز ع
لا ش
و الكر
ح اف
تعرض ت
مصري ين
الت خرج
ح اسبة
كي ز
كي ان
وفي ما
تع ديلات
الغ ني
ذ ان
بي ون
ط الما
وب ان
المر فأ
الع شاء
يح كم
تعرض ه
عا طف
مق عد
طل عت
والإ سلام
القض يب
وم راكز
الج مارك
تصاد م
المس افة
الاق تباس
ع شرين
ان صار
ش ابة
الشاط ئ
در عا
ي ذهب
والع مرة
م ظاهرات
وم دير
الإس اءة
هون غ
مي ان
ف كيف
الم ائدة
ت تعامل
اح دى
لبن انية
اع تمد
ط ويلا
جمع ه
مس اك
وع ربية
بح ري
إ حت
الم بكرة
التكنولوج ية
تس ريب
ود ور
ب مجلس
المت داولة
ف ها
الت وصل
إن ذار
يم اني
لل مجلس
شك ال
مراج ع
وب ما
يت و
ب الانجليزي
ل ود
من بر
وم ز
و الطاقة
قب لي
صاد رات
وب شكل
اند لاع
الإس تر
الح ادية
13 8
الشري ط
لف تح
ل مرضى
بن ما
الج هوية
احتم ال
دي ون
الس كك
الأح اديث
شف ط
ال ويندوز
سير فر
لع دة
9 78
ث مان
وأ حمد
النا حية
ام كو
ج بس
نس مة
ل عل
المح ور
يت لقى
عف وا
تق اطع
ال وليد
الوق وف
و الفن
إش ترك
الا منية
ش اد
جن ون
الصح فية
الدل الية
بي وم
الت بريد
و الكثير
وع ود
يست غرق
هر مون
حص ى
ان تصار
من اق
مض مون
الغ نية
اخ تت
الفوت وغ
ثلا جة
الج بيل
فات ح
خ اد
وز ر
يها جم
القط عة
والت غيير
مسر وقة
المق صود
اخ ستان
المرك بة
يا ع
ق يت
الام راض
نيوك اسل
متح رك
د وار
عمل ات
وب ذلك
ض ربات
20 2
نز ول
ور ونا
ا علام
وار ض
ك وري
أرسل ت
المخ زون
مض ى
والأ طفال
جي ه
جميع ها
وم ض
هي ئات
عم ري
الش يف
غ وا
تعليم ي
تسم ية
الس يادة
العل ا
لل ثقافة
طف اء
الم ائي
نبات ات
شري حة
عقد ه
زيت ون
هير ب
بر أس
الخش بية
الم قدم
مش د
وان ئ
٢٠ ٢٠
نش طة
ذ كاء
الأنظ ار
الخي ال
اه لا
بل و
ي ثبت
يقدم ها
موث وقة
بر فع
المت علق
بد وره
است ثنائية
شير ت
الت حدث
ب راءة
بر كة
بن وك
بر كان
الم تس
القي ود
الب نفس
نقل ه
المك ملات
مي قاتي
15 6
المص ارف
الص بر
الترويج ية
مس ند
الاست ماع
غ ادر
بوك يت
23 8
الالم انية
الإ ضافية
فقد ت
كريست يان
تتم ثل
وج مع
قام وس
ش برا
ي قرر
الط لاء
ب القطيف
بكال وريوس
فيتام ينات
الض ارة
99 99
مخ تصر
سل ع
ست يل
د فاع
ول قد
أ صدقاء
لل تحقيق
أ فر
الم خصص
وق تل
الل ام
الع اص
ست ا
بي زو
طل بت
ح يم
و الثاني
اق ه
ات ة
ط وار
وف سكي
كر ام
لي ج
ست ه
المه بل
يعمل ون
الم قط
الع بور
يع اب
الس منة
قام وا
ود ون
وت نظيم
انتها ك
نن صح
لل تأجير
بنها ية
كور سات
وصل ات
رق مي
دا عي
ب مرض
طم ئن
الس عد
لل تج
زيني ث
زل ج
الك يني
أ ظهر
مر ف
ست ية
مر ج
يق ضي
أت ى
14 39
المري خ
ق اض
نا وي
رؤ وس
إ غ
وب لا
ور ؤ
والص يانة
المر اس
المط عم
كار ل
هر وب
الحكوم ات
الثلاث ي
الأ وت
سيم ونز
ويج وز
مر ين
المنش أة
فل ما
الغ ردقة
نا ها
كت ات
سان د
تت خذ
مه ارة
ش يا
هر ت
إ رشادات
والع ديد
و أنواع
بن ود
ومست لزمات
الليل ية
تص اعد
بط ول
ص ى
الص راصير
سي ست
مز ارع
الم بد
21 5
و الصناعة
قار ن
المت عة
إ يف
الط ا
منزل ه
33 1
ام هات
و أسرار
الب احة
الطر فين
الخري طة
الج رافي
نس وان
ومل حق
منش ور
للم ياه
التأ هيل
الخص ومات
يحت فل
ائ فة
رفي ق
مكان ة
الح جري
تع ادل
انج ليزي
الأص فر
الموظ ف
في جب
الر بط
س راح
هي بة
مح تر
م مت
س نا
حت نا
وم قتل
تعر في
الح ين
يف هم
جين جر
ه واء
ي ما
وبعد ها
تج از
وم عرفة
الانت ظار
وع ب
لل غة
الإخ باري
الأ همية
ول ما
غدا دي
هيون داي
كر دستان
عل انية
تيم ية
ج وية
من اص
حمد ان
الس جل
21 2
القص وى
مس كن
وط ي
لل عالم
رس ومات
أمير كي
حل ق
14 8
يدي ك
و السلامة
الص ع
عل شان
والإ ست
بم بلغ
الهول ندية
الإنج از
سعي دة
س اط
مع قولة
دو امة
ثق يله
تر بين
للط فل
المص حف
اس رع
نا ق
المر ئية
ل معدات
بت طبيق
الع صرية
الش موخ
م أس
ج رير
البلا ط
مد اد
يج اد
الجام ع
ن هج
الغ اء
الل ياقة
الف رج
ا ؤ
12 2
اص يل
أ قر
لل صحافة
ص وم
مؤك دة
الحر ف
ال يت
البر هان
موم باي
واس عار
شا ومي
أ ظهرت
واط ئ
تف تيش
الض ح
أم ينات
بد ولة
صي حات
199 1
فه مي
05 6
وي وجد
بل وك
لح ضور
قص ارى
السي و
احترا في
و الحجر
يساعد ك
لح ظات
نقل ها
الآ جلة
الز منية
زوج ي
الف ئران
وجه ه
ل تشكيل
تل امي
13 2
المح ادثات
و الفنون
ف هذه
البص ري
بانور اما
سي خ
الموا زنة
وإ لا
ف لس
بر ت
29 9
زيا ئية
الم واليد
٢ ٥
لل شراء
بر ق
مع ارك
ت أخير
الس ادات
الك وري
خ وان
الب عد
أد بية
وج و
خ اض
ات نا
الص مت
مي تس
كاج وال
ريق ية
بط ن
قبر ص
شر كاء
ل ويس
المحي طة
المث يرة
ا زي
س ترة
التع ويض
الاح جار
أس اور
زي ارات
48 0
ل انية
الم وض
بل ون
التق ى
مر تفعة
المس ائل
مر سي
شر عية
ش أنها
ت ترك
أوب اما
الف وضى
و عليه
غ ش
تف هم
ب ائع
المغ ل
يؤ من
ت زيين
وج رحى
التحديث ات
الجه وي
الك هر
زيغ ية
راث يم
عز ز
حبي بي
الق رض
الت وجه
إ ضراب
ص وتي
الر ذاذ
العراقي ين
ب افضل
من ظم
وع ين
قي امة
ز ى
ب الز
و الأولاد
لل فوز
ظ ور
سب ور
اع تراض
الف رح
شك وى
الك نب
أح وال
بنفس ه
الق ديس
الإ جمالية
ب صف
وفي ه
الت ثبيت
وأج وبة
قل بك
جعل ت
ت خل
الأ كل
تن قية
المدف وعة
يت وقف
ات بع
متر و
التلام يذ
دي دي
صد ام
حل وان
بط اريات
والإ مارات
لت نا
ك وبا
عار ية
بريد ه
محف ظة
عند نا
ل فيروس
بروت وكول
ف صول
ارت فا
اكن ة
إن ترنت
ال وص
ب الاس
ع صرية
دا ون
ش وك
وش ك
حي ال
والأ ربع
مع املة
الح وادث
الع كس
الد وام
الا صدار
ما ين
الس هم
وأ خرى
المن صور
الغ ضب
الان سحاب
تع اش
الر مادي
مسب قا
التع ذيب
في لد
14 38
جري ت
تع املات
الر وس
ز ول
اااااااا اااااااا
الج وانب
الي هات
والت طبيق
فلوري دا
اخ تراع
الح ريق
ب كات
ق اضي
الص وتي
ام ارات
المر ء
الن ماذج
عر وف
الب ع
لل تسويق
اع دي
ا طلب
ب حقوق
عاص م
ان عقاد
الوا ضح
الق ارة
والموا ضيع
ب حي
44 6
ط وب
الص وفية
بوت س
الن سب
التر شيح
ت ارة
منش أة
الدور ان
ه يت
ع فر
والت لف
ي ديا
ل بس
زيد ان
بح ادث
جر س
است هدف
ن فق
الل وحة
فار ق
الم ير
بل وغ
يع يد
المز عجة
الم حدث
والم الية
الس وائل
ابن ه
الج ريدة
الي كم
تر فيهية
ها ئلة
بع ون
مس ة
وج واب
الب غدادي
و شركة
عل اف
ش احن
الان تباه
ف ست
العلاج ية
خ ضر
ف على
18 7
و الذين
المحت ملة
تق ضي
مح ول
الم بنى
نز ار
مر طب
خ اش
اله جمات
منا ديل
ويق وم
ق نات
النز اع
3 10
الخلي ط
ق اله
الفن ى
ب أحدث
ي تحول
هند سية
21 8
22 2
أبرز ها
صب غة
آ رائ
المتخصص ين
است راحة
ط اب
ل تنمية
وتل ميع
النق ابة
مل وك
الح راك
الف قرة
ال واسعة
الب خار
المتح رك
هد فين
الق ليلة
البحر يني
المن س
اك د
الاشترا كي
الوس م
لمؤ سسة
ط لاقة
للاست فادة
وي عد
مؤ ر
وق ام
وف ع
لل سيدات
د وام
الخ لاف
مب تكرة
ض ن
تط هير
والق انون
وم طحنة
يع جبك
الموا هب
ص واريخ
ر وبي
العل وية
لاست خراج
الر عب
وط لب
ب زيادة
و ينة
خلي ط
ب فعل
ين قل
ع يادات
س كا
مخ الفات
ل صديق
الاك ثر
مت قدمة
ت خطط
الن عيم
4 40
البي ولوجي
ور ود
الجوال ات
الأم امية
الف لك
التم ريض
ث ني
ب المنزل
37 0
لا ديش
19 86
لل تح
وح ديث
الك ندي
در الي
يع ادل
الترد د
تست عرض
19 84
فات نة
ب تنزيل
م خد
الثلاث ين
استئ جار
وا ذا
ن ير
وك شف
والش باب
الك بريت
دي جيتال
غ زل
وب را
زع اج
جمع يات
البح ار
الق ادة
يس اهم
المح سن
الفك ري
وت عد
بق تل
الدكتور اه
والف عاليات
عض لات
اث ية
وج وب
روبر ت
اق بة
ج واد
باد ئ
مفاج ئ
المت ظاهرين
و اليوم
تزا يد
00 1
لح زب
يف ية
المصر في
الأند لس
الأغ اني
19 6
الت فاوض
نج ار
بز از
الك رات
المعروض ة
الج يز
كو اليس
تر حي
الس مسم
الياب اني
سع را
جان به
آ آ
أق وال
الرائ د
الم وجة
قل عة
الموا جهة
كلاس يك
العم ارة
المر سوم
اتفا قيات
الرضا عة
الاست ثنائية
ومن ا
لل ناس
بن حو
ر صاص
30 9
المح قق
للم علومات
الظ اهرة
الق صدير
خ واتم
عند ها
النشاط ات
ف وم
بع مر
منش ورات
وال دة
مع اه
مغ امرات
ل طلب
لغ ز
ر واتب
ط ابع
المن عم
ز مني
المر صد
14 7
المست وط
الجه راء
وت ف
199 2
واس تر
المؤ سس
وي حت
وال شرق
النا درة
تس ير
مح دث
ص بغ
تع ال
تت هم
الاير انية
لائ ل
عرض ه
ج هاد
رز ق
الت قط
لإ رسال
الط ماطم
سيد تي
الخط ط
التن بيهات
موضوع ات
حاول ت
15 9
تن ان
خي ال
حر كات
ش أنه
يقول ون
ب أمان
كل نا
عائل ته
خز انة
بر وتين
الف شل
مي ته
رق ائق
في دي
وك ا
الش ك
سن ال
لت فعيل
ري و
18 5
إ بحث
است ثمارات
لف ريق
مض حكة
الخط ورة
تتح ول
ب العالم
قر أت
مت ك
و خام
اللائ حة
اليون انية
وتق نية
سي ارتك
الر وضة
ري اح
زين ث
با ص
الوا حة
فوز ه
الب نا
م بابي
أح زاب
ري خ
أن قرة
مح اربة
عن ب
تف كر
الاست جابة
ول ماذا
تع كس
النظ رة
الإن شاء
اسي ما
أح جار
مدف وعات
و وسائل
وإ صلاح
مل يشيا
اع تق
13 9
بط رس
13 3
خاط ئة
ن جل
الع شرات
اب ز
19 61
المس يرة
تق ني
اته ام
جما عية
وع الم
الق ريب
ب قرار
الت وقيع
إلي هم
أد ت
15 1
إس حاق
المع الم
يد ور
بات و
الب ود
سل يمة
مت فرقة
لي ق
المج اميع
لا قي
الامري كي
الشه ية
الم مارسات
نموذج ا
وس ر
وال علم
الع باس
العص بية
نع يش
التر فيهية
م تحدث
جان بية
المه نة
نص ب
مار يا
خار طة
هرج انات
بع اث
تع تقل
بح ل
19 85
النج ف
تص ور
مام ا
وال لا
و الاقتصاد
لل اس
الك لد
فات ورة
21 3
ومات يكية
إسلام ي
وط ين
عن يف
الخضر وات
الأد لة
عبد اللطيف
مس ائل
ل درجة
ف ترات
الا جانب
14 1
أ كتب
است ان
جر وب
فر نك
وج ز
نست طيع
تع زز
أ ضيف
تص ريف
قا عد
الت وفيق
ال ريح
نق ش
ب تحويل
ف ورية
اق تحام
عمي ق
ته ى
الج راحة
والسيا حة
تغ لق
وأ بو
كاز اخستان
ا قليم
يق ظ
الاخ ضر
المت غيرات
أ بلغ
22 7
الم خطط
58 386
حا طة
وال اتحاد
نع يم
إش راف
الغ ش
محر ر
تك ليف
بيع ها
بالن قر
بالم ائة
إن هم
ل تلبية
الاصطنا عية
فا خ
ب الطريقة
حن ان
وت فاصيل
كب وت
أ جد
أول مبي
خ لة
اح مر
الح زن
صيد ليات
الجم هوري
الب صرية
لل تسوق
ميل ة
ل طب
الم راجعات
وأو ضحت
حي ط
مع اناة
عل مت
ه ت
ال ظاهر
يكون وا
ل وزير
عض وي
المج لات
14 6
العق بة
بخ لاف
في مكنك
أح اديث
وأ د
در ع
حين ها
را حل
البحث ية
٢ ٢
ت ذهب
المودي لات
السل ط
وش مال
الاست خبارات
أول ية
المح ل
إ قرار
وي أتي
ود ول
الص ار
تح افظ
الت لك
لل دول
الأنص اري
بار كر
ل مدينة
تع تقد
ين اسب
المسم ار
محل ول
المق ابلة
و الرمل
ي كان
جو هر
الد اف
تر بة
الم راجع
مون ديال
المسا واة
الكتر ونيات
الب ولي
ال ير
هر م
مرت بة
ام ى
د اني
أغ نى
ويل ز
مل كي
وا حل
تنا فسية
استعداد ا
أوغ ندا
الم راجعة
المس ارات
كا ث
الك ومي
لقاء ات
المعلومات ية
ج وان
وا فضل
ر مادي
احتف الية
22 6
لل شاعر
ان دة
ام تداد
يجعل ها
لف ائدة
خلا صة
مش غ
الحمل ات
تن طلق
المه ن
التح دي
البي طار
للأ من
ش وقي
الص فقات
الم ذه
تل وث
الج ليل
اللات ينية
ك وز
سكري بت
ائل ية
مس احات
والح وارات
ث مة
أح لى
ب مساعدة
ذ ى
د س
الرمض انية
إ يل
الك تل
باخ تيار
جتما عية
ارتفع ت
أمير كية
16 04
كار ا
م لل
شم وع
حر ارية
ت مة
ب ئر
است جابة
الموس يقية
صح ى
الانتها كات
الع ناوين
لل أندرويد
ث ين
البري دي
البط اقات
الأرثوذ كسية
أ ضاف
دل هي
و خصوصا
حر م
الم بعوث
في هي
ل طلبة
فر وة
ط ير
8 50
را عات
الخمس ة
الا صلية
ول عل
المح لة
رد ن
الم شرق
لتح رير
الس را
تقييم ات
يص عب
الس عة
واس ير
بالش راء
لين ك
تج فيف
للأس ف
يع ية
ق ارب
الصاب ورة
الس يسى
عط ال
المن قولة
وما كس
هز يمة
ني طرة
عملائ ها
المؤ هلة
وال اد
الإ رشاد
ي وقف
ي مل
ال وث
19 79
لل تعاون
الارد نية
آ سي
بإ طلاق
9 25
حا صل
صيا غة
أ جمع
كي و
مي دي
از ى
ابع اد
ت سيطر
تس عة
عل مه
ال ظهور
نا قة
الح ضر
السي ئة
الر طوبة
عب وات
ا علن
ام كانية
وج دة
سما ح
ب اج
الإ حت
اللغ وية
ك بري
الشيخ وخة
ل وكالة
الج سيمات
20 5
بر ه
تر حة
الإنت قال
ك التالي
الص ليب
وال ار
ي لاء
التح ريض
اصد ارات
كلين يك
أي وب
الور ود
المنش ور
ش هير
19 80
وت قول
ر ذاذ
لمن ظمة
س كين
نخ بة
وال بي
ها ض
ب عرض
إرهاب ي
الشري ك
وي ز
خ الي
تري ليون
مسل ح
أب وات
الإس تراتيجية
ت ضا
٢ ٤
انتق ام
الأ لمنيوم
الصوم ال
مع اء
لل دكتور
كن ي
ح قيق
ت غي
يت واجد
للف حم
ناس ا
سيق وم
الق مامة
معر وض
إح داث
و الرسوم
ج ودي
بار يات
الفي فا
عر اب
لغ از
الصد ارة
إكس سوارات
اري ه
الهاش مي
مغ ذي
ست ين
ق ومي
اللاس لكية
بد رجة
للم وسم
يع ابية
لان جري
المتط اير
الف تنة
26 5
اج ين
تق سيط
تث بت
هدف نا
لي تم
م ضادة
بدي لة
التأ ليف
23 5
الطائ في
حف ص
18 8
ح زين
باعتبار ها
بم قدار
المك المات
ه دا
ص نف
وق يل
الحل يم
ش مالي
الض خمة
المق اولات
من تخ
القت لى
الب رج
19 70
وف ت
المن امة
ور وبا
أ واخر
ط وني
الام اكن
إن تر
وك يت
ن هار
أصدر ت
المسل مة
13 4
و اسم
الباحث ون
ان تح
والس فر
الهي ئات
الب كتيريا
لح كومة
الملا يين
كوك يز
الج الية
ال وصفة
الم عاملة
لط يفة
ب متابعة
بود كاست
تخصص ات
ر وان
الوا ف
الخ ياطة
ص ان
الح فل
ما ح
رض ى
الز احف
ع يني
تم وين
الإ جراء
الات حادي
الا قليم
القط ط
فر تر
شت اء
ت وصل
المست ندات
اح تلال
التر خيص
ن حتاج
ث نا
أت منى
افترا ضية
ومع الجة
غ لا
وتح ويل
وس ائط
اا ا
مح ت
ض غوط
والز وار
اع ت
له ما
حي وية
ذه بت
ز ويد
وق ص
المي زة
آ خ
فور ت
الج اذبية
ار ن
ف وف
ائ عات
التص عيد
يف ه
أن ماط
أر امكو
وز ان
ش هاب
لد ول
قب ض
الكل ور
الز مني
معطر ات
العثم انية
الت أش
كت شف
مح ب
فات ك
ال ينا
الاح لام
ب تح
المض اد
الإ صدارات
ساع ه
را عة
مست وي
29 0
18 3
د وائر
وا ك
بع يدة
أن يق
وا حت
ول ون
نا فع
الا يام
ساح ل
ح دا
بت ة
ص مام
تر وني
تما ء
تر كز
الت عادل
حول ه
الجرا حية
اب تس
لل قرآن
ص في
الح كا
وا هر
ات ا
وأع ضاء
وت وزيع
نين وى
لل منتجات
ط ية
مست عد
التد ريبات
ي كر
والاست ثمار
بالس جن
عي ان
الند وة
المت طورة
الك راهية
المكت وبة
دف تر
الح اصل
اله دى
والح ديث
يست عرض
تركي بة
يات ي
للم وبايل
والق ضاء
فان ز
المتابع ين
69 3
أ شرطة
ج راح
تحقيق ات
انطلق ت
قط اب
الكر تون
لل شحن
لق ائمة
بد وري
مت قدم
ام تصاص
اللا زم
15 7
و ور
بر وكس
أسي وط
المد خل
الحر كات
الأه لى
أس طورة
فاء ات
إ ضاءة
موقع ها
طي ار
تن سى
تق تل
و آلة
أ ذن
استخدام ك
ص وفي
تز داد
التش ريع
ون ال
الإف طار
اخ تصار
دور ان
زي وني
الذ كور
مس ون
التق اعد
مل تز
بي تش
أ وقف
وال فيديو
الت غير
مع ن
عل ية
تص دق
الر قيقة
تخ ريج
مش ا
24 2
الح ذر
أن ثى
مر حب
الم ثق
14 37
الت باعد
مرا فق
لح فظ
الك اب
الصيد لانية
ع ذر
دي ما
الق يادي
تر و
ر عد
أست طيع
يف ت
الز يادة
19 5
الم فيدة
الح مض
مصطل حات
الوق ائية
الاست فسارات
برج اء
اي يس
الم از
الت غليف
الر أسم
بإ خ
أل واح
مج لد
سيس كو
را ة
ه جر
ص قر
٢ ٣
تم يم
المعد ل
برا ون
تجاه ل
مح مي
لل تعديل
الط عن
التف اسير
يا ك
بت لك
اف ت
تض بط
المس ؤ
الب ولية
شركت ك
م متعة
14 2
است طلاع
امت لاك
إش راق
صب حي
د ومين
المتهم ين
تناول ه
لت ست
التج ديد
مز رعة
ئ ى
عم لا
نا فس
مك ونة
ن فر
م طلق
برلم ان
صاد رة
الش ديدة
ور قم
ص قات
ان ضمام
ز هور
الكاز ينو
عد سات
تف ري
ول ف
الدين ار
ل حركة
قر وض
العط لة
وض مان
ميكر ون
ك شن
ل تلقي
البلا غ
ون دي
قط ب
النا جحة
ف جار
ساعد ك
المص نف
زي ارتها
ف ليب
ج ولي
الاخ ير
والط فل
إ قام
بشر ط
ح كام
جسم ك
ب ضرورة
الم جه
الا عدادي
مير كل
تح مي
وائ ب
التد ابير
لأن هم
بالش كل
ب وا
وب لغ
س أل
الاش خاص
مساح يق
ب صد
النا صرة
وضع ه
الرق بة
اض طر
الم ظهر
فوري و
اف تح
كر تا
ص ندل
الش وكولاتة
زي ونات
الر كبة
بل ح
16 1
الوز اري
السياسي ين
المح ادثة
خ راط
م خططات
وث ة
وال ات
ت بيع
العم ري
با يرن
أخ يرا
أ صلية
يطالب ون
التج اعيد
المؤ شر
الاير اني
ض عي
جين ال
الم عرف
الم ادي
تل بيس
قل به
جز ائري
رائ ح
ج يس
الد ورية
أك واد
نت عرف
سن قوم
يمكن هم
ل تقنية
الص فات
الآ خرة
حص اد
ب جمع
و البريد
ب الدخول
إ زاء
مح اكم
المنت جة
الت وعية
حديث ه
لإن قاذ
الس ام
تري ا
ب معدل
الع ارضة
ا وس
م خرج
لل قانون
كا في
الرح اب
للج نس
بح ساب
الإيج ابية
س رق
بذ ل
اتجاه ات
ط يلة
حل و
ب كة
الكيم يائي
الغ ناء
ر خص
تع دي
ف است
والد ها
الخز ان
المون ديال
الث م
داث ة
بر ات
أش غال
تابع ونا
الأ فق
إد اري
لل طلبة
تن جح
مؤر شف
سود اني
الب ير
الع تبة
أ يت
فات ر
المخ تار
عش يرة
15 8
أص ابع
الط هي
الان سانية
أير لندا
كوم ات
المطل قة
البر تقال
الصغر ى
السويد اء
الأ هم
فا ذ
كت ئاب
ز هير
با ين
المرح وم
للع ديد
ي ء
م فاهيم
ط اهر
إ مت
مشروع ك
م متع
تبي يض
بريط انية
ذب حة
الام ور
أ تل
ذ يات
تت ناول
الس تة
از ان
مس تر
س اق
الف اس
النق طة
من ق
البط رير
الحمام ات
مر مى
غ ون
الفر وع
الحار ث
تف كير
الع ال
ل أعضاء
المعد ن
و كنت
الرومان سية
تص يب
مق اسات
الت وفير
خ ا
اش كال
للم ملكة
المطالب ة
عليه ما
صي حة
أس اتذة
مر سى
ع مد
ي فيد
الهيدر وليكي
الفا صل
الغ ريب
الخل في
ق يادي
الع ود
السوشي ال
ط وري
مش وار
روم انيا
الاب داع
الل قب
تي بات
الداخ لة
ارج و
وا جز
متاب عات
موج ز
التص حيح
يد رس
كار د
ما زن
ول يك
وه بي
والأ ش
كوم يدي
ممل وكة
ونظ افة
الت وت
ح كيم
اي ش
جني ها
أر ى
قس يمة
حز ينة
وح نا
حن ي
ت بني
ميون خ
ده ار
الك اف
وين ي
المصطل حات
ابن ها
اختت ام
وع ادة
دي ري
ه ال
تلا فات
توفر ها
دولار ا
وأش ارت
أ رق
الج ارية
المغ ني
ش تن
الرغ بات
ال راف
المؤ خرة
إن ش
الفائ زين
مس اج
الح ريات
ا عمل
ل مة
س لي
فار قة
الضح ايا
الآ تية
المج اري
تح ذ
المل حق
الآ لية
از ل
د ماء
مغ لق
المنا ق
الدف عة
تلامي ذ
إ كمال
900 1
الع ائلية
بنغ لاديش
العين ين
الشر ف
ناط يسية
ممن وع
مختص رة
الم علن
15 3
اي دي
تم رير
بق ايا
جا كرتا
ب ضع
إش ارات
خ فا
ب العم
الت اج
والن قل
الع طاء
اس أل
ي جر
ت وج
ب الجيزة
ين ام
يق ترب
وتق وم
تجعل ك
الم لاحظات
عا يش
الت غطية
ت كل
و كن
الش وط
تت وقف
أول ويات
رج لا
100 مل
مر أة
الت وقعات
بين ك
منهج ية
ذر ز
ود ل
متابع ين
17 7
بالم ولد
لل خرسانة
في ري
وأ ماكن
مجه ود
بين ه
الاش ياء
ان ظمة
الط ابع
ائ تلاف
زم الك
وأخ بار
و ذكرت
أ يا
اض رار
بص مة
خش بية
ح زم
تف وز
وس جل
حساب ه
البوس نة
زر ار
ال وصفات
وال ولايات
بط ولات
وأ عمال
37 5
مق اولات
الفي نيل
و وتش
ج اري
الت غيرات
الج نا
ف اح
هم ال
ف انت
تمت د
جيم س
ب الصورة
ضا وي
نت ظر
المح ورية
السل مي
الصيد لة
دي زل
19 67
ير تبط
كل يا
جرا حية
26 7
و الكتابة
صي غ
لم ق
مز ار
ق افلة
تق ام
الف رس
عل ه
الفل وجة
جد ية
الأن مي
يس أل
غوج ارات
ن قيب
مباحث ات
ل ودر
أن د
4 30
11 00
تب اسات
الاعداد ى
آ ه
لد ور
شف اف
ح افة
الب ذور
ص مت
35 3
لك أس
قد ان
تد مر
لل اتصال
الق حط
ز د
ه نة
أ ديب
مر اسل
والأ بحاث
ده ون
الجزائري ين
منش آت
المختل طة
رأس ه
أخبر نا
ص ا
الع اد
حسب ما
الاس باني
متخصص ون
يح ضر
مج ارى
سام ح
وت ط
سم ات
تر أس
وق در
الن يك
إيج ابي
نسوان جي
ومر كز
أهم ها
لك ت
فا ين
الك ا
16 3
أص فر
وست نج
فا ضل
مع يار
الك ائنات
وع بر
لإ ح
إث ارة
الع شب
المظ لات
مص ور
أح صل
الي اس
البرازيل ي
مست ودع
ف أن
الدر اسى
فار غ
ما دية
الم طلق
يق ارب
ث يل
نق دي
بر اني
18 4
ت فاعلية
بح يرة
اف تتح
الأ ضرار
تنزيل ات
تل بي
الاب راج
الت وبة
لل فنان
الأس فل
وسي اسة
برا ز
أي يد
قب الة
وك مة
ما وية
سل بي
لان ها
الاخ تلاف
حدث ت
تض يف
اس نان
تي ان
الاح داث
قائ م
وق فت
ات منى
5 79
يت فق
لل تص
تن صيب
مر د
المصالح ة
غ انية
عند هم
اد قة
خ بث
اكت مال
بإ طلالة
المباد ئ
تتح رك
الن مر
مخت ارات
مك ث
عاص فة
موس يماني
وت عليم
غي ث
بل قب
الم خد
قا زيق
المجمع ة
أن ج
تنا قش
ول بنان
ث وم
معا وية
أحد هم
هد فا
الأ هرام
الج ماع
20 7
ان فرتر
به ما
ثم اني
الخ الق
إس تراتيجية
خدمات ها
تق ود
والع د
صف ية
وستنج هاوس
مدر ستي
ثان ى
شي وعا
ثر وة
الست ائر
أ ليس
تع تزم
رج ع
مع بر
مح بي
ل حق
لت ف
ق ريش
والط رق
الآ من
ي صيب
لت خفيف
س كو
كت بة
نب ى
تا ين
وفي س
19 2
كا فيه
في ني
فوت وشوب
في قول
الن ك
كر بيد
ار تي
بال ضبط
وب اص
للاست شارات
المر سال
صي انه
تمت ص
الف ح
فن لندا
الم لق
الر قة
اب تكار
ب خدمة
المح ج
صاح بها
ه وائية
تأ ثر
الم تص
إم ارة
اق سام
ورد ت
غ ربية
ف الات
ب برنامج
وات يا
وأ برز
و 5
ل وب
ن قط
17 9
الم أكولات
مدرس ية
سري عا
مش هور
لي ث
يك م
يع تقل
رائ ي
الماك ينات
كري ازى
السع ود
لل دعم
هد فة
الاست يعابية
الفر وقات
تح طم
مكن اس
الم ربع
الج ائزة
والص يد
وتح ديث
جز ئي
ب الموقع
20 3
هد فت
رق ابة
العر ش
مح امل
والح مد
لل تنظيف
مص داقية
إد راك
مت ين
الإعداد ية
احتف الات
لل تخسيس
العمل ي
23 9
17 3
مغ ادرة
السف لي
زي ما
الت بادل
سن ن
ل فين
دل و
المخ الفة
الأخلاق ية
وت وث
تزا زي
يد و
اع تقد
19 82
إس قاط
و السياسية
ص هر
الفرا ش
الغ دة
وفي سور
أن ور
ف درالية
مح ط
از ون
وق تها
ميان مار
كت ه
الص داقة
است قالة
رض وان
الع نب
الصف وف
الع ميق
ص عيد
رب عة
فن انة
جعل ها
ت اني
ال ابن
بعل بك
لأن نا
الأ يدي
فل وب
تحتاج ه
الدن مارك
ت وت
السعودي ين
المر ف
الهاد ئ
ضم انات
ش فة
الأش غال
الم مت
القر آنية
التع ديلات
الأغ راض
مو يل
مج هولة
فر ط
الح داد
من سي
وتص نيع
وب ار
مشاه دات
الاست قبال
اغ تصاب
ست ست
نف هم
شغ ال
الز ور
تق ترب
والن بات
مدف وعة
ور فض
لح ياة
ل ش
ب الصحة
المن ق
و وزير
م لاك
النز اعات
إ طارات
والح كومة
بإ تقان
اور جينال
التش يك
لل علاج
د يني
الص وديوم
يع ين
الأ داة
والأ دب
اج رة
سر ى
احتجاج ية
وي ؤكد
الإ عدام
أش عر
الإش تراك
19 83
و القر
س يادة
إخ باري
مشر وبات
الأرض يات
ب صحة
ج اعة
مج ية
شي ب
الفلا حة
الط واحين
الم وه
حص ار
قد س
ف ائ
قل ية
25 1
الد خان
الاس رة
أ وف
مخ زون
والح ي
معاد لة
ب أحد
ش قه
الق طر
موا ط
بر صاص
ته مة
يد ات
الأ قدام
نه ضة
م وي
كو يم
ا وري
للأ جهزة
الأ طر
كارت يرون
ش يلي
الك ندية
يس مع
قر عة
الت وافق
وأ خذ
است ف
كر ار
صد م
إخ وان
والت واصل
إ خطار
الجن ود
الفر وانية
لل صناعة
دكتور اه
الل ط
الر ول
16 4
حل وى
والش راء
البط اوى
الدول ارات
مسؤ ولة
ع قيدة
ارد و
علاج ه
الطل ابية
وفر نسا
المحذ وفة
أص عب
و 4
الأن با
اد خال
المغل قة
ت هر
15 4
لف ظ
وف ن
مار تن
الكون غرس
الس امية
الميد ان
الف ص
الا جنبية
مكان ه
مر ان
فار غة
وض اء
ير وي
الم درجة
هو ه
ان ب
بلاد نا
الت عقيم
تح صيل
يعيش ون
الت ب
ش مل
تش تري
س افر
المنت ظر
ب تحديد
ال وظيفية
الق ضاة
22 8
وال شروط
مساب ح
المنت دي
دع ت
م خطوطات
ب تعيين
نج حت
اكا و
وش كرا
مك ينة
قتي لا
ج وارب
يل قي
الج وع
ب المشاركة
وب ري
انت باه
نا قش
23 6
ض وابط
العن كبوت
اق ت
فلي كس
دم ير
19 48
الدولي ين
فا ش
يش يد
ملاء مة
19 7
حاس وب
الا ولي
لا ئي
الا عشاب
الفي ن
ب مح
الفقه ية
وعمل ية
المد ينه
إ بد
٢ ٨
88 8
يتن اسب
وورد بريس
العاج لة
عا ط
ه ارد
دور ته
ن كهة
الموا طنة
ال ال
ر وبية
ابت وب
الح رير
إن ك
والإ نس
تن سي
صوت يات
الاد ب
لق ضاء
وق م
لع يد
دو ارة
كل ب
بري دة
ت خدم
ش فاه
نسي ج
شب هات
ع ينات
الل ذي
غر اب
أ ط
ال وفاق
و السياسة
أ عمار
الاق تراحات
ك ابات
ن وال
اليمن ى
ل أفضل
حول ها
العمر ية
الشر ج
وأ صحاب
للع ودة
ان خفض
وتق ارير
لإ ضافة
19 47
ذ بة
الخ سارة
مخ في
الكر امة
الأس اليب
اط ب
18 00
وتس جيل
ش اق
الدوري ات
واب ق
وصف ها
الم ليون
الا جراءات
الق الب
مت ناول
ت عميم
كار نات
تقد مه
التن سي
عظ يمة
الظ لام
ش فا
اط ير
16 7
ت من
وي قدم
وس بة
والس بب
أف ادت
يت ال
قت ال
بوس ها
تر ه
19 81
قر ابة
فري ات
تت ابع
الم مثلة
والب ط
ت عدد
والش ؤون
ذ كريات
النا ز
والج يش
سيا حي
ذا ق
وس رعة
تق ب
النموذج ية
التد ري
فريق ه
كت ها
19 73
مت وقع
الك فيل
يس قط
سف نتي
الض غوط
وس وريا
يتح رك
الزب دة
كر ين
ق ون
اح تساب
الانتاج ي
شتن بر
شر اب
مس اجد
المختبر ات
الم علومة
يف قد
مق ار
ز منية
ت سيير
24 9
ست قوم
كريستيان و
وز ات
المك ثف
تع هد
استخد امنا
الاحت رافية
بأ سلوب
الس فن
جل دية
ي سل
ح راف
التج سس
جعل ه
للم غرب
الحل وة
وض وء
زوج ين
المسيحي ين
أحد هما
الك اث
الان بار
ين ال
ل صحة
والط ب
ج اني
خ انة
الأس اتذة
الي قين
العائ لات
لت ين
الزنج بيل
و وفق
الحي وي
يف ك
الم فهوم
أ ينما
مح اور
ل شخص
بنت يجة
الات فا
بث قة
الحق ائب
من ال
إ لقاء
زاد ت
التس ويقية
الأش جار
للاج ئين
ك ويتي
ك اه
الم وحدة
يار ب
لل نفط
ض ج
دع وات
الأر كان
ال وفاة
تض رب
لأصحاب ها
يع اد
وم ث
لق انون
21 4
يح فظ
هههههههه هههههههه
صل صة
الع وا
مخ ازن
الطاز جة
الم تج
19 75
والمر ئيات
لي صبح
ال وريا
24 5
ش كري
الأج واء
مل ونة
مشاه ده
م غر
سبوت نيك
تع ين
التن اس
وس ائد
وجه ها
دار فور
الج بال
الأ جل
المي لا
المسم وح
ي طلع
عائل ية
الب در
14 36
أ مة
وم كان
ده انات
في كون
ع اليه
بل غة
ان دي
الخ سائر
إ ز
إد ريس
مس ارات
شي وس
سود ان
أم ه
الس باق
الاست عانة
الت عاملات
ش وا
رأس ها
تحر كات
وأ ثر
مشاركت ها
أ صيب
ه ذة
قد مه
جنس يا
م الا
إ ري
ل منطقة
عر ة
ن فايات
ثر وب
و الذهب
مت جد
ل حد
شعر ية
د لتا
رت فاع
القحط اني
ت يران
الدست وري
17 4
ح اسب
الش ابة
تس ريحات
القض ائي
وج وارب
سه يل
كارنات اكا
ت مس
بد ائل
يح مي
بإ سم
ب تنظيم
يد رات
بك فاءة
ام وس
الق بة
السر قة
الن قي
تر صد
نا جي
لل تربية
الظ لم
اخ تفاء
الاست عمال
رب ى
ير سل
خ الص
جذ ابة
صلا حيات
ئ نا
الخلي فة
ش اليهات
ا غس
الر قص
مغ ناطيسي
ر وائ
أض واء
لت قليل
غ اب
مشتري اتك
الف خ
مصاب يح
الج بن
٢ ٠٠
لل بحوث
وم غ
طل به
دائ مة
الفع ال
لل نا
الاجتما عى
منا ظر
حق ه
التر اب
الد رجات
وال غير
مق اول
وات يم
مق ترح
مر اسم
ئ ام
الت قدير
سير وم
نج ة
الم تد
اد اء
و الفرز
وال زراعة
خام س
قط ن
سي سي
الر ومي
والاست ماع
بر مجيات
يس ار
تب ريد
ب عمليات
الات هام
المعم ارية
مص حف
لل فيس
تع طل
المح تويات
سم ارت
للم بيعات
والإ بداع
الانتخ ابي
وت فسير
وال ية
ب البحرين
لت أمين
الرئيس ة
ك أن
وال آن
بأ ية
15 2
التج ريبية
فت ى
م كر
مز ودة
الحر ص
عد ت
الاست ئناف
عنا ع
يف رات
الأع صاب
م بكر
والص لاة
وان خفاض
صل ح
اس رة
المس الك
ل قطاع
وح ص
ع وك
تصنيف ات
النا عم
المست قل
ف هرس
غس ان
ع ثر
الخلا فة
نت مكن
مر تك
ل عملائنا
سل ف
تع زية
لل ملابس
المست حيل
حو ارات
ما ضي
م ظاهر
المؤقت ة
للت وعية
الاس ئلة
لإ عداد
فا عية
الض عف
المس ح
تغ ريدة
بين نا
ل وجود
23 2
الح ميم
بل ور
وظ ف
هي ثم
ور اس
من حرف
حم الة
لت ناول
تر ويج
قاد مة
ب تنظيف
ورت ة
17 1
وق بعات
أ بيب
مت فرع
دور ه
الك ش
ط بات
مر ز
بري دا
4 60
الص دد
دا ك
تد ريج
الق صور
اس يوم
لتص ليح
ب الطاقة
إنست غرام
السم وم
مط ابقة
أن تم
وأكد ت
المق يمين
والد واء
سل مين
رفي ع
إ رادة
سري ان
المن ف
الز قازيق
ن كت
تك ارات
اح ص
اير لندا
لل إنسان
وك اف
تر جع
والت ط
المشترك ين
الألب ان
و كلمة
شي وع
ن يت
جر امية
يا ح
ممار سات
المغ امرة
خل في
35 1
المست حضرات
الزوج ين
التحر ش
اليه ودية
اللي جا
ق صور
غ ادة
ريست ال
عدد الردود
عدد الزوار
اهر ه
اد ق
عي ها
الم طب
الم جلد
الض يوف
كت وريا
ب خط
الاس ماء
المح ترف
دين ه
وض بط
اله بوط
الاست شارية
عد ى
بالغ ة
أم هات
كار ول
الاحتجاج ات
الت فري
ول مة
وال نا
لل فريق
خري ج
نا يف
بت ونس
29 8
بت طوان
الغس الة
وتخ زين
الف لس
وثائ قية
النض ال
تها د
الص وف
أس ف
في ينا
نوك يا
اسي كس
بت أ
منف صلة
عل مات
شير ين
شرك ائنا
ع ها
ت كلف
بالد م
محج بات
سكن ي
حف لة
الجرافي ت
غالب ية
ق مع
الق بر
والم ياه
توا ير
المن حة
مشر وب
خ بين
وز ين
تصميم ات
الإف صاح
ماكن ة
لل عب
26 3
الق اتل
وج زر
م بية
دول ارات
تب ويب
بات ت
من فصل
ملح مة
مجموع ه
ن وح
م مثلي
ف ليس
العلاج ات
ت احة
الأول مبي
غر ل
ظر ف
وإ نتاج
لغ اية
وال اتصال
ي خدم
ذ اب
تر طيب
فاه ية
سي وم
جر ار
البرتغ الية
تك افل
لل مش
الف ريدة
ث قافي
الأس طح
م ينا
بر وس
تز وير
الا ي
وس هلة
بإ رسال
الاجتما عات
أعم اله
مؤ ثرة
لإ ست
م ئة
25 8
جاف ا
لل مجتمع
تفت تح
الص خري
بر ود
ت مييز
كر واتيا
ت تناسب
نوع ا
الق وس
الوا ي
اند را
ليز ى
الق ير
تن مو
لا حت
الب ان
ميث اق
الفات حة
ب الط
مسب وق
فر سان
ئ يل
ان ق
الخ لية
ط غرل
بي يض
تت راجع
السيل يكون
الاستخدام ات
المسر حي
الب صر
ذر ية
غ بار
الع شق
والم اء
غم وض
لم وسم
الت مكين
وتطبيق ات
بي اني
الذ نوب
أخر جه
ي بة
لل فنون
مح ضر
وح ين
ن انا
والأ رض
اب راج
و خط
يع الج
نز لاء
القي اسي
لم انيا
الت وحد
ر وتين
المع اهد
الش يعي
التحر ك
مك ه
التج هيز
بط اق
يشاه دون
والت خلص
ول ك
المع اني
الب ها
24 4
وق راءة
للح زب
ط لة
الس ني
ي كس
مستعمل ه
وليس ترول
تع ريفات
الان تشار
مست ق
وح كم
ه يفاء
وتر امب
خ انه
ل شروط
السن غال
الأ فعال
وب س
الطائف ية
يق اع
ك ع
لل مص
حساب ها
الأح مد
الك و
هون ج
ط وق
خ لى
الع يادة
الخ الد
الأثر ية
أق راط
لح وم
س ائ
ال واح
وجه ك
است نا
سكاي ب
المحر كات
ضا عة
و علي
ت متع
بر ام
ب الجزائر
الس وفي
التصميم ات
وش دد
فع ول
مف صلة
يع زي
كان ا
تح ية
را يتس
بي تها
الح وض
22 9
كون ج
الش اشات
بت كلفة
مض يفا
في رجى
السل بي
ور سائل
ظل ال
مت وقعة
الإعداد ات
1443 ه
يت ام
تذ كرة
سري لانكا
وأخ يرا
ت جر
وج مال
ب الرد
المر غ
التلف زيونية
ل واء
ملا عب
إير ادات
وإ عداد
مت طورة
الاف ريقي
مق يم
صاح به
بو ه
المصل حة
مد د
مع جم
ع زم
اهد اف
وما ذا
لل عميل
اف راح
مع ان
أب ى
وع وية
لل هجرة
وق ائع
يس اوي
الق وائم
الخ رج
الإ نق
مست ودعات
الأج سام
تش ري
الن وعية
إنتاج ية
وصنا فير
ت هيئة
الت صرف
اشتر ى
17 2
مج لات
المكيف ات
الم قطع
قد ما
منتجات ها
الب سيط
الط راز
ناقل ات
ت ولد
بق وله
تج ميد
أ فق
ز لاق
الت ذ
والمل ابس
ش وق
والت ف
اق تباس
سبر نج
فج أة
مل ه
ل قطات
خري جي
الع ادات
الاعلام ي
35 6
قل ه
وش خص
كاش ف
ذكر ها
م الة
م خدرات
الت خلي
منظ ور
تص ب
ياط ين
السن ه
تد وين
ن وري
فل اس
ب الحياة
بر سم
25 7
خر ق
المفت اح
واس ب
الكوك ب
بح كم
16 2
وائ ط
المطر وحة
والأ لعاب
الفعل ية
يور ك
ب مجموعة
اهم ية
الفرا غ
ح جاج
اح ذية
و 3
ترا كم
تاج ير
بأ لوان
لم واقع
عا يير
الذ رية
الحض ري
الانتق الي
ئ ت
وسري عة
شخص يا
تف ظ
حم ه
ام ان
الور قة
سقط ت
الج فاف
س وني
ث يف
ال راد
أم م
ل في
المخ زن
الأ سب
ل ث
ي وحنا
وش ارك
ن در
سير فرات
زب اء
التس وية
نت هي
الفائ ز
اج نبى
الاح ترام
تاريخ ها
بند قية
اله ضم
شع وب
الإ ي
البالغ ين
الفي ض
هيل ز
ل إنهاء
ق و
وم قر
بن ين
الم لت
الم فيد
حم راء
الوب ائي
السيا ح
مض خات
خض راء
يخ فض
للإ مام
الق طب
ول يق
طر فة
هي دي
إ عمار
ج ها
بح الة
يت ور
كاري كاتير
مه ن
قب ضة
اص حاب
ن هيان
و أمريكا
الضع يفة
ح سم
ب ارات
أور وبي
يه ود
نس مح
يسعد نا
عن يفة
خاط ئ
فيلي بس
مت صل
دي مقراطية
المر تفع
وت غليف
قل نا
الزجاج ية
المستهلك ين
واخ تيار
و الأسرة
لل جامعات
ين فذ
الس داد
وزوج ته
عا قد
ج يف
وملحق اتها
الخرس انية
بان ك
لي بية
المت طلبات
د ريم
اكت ساب
انت ظر
الفا عل
ي قرأ
يت انيوم
2 69
19 3
تتج ه
هري رة
و 6
المخ الفات
مسئ ولية
مسل حة
نص ية
ق وت
و العملات
با قات
الكاذ بون
ي صح
صي ام
تد بير
الا قل
مك اسب
ق بة
المس اهم
الخط يرة
إ مدادات
عاش وراء
در و
الإش راف
الخاص ية
ت وجيهات
وك و
وش م
ح الته
التر شح
الصح افي
الج غرافية
الب ستان
الأ طل
27 5
وك افة
بلد ك
الإد مان
الأ بد
الرا هن
الر فع
ين تقد
ها ئل
غ اض
ح ارا
بي وتي
50 1
باب ات
وت تميز
أغ لق
بي و
الف توى
ملي ئة
ير تك
صح ف
مط اط
للمح ترفين
ونص ائح
للح امل
الم الدي
خصيص ا
هنا جر
س رد
الل فظ
ي بت
الإ غلاق
أ حيان
الص داع
الب اري
أفر ولات
كبس ولة
ي عنى
تر حب
23 3
إله ام
بالق ص
كن تم
الأس لاك
النا عمة
يد شن
الام م
أيق ونة
س اف
المش اع
الز ائدة
الحج اج
مراس لة
تم ين
بن غازي
بر جر
ال وقف
صر ار
شي عة
الفي زيائية
الق يادات
ف راج
ين تقل
ناس بات
وح صل
ل رغبات
بعاث ات
المش تبه
المش اهد
الس قا
بل ين
06 2
هار ون
يت غير
طو اني
الح اد
وليق نز
دم وع
ود عا
وار قام
سب انيا
راق بين
جه زه
النز هة
است مرت
الغاز ية
إمارات ي
وبي انات
المر شح
مه ني
م ريح
تق ات
الس ندات
تر بط
الف ريد
الان مي
الان تصاب
34 5
مطل قا
العم لاقة
الاست مارة
الهر وب
ي سيطر
سما عة
ور ج
من اخ
المغ تربين
شا وي
الدي ون
الحي وانية
الاست ضافة
ش تى
دول يا
مر آة
تر فيه
الإ ناث
الأن ترنت
ع دي
ك وني
الصف قة
غ لاف
المح لل
الت بديل
اط رة
شير ات
تن هي
المت ضر
بين ات
والص رف
نب لة
ص غار
الصح راوي
المص ن
ت تصدر
بس مة
والت حكم
متجد دة
يع كس
وكولات ه
في ين
قض ائي
يح سم
يف كر
عل وي
لأ عمال
99 48
ترحي با
الكث افة
ر وى
ت غط
الس قف
الدور ى
الرا غبين
ع وة
يجعل ه
ف وج
و الاع
لل هواتف
تن ص
استثمار ية
مح اكاة
استر خاء
ل أداء
ف ائق
وس يكون
وم وعد
وحد ها
الأ معاء
بتش كيل
أد وار
مسي حي
ز ج
الكثير ون
د راج
وت قييم
التعا في
الض يافة
أصدقائ ك
الطالب ات
كس ار
لت كسير
بخ ميس
وفي ديو
العب ارة
ض يافة
لب ول
تد ت
الن ظم
ب كسل
نش أ
ع راق
الكام يرون
تنفيذ ها
ين طوي
ك جزء
العق ول
كامل ه
الو الدين
مولا ي
تفري غ
الج ار
لي ط
الحلق ه
الأغ نية
جهد نا
أ در
دور ها
شف رة
المل خص
الم ئات
فر س
وح فظ
رض اء
الأ سم
دل الة
جدا ول
الن طق
وال آثار
محل يا
السع دي
لل تطوير
وت قع
ك اي
ت اس
تنا ع
بم علومات
جز ائرية
الان ست
بي لي
اد ور
سا يت
19 00
أ كمام
ب المج
ب فوز
يحتاج ها
و الثانية
س اسية
برلم اني
لي خ
أور وبية
وت غيير
الك عبة
البرتغ الي
والم عرفة
مج اهد
طراب زون
رام ز
مضاع فات
الت برع
الاعداد ية
للإ صابة
ان شر
جميل ه
ت ظل
أ طل
أج ور
وس فر
يا ز
ومن ظ
والت راث
ديم وق
الح وت
ق ور
موس يقية
مق شر
ب وضوح
الآ ونة
السل عة
ها جر
حو امل
طاح ون
ب مقر
اب ني
أ ري
بالد ار
الم طلب
مق ام
ب حد
وم ترات
انت فاضة
اع تما
ه ش
ح جارة
19 1
المس جلة
19 78
دست ور
الم لاعب
19 60
الت سل
23 7
ينته ك
فع ات
واج دة
في مصر
حف تر
بج ازان
وال علاقات
لل جامعة
ل ولا
19 77
مل ال
الفر ات
الاك شن
و وفقا
وم جموعة
موا زنة
الفق راء
لت غطية
أبي ه
ست يشن
ا ود
م اب
دع و
جز يره
التص فيات
شموع هم
ض احية
قال يم
توضيح ية
المر كب
أس عد
والج سم
تشي يع
تأثير ات
حن ين
والم ناسبات
ل تجربة
حم ية
صح راء
النز لاء
الموس يقي
يد ها
لل جهاز
ال اله
الن وافذ
الس واحل
الج ابر
26 4
السوي دي
ي بر
ه ض
ح جري
الفات يكان
ما عات
فس هم
بح ظر
المنت شرة
أ خص
جري ئة
تط بق
20 9
من سق
مصر اتة
22 3
فت وى
الفات ح
هي ك
متهم ين
غام ضة
نقد ا
سه رة
الد ائري
ث الثا
العش وائي
الح قل
39 0
ش ادي
نش أت
مسل مين
يمين غ
مور و
للعام لين
مد اخل
ب اله
الج وار
أهل ية
موظ فين
ي قة
ص ه
الح رجة
سب ائك
المتقدم ين
المؤتمر ات
عر عر
عم اله
تقديم ها
تست دعي
للت كنولوجيا
البوليس اريو
ش تراك
السخ نة
م وح
وأ هل
الجن دي
الأ خر
يونيف رسال
ت وتر
ميل انو
مد حت
باك ستاني
يق تصر
ب البرنامج
الا صلاح
1 ث
ث ا
ار بع
ني بال
الع ار
اس بك
مما ثلة
صاد مة
نقدم ها
24 6
الرح يل
مع جون
عش وائي
ت الية
ب البحث
ه ني
الم وجهة
وص فه
الق صف
الايط الية
ن امي
شع اع
والتر فيه
العلم انية
الملائ كة
عد و
لل خروج
الج ناح
الكوا كب
خلا فات
يق صد
الر م
ير ية
ف واكه
العق اب
وال وقاية
توي ج
ح زن
ياب اني
نبات ية
كاز ينو
تناول ها
لنا دي
صل ابة
ج بريل
المح رق
بار كيه
و الدول
ط بل
أ صناف
الص مد
لل زواج
وار ير
أون صة
ك يني
بحث ا
القن صلية
اي ط
والأربع ون
ي مني
الس اق
20 8
اق تراب
يف رض
مح اس
لم ش
الس قوط
م وضح
عم لاق
رت بة
معد ني
ن تحدث
م فق
خل طة
بار فان
الإيج ابي
بت غيير
الكر وميت
الش ق
ح ريم
ج فاف
للمح ام
طحن ه
تح فيز
را ية
الي ور
وق وله
الإ ذاعة
ل تك
است دعاء
أ ظافر
الأم ام
ص بع
سي ري
م مد
اح تل
كلين ك
وه ج
تنظ ر
ح اجه
إ جتماع
مض غوط
كر و
توا زن
الكام يرات
مسب وقة
بالعم ولة
كر كوك
بالغ ين
در سة
فلات ر
فر انك
مع املات
مد نية
ب إدارة
العم رة
مع اذ
خلي جي
والأ دوات
وكاف تيريا
مش تبه
المست ثمر
اللوج ستية
ساد س
الأ ئمة
آ ني
الكت ان
الط ق
أش جار
أقل ام
النق ش
آ ث
لإ قامة
است ي
أ راض
ج ابات
بور ن
طوان ية
ي حد
النا صرية
موا كبة
عق دة
زي ه
لمست خدمي
الأ ست
لذي ذ
والس ير
متخصص ين
كر ك
ثلاث ين
بغ زة
اظ هار
نج ان
و الخاصة
وه يدرات
مقل ع
كات بة
شار لوت
الموا عيد
تبار ك
مع ز
الم هد
للت فاصيل
وت أتي
و علاق
ا طل
المف تي
مي ها
المالدي ف
الان تحار
الاد وات
الماز وت
الاخ تصاص
ال الات
الش يعية
طل ونات
39 9
الس ور
بالر صاص
التص دي
يت خذ
وغ ا
تد ليك
تج ريبية
الشر بيني
ين هي
مغ امرة
ي حول
والتس جيل
تم وند
المتر جم
الأ وامر
بي طار
الم خطوطات
الش عار
بت طوير
ترد دات
اس فل
مخ زن
منغ وليا
يشاه ده
يست عمل
واس ر
باس يل
صد مة
رب ا
نات ج
الأ مد
المعار ك
نز ير
كي كة
صف اء
ن وت
الش وك
كيد ستون
أس فر
وت قدير
ن نشر
للت عرف
تنت شر
بي تا
بار فيوم
ب بيع
ب الدوري
منص به
بر قية
والت خطيط
مد اخ
لق راءة
أخذ ت
نس بيا
أ زيد
يت عامل
رب اح
تأ هل
بش ري
ان سي
الر موز
الف قيه
أول ياء
معنا ه
ت فاق
أ طر
ه دي
الح رائق
ائ عين
حلا وتهم
ر وات
بالت واصل
الأ بناء
والر د
اع تقل
تس قط
مشاركت ه
تدريج يا
الام ين
الغ ابة
تع الج
المسؤ ولة
إ تحاد
الب ت
الص عود
الفر دي
الالكتر ونى
وس ى
لمخ تلف
والد ته
ومد ينة
درا ية
تن طبق
ت ورتة
والص لب
الك مال
ح را
والخ مسون
الأربع ين
أن ش
اك واد
بن زين
ط ابق
است ثناء
يبحث ون
فعل ت
خاص ه
تق رأ
وب النسبة
مر سوم
مد ونات
المحاض رة
فل و
رح اب
ماج يك
الفي ل
بر صيد
العظ يمة
مها جمة
مث له
واع تبر
الل مس
جر ش
06 27
الايط الي
المعر في
وير لبول
ب مشروع
الم ذهب
ب وجه
ده ان
أعمال ها
بر اس
الأمريكي ين
يض يف
ه الة
ن صيب
المس احات
ك ذب
وشي ه
تنان ير
الطبق ات
الج بوري
اح ذر
لافت ا
ل منتجات
ل رؤية
الش مري
التنظ يمي
كيم يائية
الجديد ه
من اس
مد نيين
ل أسعار
وبد أ
اح جز
ابل سي
ز لت
وان غ
كتاب ي
ين جح
هي ام
مر صد
الحس يمة
تأ مل
بل ال
مش هورة
وت يرة
تل وين
النق ود
حص اء
بك ستان
المكس رات
المعتقل ين
لل سيارة
ارتك اب
است ايل
الفاض ل
أ وقية
المقر رة
الع جز
لف هم
الص فرات
ه انة
أف اد
الم فس
الإلكتر ونيات
لمح ة
الق دي
لموقع نا
السج ادة
لت زام
أ حر
دا يت
تابع وا
المست عرض
قبل ه
را ها
المسافر ون
المغ ادرة
الأ حرار
تأ لق
المن صوص
سن ستخدم
المست هدفة
المزد وج
المز اج
مر ونة
وائ ده
ش تاين
و الأسعار
محفوظ ه
امن ئي
مؤ هل
يتر أس
اش خاص
مت وافق
ال وثيقة
ي خل
مقر ر
ي كرم
د ائرية
لت وزيع
غير هم
و الصناعات
يد رك
تح وي
وس هولة
ج اما
لا وة
تك و
الاض طرابات
يدي ه
لم مارسة
تور ط
الاست هلاك
المن ط
مق برة
تنا فس
ب بناء
الب لو
الت أخير
ر وحي
لل أنباء
والاب تعاد
مثل ما
الأن ث
الع سكر
الأز واج
يح افظ
الاس ماعيلية
بو فاة
المست فيدين
العق وبة
القوم ى
باعتبار ه
تي ه
تع قيد
مو ه
0 11
ق فاز
لإ خ
كور نيش
الأه الي
والت حليل
نظ ير
بالان س
يل و
اللي ث
للجنس ين
قدر ها
سكان ها
خدم ه
تنا ق
المح طات
الر كاب
ح فاظ
الص واريخ
يع ترف
وافق ت
ائ لات
99 009
99009 693
تب ون
بإ ضافة
البالغ ة
أق وم
للأ بحاث
عج ينة
صور ا
ز ت
وح ول
ك اد
خ ياطة
29 7
ومن هم
م راقب
ين فع
والش ت
است غل
كن د
والط حن
مض ت
انس داد
حديث ي
بك ثرة
إد انة
المرا ة
تحتاج ها
بلاست يكية
الش احنات
لل كهرباء
لق ناة
فض ائية
الصح ى
وكي ماويات
وب هذا
ز هر
بن سخ
و إنشاء
تن فس
ص بر
تد لة
است قلال
مون تي
بانت ظام
المشر فين
أرد ني
ون حو
نر سل
المجتمع ي
ول كل
الاست هلاكية
رك بات
الموس وي
وح ب
ق اع
انت شرت
الفوز ان
ت درس
السابق ين
و أنها
مق بول
الحص ري
الب لوك
جما عات
وان ه
الت حص
طلا عات
ومس ؤول
وأ ق
تت واجد
والم غ
ب تحقيق
الخش نة
مج از
سعر ه
تم ك
السح ابية
البل دة
صنع ت
لد وري
جا زي
اس ونيك
و الاجتماعي
ان سحاب
19 4
ني س
الح اض
أص لا
بط ء
المؤ رخ
كاب يتال
حر اري
المنا ظر
وص يف
ت تلقى
ه ارة
تم ه
واق ب
مع قدة
26 6
يعرف ون
ت خطي
الج غرافي
وت يك
ما غي
عرض ت
يحت فظ
الت غلب
جر ح
ج بيل
تح ظى
التنظيم ية
الحل وى
وح ه
ول ابد
نص ار
م اله
هاد ئة
علاج ات
وا هم
س فن
الن قال
الشه رة
يا و
لس نوات
د بى
الم بدأ
والتق نية
عائ لي
مت ري
ميل ي
و تحت
ج وار
تش يلي
عذ را
لرغبات ي
الع قيق
وم بي
ن مشي
الج وائز
وست راد
بالن ظر
التشري عي
است مارة
30 4
ي عة
وار ز
جر م
تل خيص
الف اخر
الح ز
بل ق
غي ز
حل ف
لاست عادة
الع يوب
ظه را
بات ور
الص ن
ن مت
تر ون
السل يمة
الأح واز
لك ى
التخ سيس
الت غ
اق م
ب تن
جث مان
آ مال
ط لي
ب اف
الاق صر
حساب ي
الز ين
كلاس يكية
حما ة
آخر ون
تليف ون
ام ازون
19 76
ؤ ثر
مي ش
ب القدس
الن ش
شاب ه
تد ير
كر اسي
تخ سر
تت سم
18 1
ح جة
الش قة
خد ير
الجنس ين
3 25
تق لل
والأ ثاث
لت داول
ومن طقة
خ دي
أج رة
اه تزاز
الل وحات
المط اف
الأم هات
مح اكي
والد فاع
حي ز
20 6
ومن اطق
وبي ان
الفر ش
الإف راج
المرز وقي
ابر ز
وجود ه
يش ترط
وج ع
وس ا
المق اول
كر وت
تر تك
وج نوب
والج ماعة
مص ح
م ذهب
طل ون
19 71
جذ ور
ل اسيما
ف كري
الصيد ليات
الصحرا وية
الار تداء
هيدر وليكي
ح ادة
الاست يراد
الإ حالة
ك ينا
الممتاز ة
الاق امة
الأ لكتر
اح فة
الف وم
ات ص
30 7
بق ع
الع شرة
الجان بين
يغ ادر
للج وال
بأ مر
تر س
شر طي
الثق يل
است هدفت
بي كو
التد فق
ل شركات
تست غرق
مثل ث
للع ثور
معرف تها
سير ا
الق نيطرة
19 68
وليو ود
المن جم
ثم اري
تام ين
الدي ار
لتأ جير
ه جري
موبايل ات
لل اهتمام
الكرد ية
العباد ات
التس ربات
ض وية
المع تاد
والم غرب
ولد ت
تك من
إنج ليزية
أثبت ت
وسط اء
ل جمعية
كث يف
اب ك
وبد أت
موا قيت
مواط ني
بلح ظة
بروكس ل
ت شر
ب شيء
ست طيع
المت مدن
الد رقية
مول ود
تح ف
الط ار
ب مجال
ي ال
وال ولادة
اليمن يين
احتجاج ا
كا ثر
وف دا
١ ٠٠
قي ع
المت وا
ب المركز
ب ثلاثية
6 000
اله ولندي
صل بة
ري تش
المرك زة
19 74
الت سا
الاحت ياط
شاهد وا
نج اة
ص ية
ح كمة
بح ماية
الف هم
٢ ٧
سل الة
اس رار
إير انية
رغ وة
اصبح ت
أ جريت
أ ضعاف
لف ائف
إصاب ته
اب ري
وب كل
طريق ك
ل تع
ع ظام
كبير ه
دور تموند
ان جاز
ب الاتصال
الفر نك
الد وسري
الت هم
كن وز
ص مم
ب تع
المح رز
الراد ود
كور ية
الث ور
لل بناء
ثم رة
الم وق
اخ تطاف
18 2
وبر نامج
المل ونة
14 00
أ وجه
والمق الات
لغ سل
خر سانية
با يا
النص ية
المل وك
الت وسع
أك واب
ي ضاف
والت ميز
شن طة
هر تز
مناص ب
الص خر
00 96
السع ري
عبا يات
صح افي
را وات
للح وار
المش هور
أر واح
تح تل
المت كررة
للح ماية
24 1
مها جم
ج بار
الام وال
التن موية
بصد د
و الرحلات
أخ رة
ب العراق
ل ذ
عم ومية
المح تج
الانف جار
تت غير
ه الي
غ ور
ظاه رون
التر ابية
المح تل
ود اد
مق ت
التن فسي
بن ز
بو ابات
وي ري
ر كز
ود فع
عص ا
ب ادر
اح بة
تج ريبي
33 3
لأن ك
فل ه
سر نا
والب شرة
ن فت
بدي لا
الواف دين
ؤ ية
18 6
ض ياء
بالت زامن
ب وقف
في مكن
27 8
ين طلق
لل نجاح
لم ان
الخ الية
30 5
وت وفر
رد وغان
طف لا
حي وي
الض رب
ست انية
قد سات
جن با
مباد رات
سل وفا
السلف ية
شه يرة
بحث ي
الح ديدة
بري اء
عب ان
يت جه
اص ة
خ يرة
الم كلف
الر وحي
العب ارات
دد ين
إ عدام
ع اه
جي ري
اش د
لإ سرائيل
اط باء
تو اريخ
طي بات
الإست ثمار
ب جهة
لم واد
أ جنبي
طرح ها
أعد ه
وب ال
تن ورة
الأول مبية
ينت مي
إج ابات
الم ظل
يعط يك
لل برنامج
في و
وس هل
فر حان
للح ج
فض ائل
ج دي
الأ ني
لإ علان
فر حة
ريت والز
وم شاهدة
سم م
بي تي
أص الة
أغ رب
بسر طان
سوار وفسكي
الح نفي
رش د
حر ك
ق وارير
عوا زل
الا يج
الوز ارات
الأ مس
بنا ية
المصل ين
الر شي
ي ضر
التشري عات
الج دير
مك المات
التحضير ية
في كتوريا
محاض ر
الان قسام
لق وات
ثق ب
ب سب
مح لل
تر جمات
بان اسونيك
الإ حاطة
ك وفي
قد وم
د وم
وإ خ
المستشار ين
ند ه
ف أنا
لل تصرف
يا كل
وم تن
الصد ري
مب ارات
ثق يف
الع ري
اض ية
با شر
المح ظ
اسي ب
صل حة
المنا خي
وت طور
الم من
ما ئل
الصف حه
ون وع
الخ تام
لنفس ه
اته امات
اخ تل
ودر اسات
والإ جراءات
العسكري ين
لم راقبة
ب قرية
الح صر
وشر وحات
الحسين ية
ب السوق
للم علمين
بر اتب
خدمت نا
إخ تر
تق ليد
ضم ون
المق بول
المخ تلف
ول وازم
صر بيا
المق اعد
الغر يني
ص را
بالت فاصيل
اق تراحات
تست عمل
اق تباسات
اح لام
ط ون
الق مع
لي صل
المؤ ثرة
يز داد
الخ يل
ين س
الح وامل
وس يتي
ن ؤمن
م علق
جز ئيا
تق الي
بوست ات
است بعاد
يبحث ان
و السعر
شر عي
ح ونة
ان اس
لي ين
اك تر
ت وف
يد اد
ومؤ سسات
مؤ ق
ل مادة
تك اب
ر قيقة
اط ارات
تر ج
الأل واح
ال راقية
أ قام
تك يف
العل ف
صور ه
69 0
في دا
الن اب
٣ ٥
كلين تون
الج ب
مي شال
الد ماء
وم دى
إخ تيار
الز ينة
الهد وء
بش خص
ع ع
أش ارت
العام ية
تح فظ
ض رائب
بي كسل
ب المعلومات
تق م
سح اق
الخ فيف
ود ير
فر دي
ن ال
المن ز
الط يار
ما وي
تز قة
لل إس
بت هم
ب الإسكندرية
الأ عداد
17 69
والاست قرار
ق ارة
تجاوز ت
الط ائر
ضع يفة
بج هاز
اغ لب
طم ئ
وق تك
ح ارة
العض وي
الأما زيغية
اغس طس
ف فة
ز ف
دي انا
مستق بلا
س ندات
الل ؤلؤ
الجول ان
ما ه
الشري كة
الم مارسة
مق ابلات
ا يات
مر خصة
لل قلق
الرفي ع
أز مات
و شرح
الم ليش
واع دة
ي شرح
كر وية
وني وم
للإ علان
البود رة
الير موك
تون سي
تت قدم
آرائ ك
ز به
المق ات
الا كسسوارات
ت تس
منش ورة
ب الخرطوم
وج ا
ست وك
رأي ي
والم شروبات
كويم باتور
الإنت خابات
الاجتماع يات
حر س
الأف غانية
لل أعضاء
لك لية
وت دمير
ت امة
الم ثير
الأ يمن
الفق ري
العم ومي
بت ف
والت علم
ق لي
ف ماذا
المش ورة
الدبلوم اسي
البا قي
ي ري
ل جمع
الأول وية
ف دان
ام يرا
ق وام
شهر ية
تع ثر
المز يج
الج نائي
آن ذاك
ول فت
ما هار
الخ بي
الثق افات
فص ائل
العم وم
سج لات
سا كور
راح ه
فش لت
الم فعول
تنت قل
الأرض ي
ط اس
٢٠ ١٩
بس كويت
19 49
ع ارات
الاز رق
والمنا طق
الص نف
لل رد
ام يرات
وفع الة
مع تقل
مشروع ا
م مر
عق ول
أس طواني
الس بعة
ي سلم
ف قلت
إ ك
بالقص يم
عائ دا
البع ثة
علاج ها
بإ لغاء
ح ائط
يد ك
و الحلول
س ينا
المنا صب
المر ئيات
با عية
وح سن
والف واكه
ل منتدى
د بل
إن فاق
ش حة
ب ولة
ير بط
بد ورها
الب ات
الخ رائط
أ قدام
يد عى
نش ط
ب الكثير
الب غ
الب لاك
مت عل
شعر ت
الغ داء
ار وع
ين طبق
مع دة
رائ ف
الا جابة
ك دة
باب ها
وعلوم ه
سك ويت
با قر
وقت ا
عقد ت
اب ته
ظ لات
بال شركة
ل محافظة
د خ
بي ئية
مح و
الشر كه
والك تب
تخ تتم
الشي وعي
الأنت يمون
الف ري
ات وماتيك
اليم اني
وع شرين
ف م
بن در
غ رائب
جبر ان
المص مم
الع جوز
المساب ح
ل قياس
ده ن
3 14
غر امات
است وديو
ين قذ
وال هر
طيز ها
مش يرة
خر فية
وع ودة
خ خة
النق الة
ند عوك
بور بوينت
اف ى
ها يمر
الأ وعية
حق ول
الخ لط
ش وي
عشر ية
المنخفض ة
الأ جن
20 4
وص حة
يست فيد
والك م
ملح وظة
قدم ها
الج ذب
المش هورة
العن صرية
الممل كه
سمح ت
البنفس جية
بالم عروف
ت خلص
صل وات
كاب ول
تر كت
الأ جر
لل طن
س وسة
الوط نى
ال ريس
دون غ
ش ائع
ط از
تركي بات
يصل ح
ل وف
ز ور
خط يب
جيب وتي
المح تر
تح تفظ
وب ذل
تحول ت
الجز اء
والا حت
و 2
مت جدد
يه زم
سي ان
الش مر
وق ضايا
ضي في
وتج هيز
2020 م
وك أنه
الأح ماض
اب لت
نصر الله
ست حصل
الج ذور
مس افر
كريست ال
بد خول
الشر ط
البط ولات
اع ز
لل مشاريع
مح بة
تج يب
د راجات
ت اك
لل مؤسسات
الكثير ين
25 4
يغ لق
وس وم
حل مي
والمس ؤول
مائ ر
قط ط
استح مام
يست ضيف
وب ها
مت علق
وإ ست
و خر
وف ون
كي وماكس
و هات
لد فع
المن صات
ار مر
ين زل
الغس الات
الباس ط
وال وصول
أقيم ت
والأخ بار
التن ين
الت صدير
مز ج
وا زي
مل ين
ف ارة
مت را
ري ميل
ل جهة
ياد لة
مح اول
فكر ية
ح به
بر فقة
ب الذهب
الت كم
والب احث
اب نتها
تقييم ه
إن شر
الط ور
المد ربين
الصد مية
حا وية
ب غرض
هدف ه
البكال وريا
ت وضع
قيم ته
ز كاة
الش جرة
أ كرم
جهود ها
ط هاد
المفق ودة
ن يران
ث راء
ت وصية
بر نت
العمر انية
الع نق
خي انة
ب آخر
وف ريق
زا ين
التن غ
تر شيح
الب اق
يت مثل
ب الذات
لاس لكي
الم صرف
وفي ها
وأ سباب
ق ضي
د لائل
عد الة
ب قدرة
الط فلة
لكت ابة
الز بادي
وفي تش
الأ طوار
وبي ا
فاي بر
سا دة
رس اله
ل عمليات
المزد وجة
ذ ري
لي ان
فر ك
وجود ها
ص راحة
الموز ع
المحلي ين
أ وج
ين اه
افترا ضي
8 217
وم ميزات
لف حص
ل وم
ر ث
النسي ان
الإ مساك
أنفس نا
ص بي
بأ على
اصد قاء
59 6
را غ
أم ثال
تم هيد
الكلاس يكي
الاس اسي
وتأ هيل
ع ارة
وح زام
وال بيانات
ماهار اشترا
الرا عي
16 10
ت كرم
للح جارة
الإ ند
عل و
را غب
ف تحت
الت أمينات
ن اري
يا زات
الض ريبي
ي غطي
لل اقتصاد
عام ي
صديق ها
القد ير
الأض واء
25 9
مركز ية
ب أمراض
أهل ه
الح ارس
مظ اهرة
24 3
مق ترحات
النص رة
عط ا
عم ه
الكات بة
والت ربية
لل بلاد
العم انية
التص وف
لأ هل
الع مي
عر فات
والص وت
الهيدر وجين
نز لت
البر وفيسور
مت سا
ر ابعة
الآ لام
بح وز
صدي قي
وال ديه
بإ قليم
77 7
بلد نا
ع بادة
عر بيا
بق يت
الك وليسترول
أ وافق
ي كلف
ج ذا
اس ا
عاد تها
الم ضي
الع ولمة
لل مسرح
الاستر ليني
19 45
ك وبي
اري ح
يرغب ون
قا ومة
الصع وبات
مج ل
وه ن
ها جم
م ضر
ذا في
الاب احية
يس ا
ات م
يخ تتم
اف لات
ي أكل
مح ظ
الصف راء
برا ذرز
اختي ارات
دع ى
الر اتب
ار اضي
م ونا
عائ لات
المن ار
تفعيل ه
للت داول
ماع يلي
الن بوة
ذ جي
قص ات
مص طفي
لل هاتف
وي ساعد
والت كوين
وفر ز
الك يك
التج ريبي
الإم براطورية
اق امة
وت نا
من ط
قر نية
اللا ذ
الغ رينية
التف كيك
وف هم
مدين تي
الع برية
تأ كل
المنا ديل
ور جال
الغ ريبة
الت ايل
تص د
م وجهة
ون قوم
رب اعي
الأف قي
أغ لى
دف ان
لل حرارة
الفوتوغ رافي
اري ين
أ بعد
الأخ ذ
ميكاني كي
ول دي
اب اد
13 00
شحن ة
بت ين
وس ير
وح جم
ن حرص
اح ياء
والإد ارة
حبي بها
ب تحديث
تح ديدا
اب يا
و الدين
دي ور
بولي فيا
تن ع
الأ وائل
تها جم
بي اض
ان يم
الن شطة
اللح ظات
لمح اربة
تر تدي
الريف ية
ام ع
ميكاني كا
تريد ه
الاور وبي
اري كا
غ طة
الصهي ونية
الإصلاح ات
ائ يل
صار مة
است بد
ت وري
الغام دي
ل هيئة
الأسبوع ي
وس ادة
وأ قل
وم جلس
وست كون
العم اني
أف عل
مش ابهة
أ بها
وا كت
المؤ ثر
٤ ٠
أ لك
مت ط
اص لة
أ خرج
ن صح
عم رة
عز اء
تعرف ه
الجن رال
مح توي
ط اج
تفا قم
التنغ ستن
الأكس دة
ال التهاب
وم ك
نفا ثة
19 50
وأح كام
الربا عي
إ ضاف
مح تاج
الض حك
يح سن
تق بة
وم راقبة
مرز وق
تست فيد
ل تدريب
والح د
صاد م
وان يا
وأصبح ت
وإ ح
يت راجع
الب اه
تطوير ها
ول أن
الإبداع ية
الخط وبة
وك اد
لل سلام
مك ثف
د جلة
احتياجات ك
إ شك
أعمار هم
التشكيل ية
اليون سكو
وأ ر
مؤتمر ات
الإن فاق
والم شاركة
توم اس
بي تر
ب السيارة
وأ لعاب
ف عليك
بح ياة
الم بتدئين
الا كس
هي كلة
زوج تي
الشت وية
استطاع ت
اخ ري
ل علوم
لتح فيظ
أم يرة
قبل ها
ب إدخال
دي الى
الكه ف
الحكا ية
اع ب
والتطبيق ات
ب التنسيق
بار زة
اح ه
لل شمس
م ئ
حص ن
تح ريك
لل جمعية
تحليل ات
9 66
وش هد
أخ ري
المف ترض
المر ورية
أش ك
ب مساحة
ار و
ثم ين
غ ى
مصري ه
جرين تش
وغرب ال
تيك و
ش اش
الدماغ ية
الش وفان
مجه زة
مت فرق
ع ديد
مع ارضة
طبا ع
الخد مية
26 2
والمن طقة
ف كانت
المت را
قدر ه
ي ولي
مدي ري
المركز ى
تز ور
اف راد
جار ه
قص اء
٤ ٨
مر نة
الج وه
الأح جام
ح يف
إنجاز ات
ون و
العق رب
30 8
والأ ق
بر أ
قض ى
الح ى
ري فل
جز ات
الأ ثري
26 8
وب ط
بد فع
بض عة
ب مرور
ملابس ك
تض مين
الاتفا قيات
لل اطلاع
بس طة
سمع ة
لك شف
تس ديد
انف صال
نص رة
اليون اني
الرا ية
رائ ها
الق صيدة
وف وائد
وه ان
أسبوع ي
و القدرة
فير مونت
سلم ى
الإ غ
إد مان
الحض اري
الأص ابع
مستوط نون
الس كس
ل آلات
انواع ها
الزهر اني
الجمر كي
14 35
مسؤ ولي
لر عاية
ان سان
الك وارث
لل رجل
ز خرفة
وست ار
وتش كيل
كوك و
بل وتوث
ك انيات
اص ابات
٢ ٦
س مر
النا جح
وح ركة
بض ائع
ج غرافيا
الوجه ة
البطرير ك
وق وة
يخ سر
و أسرع
نز اع
المس اكن
لات ين
عي دة
عن هما
الجد وى
أ وسع
يحت وى
نان سي
وتن هام
تقلي دية
مطالب ك
دعم ها
ير صد
ست ات
ترك ها
و السل
يش ة
ذكر نا
الأ جيال
الغ الي
الإنق اذ
اع مة
عق يل
ح اله
رب طة
الر ضيع
د وس
ي بيع
وس يم
الان تصار
مف تي
وال هند
كش وط
ال واجبات
لل تحقق
الل وحي
ل تصل
عق بة
الجل الة
أح ادي
وع ناوين
الكرب لائي
إلي زابيث
يم ه
دي اد
لل ولايات
ك تر
الأد وار
لام ع
وص ى
ق ها
36 3
الق شرة
نا شي
الس رد
الاع ت
الص راف
والت أكد
بدر اسة
الرأسم الية
تركي بها
والهر سك
الش وا
أ جرى
المر تفعة
تعرض ها
الن وا
حين ئذ
لف صل
ط اعة
الفي صل
الإ ضافات
فر اس
حر وب
بال يدين
البر كة
مرغ وبة
الاستر خاء
صف حتنا
البلا غة
حر اسة
للان تقال
والت عامل
عمل نا
تغ ري
ب كلمة
الألب اني
ميل يشيا
وح ساب
النا شط
ينت شر
ط وارئ
تصر فات
الخز انة
وال علامات
الكث يرة
الا هرام
نظ ري
اي ين
والس ودان
تش اد
بح رف
م ذبحة
الد واسر
اد ع
إ بن
بال ولايات
ق ادم
الغ دد
ممد وح
تق ليص
الر اس
منتج عات
35 5
ول اء
وب ن
ح جازي
المخل فات
التد قيق
ل معاينة
ب وح
لإ صلاح
است عرض
وت بادل
تس ويقية
اص رين
ق ارئ
تط ابق
تجن بها
عمي قة
رأ ت
المعاد لة
27 9
الكوب ون
فل ور
اب نته
نج ات
المع ز
19 69
مرك زة
لات حاد
بين يت
صديق ك
ث ية
إ رتفاع
وداع ا
دا يو
الغ طاء
امل ين
الد عاية
الا طلاق
خلي جية
مت واجد
م راق
الطاز ج
التزام ات
ماك دونالد
الاه لى
اج دد
محر ز
م باني
لل منطقة
35 00
الدر فلة
طريق ها
م لاحظ
ل تجديد
جران يت
شل بي
والت ه
لل منازل
مد يرا
الز احفة
أ رجو
ير اه
س ارية
35 7
فل ان
الع بادة
مخ تار
إعلان ك
فت ة
وف حص
تح فة
32 6
ئ هم
35 4
أسر ته
وت بلغ
نف وذ
الرج يم
والإن ترنت
الإ تصالات
اخ وات
مشتري ات
ر قة
الت فاعلية
الشر ع
را ش
اع تراف
البر وست
يصل ه
نت يني
الشام بو
أ فعال
ل بطولة
بالب لدي
تهن ئ
4 10
عش بة
الر ومات
فاق س
ك كل
ميكر وباص
أث ارت
و الذى
الأ يق
وس يل
لان تخابات
الد بل
اله زيمة
مساعد تك
الس ائلة
مش تر
نقل ت
المميز ه
ق نبلة
الاست دلال
مل صقات
الرا ش
مص فاة
المص طفى
فض لة
طاح ة
ت ولي
بت ناول
كر وس
كس ا
تل تقي
الب قر
اح تجاز
24 7
والص ورة
الت أهل
وتح رير
وتح دث
د ش
وبلا يز
الموص ى
اج زاء
ق ديما
م اسية
جه ته
يل ز
ان تصارات
اللط ميات
وس لام
اف تراض
19 66
و كتاب
ناط يس
تل تزم
ومح اولة
لاخ تبار
وت جار
منح ك
تق شير
الت فوق
أ طلب
نها ئية
مل زمة
وال آلات
28 8
أص لي
عب ور
أح دا
يد ير
ي غير
مل أ
بك ميات
موك يت
مو حد
انتق ادات
الج زي
مص اريف
مح مية
لل سيطرة
بي ز
مك اني
الق ذافي
الموبايل ات
الر صيد
لع قد
ح جب
م اسة
تخ يل
لائ م
را عي
الت كيف
38 9
ليل ية
كت ة
س اري
انست جرام
ليل ي
لو حد
كس ون
دبلوم اسي
ل محمد
يج دد
الان واع
عائ د
تج ت
جان بي
برا زيل
ب الصين
م بني
كادي مي
ش مع
بتش غيل
اله ج
المشر وعة
المر ئي
إت فاقية
ل شغل
ب الاشتراك
الراف دين
مضاع فة
م انات
جذا ذات
ياب انية
التح ذير
ل ؤلؤ
تشغيل ها
نا زل
8 000
يخ وض
ارض يات
وف ض
المناخ ية
وأ علن
هات في
ن ث
التش اور
48 8
مع طف
ب ف
و الاش
ب مديرية
الك ارت
الج دي
واس اة
ع تين
جما دى
أ لت
المق ترحة
الطو ابع
لائ د
لا قيات
فار ش
الب اسل
28 6
ح مادة
الغ زل
الر وت
الف ستان
والن ت
وس يتصل
المنا ضل
ط ريات
قي ها
تش اهد
اله يمات
النخ بة
وح زب
موقف ه
ديز ني
وأ حدث
الم دا
الج بار
عص ري
بت فعيل
وق طر
و وقت
ليس وا
لاس لكية
اك سترا
مع طيات
كون ات
تع ترف
الب ش
باح ي
ويحت وي
مع اون
للعمل ات
السويد ية
اد ى
وب ارك
ب تجربة
المعرف ية
يني و
بوري و
ساب قات
خر ف
الزر كون
وجعل ها
لم هرجان
سليم اني
ج وني
المسرح ية
أوز بكستان
ميد انية
كور دستان
الن جمات
از د
وم واقع
لل طي
روب و
أر ز
20 25
ويش مل
كل هم
مو فيز
حل ها
الخ واطر
الأس رية
است ثنائي
فاير وس
بأكمل ها
التشكيل ات
الأ علاف
النظ ريات
الم يكا
طل بيتك
إم لاء
العب اسي
مس ين
واحد ه
و هب
أو بر
تح و
اب حاث
أع اني
لل جدل
نا ع
الفلا حي
بول س
المن حرف
الن بو
وا ضاف
تر شح
القل بية
سب اقات
الهو ى
لاين ر
قد مي
بط نجة
الم طرية
الأق راص
ور قية
وال ضغط
نظ ريات
الموريت اني
ألم انية
ب مستوى
المدف وعات
مجاني ه
لل إدارة
م علقة
للع راق
نا دين
سل ندا
رك اب
الإ ضراب
لح جم
التس امح
لمن ح
ت يسير
المودي ل
شا يفك
سب با
ع ريض
19 64
حر جة
الكر سي
الروم انية
تط بيع
ناشي ونال
دع ونا
الك اكاو
عد وان
ب مطار
ور ط
ط حة
ص وف
الث مان
نز ع
ومات يكي
عمل هم
المحر وقات
الع ريش
وعمل يات
كل مته
وت مت
لر ئاسة
والر بح
نق لا
ص غر
ود خل
أخبار نا
الأم مي
اغ لاق
الصالح ة
الا زمة
وت عرف
وام ع
المذه لة
المق اطعة
المق اس
وا صابة
شى ء
الس تار
لل باحث
40 1
الأع راف
وثق افة
مكث فة
ص وب
ن ضيف
ومح افظ
ع ياد
وت وصيل
قي بات
الهيمات يت
مط لي
الك ذب
الد وائية
الم عني
شاه ير
بع ا
البي طري
الش كاوى
ور ون
وت عقيم
نا دية
لس وف
سي ات
26 1
ح قة
وري ين
اله واة
اع تصام
ريز ورت
سيل يكون
جاك يتات
تر بوية
ر وفر
يواصل ون
خر ط
الاست عمار
وف و
والب د
نا ضجة
الحوث ية
وس ريع
لل كسارات
الت طرف
19 58
الري ادة
الخري جين
28 7
رومان سيه
الأ سلوب
اب طة
ت بعد
انطلاق ا
مساهم ات
ه تزاز
مق وي
اق فال
كوا دور
شرم وطة
ل ضبط
زن ك
تك ري
الغ لاف
الا هلية
وا غ
في في
الحل ال
وش هادة
ذات ي
التص ريح
نظ مت
تقل ق
ؤ نا
الخر دة
وفا يل
ش ملت
59 0
ح كما
هو ى
3 21
وعنوان ه
اعد ادي
رفض ت
الإ رسال
مو بيل
النات و
والان ترنت
والإد ارية
ن ضمن
لل أندية
كين ج
جي لا
جمع ت
ترك ه
غش قر
ه واة
اي ز
الطرق ات
أمن يات
ب ولا
الد ب
الشع ارات
نائ با
الصالح ين
والش عب
الصيد لية
الع داد
بع جمان
تف تيح
موا هب
سح بها
ت زي
ت خط
ألم اني
مف خخة
س انا
الحض ارات
لل خطر
اش ا
وت قليل
نف وس
م الطا
الاست فسار
نا شط
مد افع
تستخدم ها
المسجل ين
وت ناول
من اء
حر مان
التجميل ية
تصميم ها
التهديد ات
ي أمر
ض فاء
يشرف نا
لت خ
الش اهد
لل قطاع
ع تي
الح ربية
الانتق ام
وتن زيل
وح ش
رمض انية
الص مام
ساح رة
نب لي
بلا زا
الديكور ات
الان تفا
شا ور
ترا ه
ل ملفات
كومات سو
إير اني
موقع ه
الكر وية
و اللغة
ل تمكين
وج راف
لح ين
قب لة
ج وانا
بع ودة
الأق مار
سي ج
المت بقية
الاد وية
الج ين
وم ساعد
مسم وح
ل جلب
بام كان
الع اصي
سي اسيا
الح ذاء
ور طين
نت يت
مج دد
مست قرة
الفح وصات
الض باط
مأس اة
ق اطع
بان ى
الضو ئي
ي سبق
لون ه
تع ذيب
الإ سم
و الفحم
ص واب
ي صدق
تت ولى
الغ ل
صي ح
ائف ية
الس ند
ه ين
الك ريستال
أم ون
مس مى
تقد ما
أع ج
فرق نا
مل غ
دع ما
العتي بي
دي ت
الك تف
لس نا
ص ارت
تفض يل
تنفي ذه
لك ورونا
حر ج
المع ت
وج رافيك
الش يا
الان هيار
عب ود
يج لس
ذ نب
ام ش
ع كا
خبر ات
تعرف ها
اللغ وي
الفرا ولة
ج ويل
إ بلاغ
لم علومات
تبع ا
وم واع
مؤق تا
مق فلة
اليور انيوم
المشر فة
م هر
كلاس يكي
عاش ور
ارتفا عا
ون ك
لم ين
المز منة
الر مان
وي بلغ
ا شر
إ قبال
الدين ام
27 3
الحج از
خش بي
إمت يازات
تحت ضن
واز نة
و وسط
المعل مات
ص ابر
رها ق
بريد ج
الار شيف
ارت نا
19 63
ذ راع
3 29
والمر أة
تم ريض
نشر تنا
يل د
زجاج ية
الت اجر
عبد الفتاح
ي ولد
ك ائن
تل و
يمنح ك
تغير ات
الاغ اني
25 2
كل فين
ضم ونة
ت دا
ال ودي
كويت ية
السوي سرية
الشع ير
ال الوان
9 50
أو شحة
م كي
اب داع
كول ونيا
خمس ين
المعد ني
يل ى
المول ود
أ هلي
ي قطع
حو ذ
الجوا زات
27 6
هن ئة
الإخ وة
و الكهرباء
إلكتر ونيات
كم بوند
رب ك
بحث ية
فر وشات
الإن كليزية
منه ور
لل طب
القط نية
الغ ن
مدون تك
ضمن ها
تسب بت
العب اسية
ول ذا
الأ جرة
تس مع
يكت شف
جيت كس
تح ذف
رياض ات
للإ شتراك
ا يقاف
قف زة
المرغ وب
الإجتما ع
أع جبك
فلا شة
عرض ا
المن بر
ي خلق
مق سمة
وظ في
ل انتاج
ب زي
الب ال
73 17
الج سر
23 1
تلق وا
والس تون
بو ديا
05 00
الم تعاقد
الت ذاكر
يص اب
الح شرية
ماك ينه
بم هرجان
الر سل
أد بي
ن ذكر
ت وبي
قط رات
تقييم ك
مفر وش
ث نى
المض غوط
الحل بي
ش يت
اه ية
ون ين
الهند سي
الأنس جة
اد ارية
ي هد
الي سرى
الرمل ية
أوب ك
را كب
بو غ
الحسن ى
احتم الية
ن مر
ثل ث
الشرا يين
والت مرين
الموث وقة
مخ يمات
من ين
ق الته
تلف زيونية
لل سعودية
طل با
لل متابعة
د فاتر
الخ طي
تص لح
بإ صدار
ك وش
المخ تارة
الاد اري
المس ك
تعويض ات
المد عومة
الر فاعي
مر وحة
ف مثلا
جام عه
يت وجه
لإ يران
الح فاضات
الأع ظم
للم وظفين
ف واتير
تد ون
ا قدم
اس كت
البطاط ا
نس اعد
ع وبة
ريفل وشن
البلدي ات
لل تش
خب يرة
اض رات
مو اسم
المفر وض
والم ص
الت مور
الإ جازة
الأع ياد
نش طاء
المكت بية
الق اهره
عن ق
تث ال
يت وج
ق اسية
وان ع
الته اني
ال ديموق
كت يب
لأ على
النس يم
النبي ذ
المز ار
الصد مة
الأم ثلة
بال فيروس
ج لات
بها ء
16 05
لل قاء
كي فيه
اللغ ه
والح ديقة
المز ود
المت طرف
والتح ديات
ت وض
سي ح
ورس وله
لل اشتراك
المنش ورات
هم ات
أص اب
وك ثير
ش كاوى
المناق شات
والموا طن
وأ حد
السج ناء
برا طور
3 36
وت فعيل
016 404
ر وف
ت ضاف
المص ادقة
وات خاذ
أمس ية
للت فاوض
أ له
سي بي
اله ات
والن جاح
والتج ارية
يد ويا
الاست عراض
والإ صلاح
جام د
الك سر
أ وم
م بت
ج يرة
يص لي
لم سات
ثر ية
الملا حة
الشحن ة
است ن
مكعب ات
الن عناع
الا قصى
أس لاك
تزا منا
الم لاك
ال التهابات
د فل
تر حيب
تحر ص
لذي ذة
الحقي بة
اس طوانات
واست متع
ت يج
37 8
والع اب
الع مق
فن در
ام بوريو
الحقوق ية
أ سل
19 54
ب واقع
المفر وضة
وي وم
ل ولاية
العام ري
الاس د
ين مو
وق ا
ل مرحلة
ب غطاء
شي وخ
الأم امي
قس د
تطبيق ها
فير اري
بأن هم
وال هواتف
ميتس وبي
موض حا
والف نية
اذ ن
ف ام
عبد الكريم
سه لا
لل منتج
اد مية
اخ فاء
وك ادو
تت ألق
ف نا
والم سلمين
غ بة
بتد ائي
الح نبلي
جر عات
ئ ب
لم جرد
ت بت
الفريق ين
الحضر ية
و وثائق
الرا وي
الكومي ديا
ح يفا
عام ه
تمث ال
الل واتي
الر واتب
بس ام
أت باع
وت ريد
ق اعات
اري ستون
مست قر
لل آخرين
جم الك
يست دعي
الإث نان
اري ال
قادر ين
ص راف
لن ها
ق شر
منت ظم
و الاختبارات
لل تحكم
تلمي ذ
مه ورية
الم خططات
المحام اة
الاسرائيل ية
يح تج
63 14
غر د
ب الث
عاد لة
ح يلة
تض طر
والتلف زيون
المها جم
السل اسل
وتس ويق
والإ كسسوارات
مكت به
لل تق
ال وضوء
وك أن
إعلام ي
حض انة
سي ب
ح ش
اس طح
موافق تك
اف تها
فا كهة
اض ى
العم لاق
الم ذاهب
الص لا
ج سور
تر جم
انت يل
المعم ول
مز اج
ح صد
ب القطاع
ح ماد
ها يتي
ر مال
اه تزازي
إل زام
الح بر
يق اظ
30 3
ف ارد
ج اذبية
ب السودان
الر ئة
البن طلونات
يا ها
زم لائ
47 0
مس اكن
بط ت
وت لك
قال يد
اشتر وا
وم تى
ل آ
تل بوري
است اد
يح تل
نش أة
الموا صلات
الممكن ة
و حيث
ن واة
ملا عق
شك لة
خدمت ك
الك نائس
الشب هات
د ماغ
ح مو
منا ورات
إخ بار
4 45
ودر اسة
ما زال
يت راوح
الب رق
أم لاك
الفلا ش
الش وائب
الغ ار
ناس فة
قاد را
الس حرية
اب ان
الق يادية
تق ط
مر خص
الش نقي
يط اليا
الل وحية
والق صور
كن در
تلا وات
ب فستان
ايك يا
ٱ لل
مز ورة
اجتماع ه
و وفاة
ل ينا
يم تد
تاريخ ه
تهديد ات
19 65
وجي هي
37 3
ب أسرع
وا في
الف اش
وب ير
ل يمينغ
ريج يني
وأ ه
ب المواضيع
النج اة
الس ائدة
أن مي
الول اء
قرط اج
38 1
ج ادة
الر مة
ائ يا
ل تشكيلة
ج افة
اح نا
للتج اره
ي خطط
لل قراءة
بإ ست
ألب انيا
عي دي
س انيات
29 6
إحص ائية
و الحرية
الآ ليات
ش ائية
الفر امل
بإ زالة
ال ولد
الط ائي
بر مود
الامارات ي
تها ء
الموث وق
مفع مة
تت أثر
مناف س
المباد رات
الفق هاء
الأ تراك
لل شرطة
تر وي
النظ ارات
التج ويد
ب التعليم
الا يميل
جوم يا
تنت ه
تد شن
بال يد
ف وا
سي ارته
دل الات
بالق ول
الإلكتر ونى
قط ري
الع از
مقر ها
ب ثلاث
٧ ٠
5 20
مص ن
العج لات
مكت وم
ت ظاهرة
يش تري
الماث لة
الجيز اوي
أنا قة
وجه ت
بالن فس
ه ذ
مق تط
علاج ية
قط رة
القاد سية
37 6
رم سيس
العن زي
الحص ان
خصوص يتك
الف ساتين
وم ط
ث وان
سا كنة
ا ولي
طبا خات
الده انات
الق سري
وال رياضية
ب الحصول
بس ون
وز ارات
عداد ات
ت مي
وش عب
الت زلج
ند عم
ها دات
الز لز
الد بيبة
79 44
بار دة
والأ نشطة
لت قييم
ك ومن
ص ريح
تن زل
الف صلي
الر ض
لل شخص
الحق ن
50 5
المقد سي
دي لي
وأ هداف
الاخر ين
بر كات
والم سا
ما يا
عش وائية
تن بيهات
الجس دية
الإد ارات
وم ميزة
والعد الة
مست وصف
سي سية
ج رافيك
تق ري
الض خم
ون ست
الوس اطة
النف وس
نظ مة
عص ابات
الس بيل
ال رافعة
والاست فادة
د وف
ث يوبيا
وا قية
ت خطف
المز من
ي طل
ث يان
تق طع
لل مدارس
ل ئ
اخبار ي
ي ظل
وي بدو
ل أحكام
579 4
الاختيار الاول
أكادي مي
التأثير ات
إنج ليزي
بالأ رقام
مس الك
الد راجة
بع ه
الفني ين
الخاط ئة
وال آخر
تمكن ك
ق راءات
حبي بات
الميد انية
المراه قين
الك ين
اق رب
يا جي
اللح ام
وه ة
الخ شن
٤ ٣
تس أل
ان طلاقة
بالك لية
الخ ال
أولمبي اد
المقر رات
ننصح ك
ب صور
ب انتظار
صغير ه
ذ الك
ا يفر
جي بة
19 56
هن ري
ين ص
نج يم
ن واف
لا جل
تج ذب
آ سفي
الفرق ان
تي وب
ت وصي
جم وعات
الم سنين
الاند لس
واق عي
آ باد
م وجه
لم رة
الض ريبية
الت يتانيوم
49 9
وجاء ت
وال شرطة
عفر ين
د لع
الإ طلالات
وع ق
حس نا
اد ها
يخ تص
نق ابات
م به
المع اناة
ك وال
بيل ار
مساح تها
مراس لتنا
تت واصل
المر جح
ب أداء
و الخاص
للأ على
سب ه
ب تركيب
الن بى
المؤ هل
را وتر
انس انية
تص عيد
ت تصل
أك شن
لل واتس
الفي حاء
مونا كو
مش عل
طن ط
روائ ع
مت فا
را كش
الص بار
أع ماق
و ون
بين يفت
المع طيات
وب ى
مشار ك
التأش يرة
أمام ه
حدود ها
5 30
والف ضة
اق ول
م وع
المغ نتيت
الد اكنة
الثلاث ية
يس ري
ل مد
السينما ئية
وت ضم
مها جر
19 20
و الجزائر
و ذة
ل بي
وي وفر
والف لفل
سب ير
ف واز
55 5
الط اهر
أب شر
ق ائل
واست فسارات
الع اش
بر خصة
لل تصميم
ومق الات
روت انا
الص قر
الد عا
الور شة
الش ياطين
ي وضع
ب الصوت
الهام ش
النق ض
يا هو
نظ ارة
لغ تي
بد ين
السي براني
هر ه
يق ات
المري حة
الشنقي طي
ب رائحة
لح فلات
الفي زا
م خطوط
وم شروع
الخمس ين
مح ليات
ب وبا
ب هدفين
م مي
ت ولى
ريم وت
الم رق
وض ر
الم دي
والأح داث
مس جات
انست ازيا
النس يا
الاش راف
الخط ية
التد وين
الأ جور
نان و
ح بات
والخ ضر
لل أفراد
فخ مة
النف وذ
ح رائق
أ يفون
تش ن
والب رد
ترا عات
تج ه
الاح تيال
اك و
دوا عي
اث نان
الث ع
ب تعديل
كري ليك
الك ائن
الاست وائية
ت يس
باست عمال
الفي درالية
ن طق
ل ينة
تي ارات
اختيار ك
كول ن
أول وية
والق ص
واع تقال
المي ث
متفرق ات
الج راثيم
لل هيئة
أع ين
الم وج
ي ابة
شور بة
احتيا طي
تصميم ه
م ابين
بال ض
ور كوب
مت ظاهرين
قدر ته
ظ فار
رف قة
السر ط
أرق ى
والر وايات
نق ية
مقد ونيا
الأ ديب
ب منع
والر خام
لف ك
وس اطة
تمه يدا
المح ب
ل خط
ت وتنهام
بح ار
شغ الات
اس كندرية
الي ين
ض ان
الن قص
متوا صلة
الت فعيل
الر وائح
60 6
ه ذي
ب خدمات
موك ب
الار قام
عج ائب
لل عبة
تد ال
وي ظهر
المست لزمات
الس طور
ي أ
لل محكمة
في ليب
فر وش
ع شب
الأ علام
خ ياط
تق ديمه
الأور بي
اع طال
الس ك
الذ ئاب
بس وق
بالش فاه
النه وض
القد وة
البرلم اني
إن طلاق
الروح ية
و الأمان
ف طار
حمد ه
المص نوع
خدي جة
المص داقية
و 7
دا وود
لا ز
والن ظام
الرئيس ى
التسجيل ات
القص ائد
عم ارات
الماث ل
الش اذ
اث ي
هي ومن
غ ارات
بلغ اريا
برون اي
بال بيضاء
الص ديقة
ون يسية
طم وح
تح ض
الت راجع
ا وقات
3 16
بالأ عشاب
النق ابات
الصد ق
أم مي
مسند م
اد ين
مؤقت ة
لد ورة
العد لي
هدف ها
تعرف وا
الشباب ية
لح اق
سيت ى
ر قيق
الكني ست
وي جعل
زا وي
ج اس
القرن فل
ا يمان
قد منا
العتي قة
التس رب
مناز لهم
مطالب ات
جام عي
ت طلع
35 8
بود ن
ته ز
المد مجة
فني ين
مز يلات
بي لية
اور اق
38 5
والد ولة
والإ علانات
الفر عي
الح اكمة
مش كله
بم أرب
د فن
وتش جيع
كي ري
ب لك
العطل ات
28 9
الع يادات
وا كب
ب صر
الك بري
الت سمية
لس ة
تر ع
الخ لل
ن موا
كل ثوم
الل باس
ودي ع
جوه رة
أ علق
قر ون
الت تويج
التفا علي
منا ظرة
الض وضاء
الدول تين
عذ اب
ب صح
ل اني
لل عقارات
لس وق
الإ براهيم
خل طات
بد لة
است ه
29 1
الم راقبين
التوتر ات
الأف غاني
اص طنا
السين اريو
الأص غر
اختي اري
والم واقع
التكنولوج ي
ال التحاق
ذ بح
1442 ه
ب المقارنة
والشت ائم
الس اعه
التخ فيف
وت ز
لك ز
الالم اني
40 7
واللا جئين
مي امي
القر ين
الش مع
88 0
ل وي
والأ كثر
ست ق
دين ام
التن بيه
شف افة
الأس كندرية
نج رة
الا كسي
ود و
نامي بيا
غر وب
بم كان
ح والى
الاست شاري
ز وم
بس جن
احتف اء
اللاذ قية
ل خلق
إي صال
مست خلص
ذ با
من قول
لم شاركة
القل عة
الإنج يل
يح صد
الروح اني
الاست عم
والح رس
وبر مجة
و واشنطن
خ وض
اللاس لكي
ويل يام
لن دي
لط في
ث وب
اصد قائ
عق يد
المستوط نين
لل نبي
والأخ لاق
أعط ى
الع اجل
الأنا قة
ساهم ت
الا كل
06 44
مع جزة
بين غ
الغ ربة
أج اب
والج امعات
ن عرض
00 201
د ز
14 34
ون سبة
ر ماد
بالخ رج
الت كت
الإ حساس
السويس ري
استح قاق
موري شيوس
بي فر
المت واجدة
عبد الحميد
جم يرا
ث واني
ب الحساب
وائ ف
للاست فسار
خ نان
والق يم
ما ة
خ ضع
أو دي
خ فية
والف كر
منت وجات
يق ترح
الرا هنة
نا ج
غيز ستان
الط اب
الب س
بإ ح
الح داثة
وس كر
الت وثيق
ص قة
وق واعد
خ وفا
م يرة
خل قه
البق اع
لا كتشاف
والم نش
الفار ق
مد ينه
أن شط
بن يت
فريق نا
عش يق
سيد ني
الاله ية
رؤ يته
لكتر ونيات
تؤ من
19 72
وي منع
وك لي
والإ نج
التليف ون
يان غ
بالن شاط
ه اما
كيلو غرام
الي هودي
الكون فدرالية
يز ات
الاخ تراع
مفاج ئة
كي اس
أق ترح
والج نس
غرين يتش
صنا عه
ون شاط
غرين تش
بوك و
القر فة
الأ ث
نجاح ا
مو اسير
لط الما
لل مطالبة
المين اء
نض ال
دبلوم اسية
اغ واي
مترجم ه
ث ب
ن أمل
ش حات
الي اسمين
الن واة
فير وز
المر شد
أع اد
س ائلة
يش تمل
د ال
يستخدم ها
مع قول
أ ضغط
لل بالغين
مج مل
غس لة
أن قذ
وك ريم
و 8
شه ية
ل نتائج
سؤ الك
دخول ه
تط رق
بجر وح
واتيم الا
مح ي
نع ام
ح راك
ق وارب
أراضي ها
009 05
اك يد
وصل نا
الت شي
و أكبر
تم يل
الأ ون
غ ف
سعر ها
يش اهد
وي عود
مي سين
رم زي
است مع
والش حن
جي و
ست حتاج
بالمج ان
ل تمويل
م جرى
عا شق
سل ين
الغ اية
الطل ابي
و القدمين
بي قي
بان ه
ل وائح
الوج وه
نف خ
لك تاب
تك اف
أخ يه
ال امل
غر ات
سخ ان
ي خطر
ستخدم ين
است ماع
تح طيم
الب عيد
موس يقي
بط اط
مقد مي
وك وريا
غط ى
اد سنس
خ اخ
مد غشقر
ش نق
تنت مي
است ضاف
ومتن وعة
م كرم
شل ال
د عاية
الكون جرس
الار اضي
ل رجل
الم ولى
اسلام ي
بالق وة
مي كس
أي هما
خبر ه
السلف ادور
الإل هي
المختص ين
والم سلسلات
نس بي
وز يل
الش قيق
للإ سلام
شقيق ه
والن اس
الع نصري
لي بر
دائ ري
شه ود
4 37
الش اغرة
الح ش
ومح طات
بد اد
د جن
المست وردة
العمي قة
الإس راء
وج ان
قض بان
تجن يد
بع ضا
4 21
يحي ي
البوت اسيوم
ع ير
مج انى
رأس ية
الح زم
قنات نا
اس مع
م وحدة
لت وظيف
جي انغ
الس نية
التأ سيس
الكر كم
إع صار
مكان ية
و عل
وال ديكور
وأ ص
اع ثر
ل مر
الط اقات
الأع زاء
بع دي
بر فيوم
هار فارد
المد ونات
اص نع
أعم دة
والق وانين
بش ارع
وص ايا
المح اصيل
واق تصاد
طع نا
إ حساس
تيا زات
الحل بة
والق لق
والت نظيم
ام ها
المب تكرة
أمر ه
ويد عو
إ مكانيات
والق يام
الالتزام ات
ب بطولة
مت ار
الب لج
010 6
ف افية
الأ غلبية
أث را
الك افية
الله جة
يس كن
عدد هم
سا كو
أن زل
يش غل
يت علم
ولد ينا
والت خ
عم لاقة
ن حب
را وى
بنا دي
يجعل ك
كوم ار
الإحص اء
في ق
تخ لي
السعود ى
يس را
م وجات
يم يا
ير تدي
يات ه
لك ني
هي ج
باب وا
5 40
36 6
جتما عي
ج الس
بطاق تك
وه ند
نوع ين
مسي حية
ح وا
ليس تر
ست وديو
النق اب
الف ندقية
والاب تكار
ري كا
رات به
والمد ارس
تع ام
مركز ا
ف لاح
عب ئة
سن وية
قيم ين
والكم بيوتر
دي ار
از ات
لاست كمال
را دي
تأسيس ها
الاد مان
عسكري ا
ال والي
60 1
الكيل ومترات
آ باء
ي تحقق
الفارس ية
الح واجب
لع ق
ث دي
الم ئوية
القر ون
والع نصري
مر ضية
ل جائزة
الاشترا كية
أعد اء
27 7
مع ق
الف رض
ن وافذ
ب شروط
ل طلبات
عل نت
ت يلي
والت قدير
سب ان
و كت
سوا حل
بيل ين
الكم امة
5 65
عر ش
دفع ت
قر ان
ق شرة
و خلق
نيم ار
ط هي
المت بعة
الام انة
از مة
بس حب
الزه رة
ط انيا
بإخ تيار
خد ع
حف ارة
الأ عداء
فيس ودان
بي ده
م بيق
تت خلص
الجنسي ات
منا ولة
ا وفيس
وغ واي
لل سلطة
تلف زيوني
الشف افية
الاس باب
و الخارجية
ومق اطع
ل جماعة
تس اؤ
نون بر
الخ صر
والع طور
ب اسل
وغ البا
الد وم
يت لق
كور د
تأس س
القائ مين
تق الات
القاهرة ش
الت وصيات
راج استان
الت نس
ب جنوب
المط ورة
لي و
ب كتابة
الآسي وي
لل مرضى
لح سن
الهرم ونات
21 00
المب للة
ملل يمتر
و العربي
بر وم
مج نون
يات ها
ي ود
انتر كم
وقص يرة
ريم ير
العالم يه
ح ربية
الأ هل
ه وتل
شوك ية
د ك
بر ن
الاح تم
وك فاءة
يت أهل
تح ق
و إد
الم تم
28 3
الأر واح
مناف ذ
مت غير
خر جات
بح ب
ان قل
الت لاعب
إ ضافات
والق صص
الميد اني
والإ علان
المج ارى
فق رة
ظ افة
بي سي
الم وانئ
الح كام
مؤ كد
الد فاعية
اع جاب
3 35
مر طبات
المكر رة
است علام
الرياض ات
وف ه
ونت ائج
19 62
يس تر
ي بعث
والمع اهد
والأ راضي
ر كب
سم وحة
بود ونغ
ويت ميز
تم ور
ق راض
توس ع
تك اك
ت فاج
الفر وض
وال وطن
ير كز
ل تشجيع
الأخ وة
وت ونس
مح اسب
الش هور
مت نوع
الحالي ين
الأنث وية
لل سوق
واجه ت
بار تفاع
الاع تقاد
قص ه
ش دد
بح والي
الح ا
نا و
لل محافظة
كوب ري
مسير ته
لور ان
الف ان
وج ديد
الغاز ات
الحص ن
مق اتل
مخر جات
أثر ية
كت ريك
سود انية
ف علي
19 55
الكي ماوية
الإ رشادات
وم وسيقى
والم وسيقى
الم متلكات
ال وصل
المص ور
49 0
وع مر
ش بين
ب جده
المح اكمة
وس ين
المغني سيوم
ط ظ
سي ؤدي
بالا عشاب
وم ينا
زجاج ات
راق صة
ترم 1
الناقل ات
الت أويل
ب قطاع
والتق نيات
غر نا
هي منة
ال ابعاد
واضح ا
المق ادير
بح فظ
إ جاب
سل ال
كوست اريكا
صحفي ين
أز واج
ز ايدة
تن شأ
را يس
مع ايا
تك ثيف
لت اريخ
المغ ار
الر خصة
لل عيش
زوج ك
بر ش
الن خل
الخ اض
وب أسعار
الص فا
اك وام
والع املين
للت ميز
ص فاقس
وتق نيات
كلا هما
غ اري
و وزارة
اف ا
الشم الى
مي دة
غي انا
الن يران
ور صة
رب اب
الت وضيح
لند ية
لم ه
حيا ز
بور كينا
وم صانع
قائ متنا
وإ رسال
ون ديال
والت حديث
التص ادمية
الأس ابيع
را قة
ر نين
اي خ
وس بل
والح ب
الي زابيث
أنواع ه
ثي وبية
الم بذ
الج لاء
بالق انون
ل كسب
الماك ينة
وش باب
ميتسوبي شي
للم قدسات
ظ لت
اغ و
أن ظار
وت ساعد
بار بي
الملخص ات
الكرب وهيدرات
الاد بية
لل خدمة
كس رات
الموا جهات
وأن شطة
قس ط
جيل ي
تت ويج
حن ى
وال شركة
العد سات
وائ ه
بع قد
النا خبين
الأ ري
التل فاز
موقع ا
37 1
لتح ضير
كر دفان
3 59
ع ربات
29 2
تا غ
المح س
بر باعية
المه تمين
في كتور
بك را
المق ابلات
الت رقية
40 6
قطع ه
بك أس
يست عيد
به ارات
ان قاذ
جات ا
بي هة
الق فز
عري ضة
أع شاب
المص ممة
الإ ذا
ك وبر
ضي ري
الغ سل
الل ثة
الش ناوي
ب خي
للأس منت
لل منتخب
غير ك
المستخدم ون
والس بعون
والع ودة
والد تها
الان قل
ن نسى
تجد ها
الع ف
دا ه
شب ان
هو امير
طر نج
الوج هات
الل ذين
إ يجار
بت اع
آ مر
والح كم
ه راء
د فا
والت كامل
المرح اض
التفا ضل
ل خفض
كن ج
الع افية
اح كام
وال زمالك
ب إن
كا و
الف عالية
بش مال
ي خط
خل دون
ود انت
ل صاحب
بار تكاب
اللي بر
ق ياد
اي ديال
الم وجات
والث مان
يص ير
المر ونة
سب ها
ز هات
الأمن يات
قتل ه
يت كلم
يت ولى
للح رب
تر ونية
الأق رب
ان ض
ست حق
نع تقد
ص ت
الإير ادات
الس ائبة
ز ائد
تجعل ه
اله ل
37 4
3 34
ش فرات
تم وت
الخ نزير
را كم
عن ترة
الش رائح
غز يرة
الم اري
65 5
ق وقل
التب ويب
ا عدين
العاط في
الص افي
غير ت
المصطل ح
المؤ كد
الاع تقال
لف ترات
انت به
الط رح
جمع ها
المعل مة
بيفر لي
ب ريق
19 40
مرغ وب
المجه ول
اق راص
الصد مات
أر غب
ن بدأ
ت أييد
يح بون
ش بهة
الور اثية
بر عات
44 4
سب أ
السالم ية
الاخبار ي
آ ء
فعل يا
عود ته
المع جزة
مح توا
59 8
الكري هة
سان دة
الا حمدي
الاست يطان
وج ها
التط وعي
39 4
أع رب
وس قوط
لأن ظمة
سم ان
أنج ولا
تنا زلي
مو هبة
حلا وة
الاخ تلافات
19 30
ارت ين
ب مكونات
كا يمان
الن ب
الساح رة
ي بين
فلي قة
مي شيل
التص ريحات
وا و
مبر ر
الف ضي
ض ت
الات جار
مش ين
للح ديد
فاس و
الأص الة
والم طاحن
المنا فق
تد ع
الع بيد
ال وضعية
19 57
سا ياجي
ار ضي
مش ير
الع شرون
اخ تلا
اله زاز
مير ال
را جم
ب الشرقية
المق اطع
المدف وع
والم عر
ست يك
6 60
ع كار
باخ تلاف
حم الات
الجمر كية
أ لغ
يل جأ
طالب ا
لل طالب
ل تركيا
النا جمة
را جل
الكوا در
والع رب
ك ويك
د اليا
ف وضى
التر ميم
وفي نيا
وف رض
لات خاذ
تا كسي
وف ك
الج بر
ل هاتف
العمر ان
تهد ئة
المط ور
خدمت كم
ب أفغانستان
الميلا دي
و الرئيس
سل س
الم جل
التل مي
مسؤول ون
ط وس
الذ كريات
الح بس
إستر ليني
ملائ مة
فائ ض
التد فئة
الق اسمي
الص يادين
لكز س
مفر وشة
لل مصريين
عين يك
بت ون
الط حين
الر بيعة
مش كور
مد مجة
إن شا
ميلا دي
وإ ضافة
سحق ت
يج ا
إف طار
المس يلة
التعا يش
ود ولية
سام راء
29 5
و السيارات
ور ب
30 6
مت تالية
جي وب
الن هج
اص ول
حبيب تي
التر وس
السي ول
يت كرر
لأ بي
در وب
تفجير ات
أج ود
ناب ولي
مر وة
ض ه
لعب ه
الكول اجين
سام وا
يق تح
والمط اعم
حر اس
نست عرض
بر وك
م بكرة
ق جي
تحت في
ان م
والا علام
ج ند
ت سي
أن تي
6 80
لتأ سيس
ا منية
جائ ب
أمام ك
و الخارج
الج اد
و الحركة
الد وا
الأ ثنين
بأكمل ه
صر فات
الاخ تراق
الاب حاث
ومن ظمة
و الخدمة
نز يف
لل نظر
الح اسبات
نه تم
الأ صيل
تش غل
الش كاوي
الأطل سي
بوز يد
38 4
مع بد
المن كر
الد اعية
ي وري
وب نات
ارج اع
سل سة
التخ فيضات
من اش
وق بول
والت عليقات
مكن سة
شارك نا
واست قرار
الأس رار
وحر ارى
تس ريحة
بالع ودة
واد م
نبات ي
بر ص
ل تنزيل
بر وفي
الص ريحة
جوز يف
وبري طانيا
لج ذب
د ها
حجر ية
هج وما
لل برميل
طبي بك
بد نية
المع جنات
الصار وخ
المح امل
ن وار
رق ما
المتر و
الش قراء
المرف قي
لاحظ ت
الك ان
الزائر ين
طبي بة
تيم ور
الي كتريك
الوز ارية
كع كة
الفص ائل
الإن ذار
النف طي
المط ارات
ال ضرورة
يل تزم
وان ما
رب اعية
العم الية
وأن ظمة
عش ية
العبد لي
ساء ل
تح ظر
مخد ر
تج سس
ير جي
و الخبر
ف لفل
نفذ ت
اس هل
مص احف
كات ر
راص نة
الص مود
لات ستطيع
الا ضحى
الأصلي ين
لل جمهور
غ لي
الكي انات
العص ري
اق ير
مت كرر
بش ارة
مع تدلة
العاط فية
الض حية
الشم وع
فق الت
ضا غط
حل ه
ه وليوود
بر وابط
ب الأمر
روح انية
بأ همية
ب زيت
الص اوي
وت جنب
مج يد
لل عطور
بح جة
ب المدينه
الع جين
الت كامل
الأسم دة
والن صوص
سلوفا كيا
ب بطء
الرؤ وس
الصل وات
لت خزين
بوت فليقة
التد ليك
والن فسية
مض يف
ر تب
الك أس
ال واقعية
أ ضيفي
جذ اب
است يعاب
كتاب ا
ز ويل
حل ية
الكو ثر
طق وس
الأخ ري
كت نا
بر اند
المشار كون
التس هيل
البحث ي
للان ضمام
وص احب
أهل ها
ضاء ات
خد ش
الأم ية
ست تمكن
مط بوعة
ب ليز
الا ث
وس اخ
تن ال
34 6
الأذ ان
الح بار
تست أنف
الض مير
الارد ني
ك حد
الع ربة
اط قم
الط هارة
مكان ك
بر وفايل
المؤ هلات
وت دعو
و الكتاب
ظاه ري
بط بعات
ب كتاب
التم هيدي
با طن
وق وات
والمنا ولة
تخطيط ي
وز و
ذ كري
لس د
عين ه
تد قيق
السعي دة
الأن سب
الق امة
والت سع
تس امة
الداف ئ
أ تم
خ وري
4 08
قد اسة
وإ جراء
بر وح
الم سبق
عمل يه
ي وان
سي ك
المحاس بية
وي قي
تع اطي
المت عدد
لت زم
م يا
لق ائه
رين و
خاص ا
ك اسي
الح ادثة
ش ئين
ثر وات
الاند ماج
بتف جير
الأ ي
وتح ديدا
سير فس
مت زايد
الب ريمير
ي صر
ع فاء
تنا زل
الت ظاهرات
الأق باط
المز ارع
وآ داب
شي ال
أس طوانة
وأح داث
ع زام
المح مية
الري ان
7 000
لت وليد
زائر نا
الق والب
التر فيهي
يتر تب
مقط وع
والم صادر
را خ
دي ول
ب الإنترنت
وم بيعات
الت اجي
ير حب
المترا كمة
الساح لي
الاع تراض
والث روة
قائ لة
حي ه
الم كلفة
استح واذ
أ يد
التق سيم
الفي درالي
يحتاج ون
رب ون
الا يمان
أست ون
سك وب
أع قاب
يج دون
طبيع يا
الغ دير
وجد نا
تح فيظ
الإ كسسوارات
س اي
د عاة
با قل
الي ق
ب الأحذية
وض ي
مح تمل
موا طنا
شه يدا
حا ويات
فض ائح
بالن شرة
الشمر اني
الر زق
تساؤ لات
ون قلت
تقد ات
ي كل
المثل ث
ان دية
أس ير
ري هام
لإ يجاد
ل تركيب
النبو ى
فلسطيني ين
صح يا
السط حية
إنست جرام
00 2
طم وحات
اس كا
شي ماء
المل حقات
المت نا
أ كن
3 24
ب مشاهدة
40 5
مل تزم
بال ضرب
للت و
الس مات
ال وع
إيه اب
مب وبة
ت وعوية
جن يد
فه ى
28 5
والص ابون
هون دا
المخ الفين
الث ورات
ب هيئة
أهداف ك
ر دة
را حات
الد ير
الأ خص
قذ يفة
مل صق
مد و
بان فجار
يست يشن
الك ب
ال وصية
تلا يت
وبر ين
مثبت ة
تناول ت
اع ترا
3 47
27 2
و يلة
مز خرفة
باه ظة
عاط فيا
ت وكل
وال وجه
زب ائن
الت عمير
ل تج
صديق ه
ار بين
أجن دة
وج امعة
الرؤ يا
وتع ديل
وت نت
نز رة
م ولة
الد سم
وصح به
لل اش
عل ف
شع ري
فور مان
يل يق
ض ده
السج ائر
والن حاس
تق صف
م ظل
والنبات ات
لل كلاب
الشر جي
وم شاكل
والم لح
طلق ت
تص ويت
اتفا قات
لكن هم
ان ني
وب حث
لل فتيات
شار ه
العج مي
كم بوديا
وال امتحانات
مغ ذيات
شين ج
العبد الله
الإ ضافي
إ تش
متاب عي
جل اس
تحدث ت
مسؤ ولا
منطق تك
ا كاديمية
الح ك
لل ترجمة
الشري فة
الح سنة
الاب تعاد
للإ نتاج
لائ ع
كوم ان
ب تكوين
الح ديدي
دور ى
وف قدان
لل صيانة
لل تحالف
غ الية
ت اريو
التس عين
والن قد
شي كل
تبر ع
وص ورة
مسل مة
ز وايا
الم بدع
مس ن
شاب ا
استخدام ا
لتق وية
طار يات
الأور ام
البروت ينات
والر عاية
لك بار
ث واب
ابط ين
ي سب
وطل بات
وال زيوت
الل يلي
من فر
بالج امعات
وت ؤكد
فظ ة
وأ وروبا
تاب لت
التد بير
للب ترول
كت يل
بني امين
الس هلة
و الشيخ
ب وج
ريب ان
العاب دين
اط ئ
الع ينات
السف ارات
وم ميز
والإسلام ية
مج نزرة
ري دي
با زار
والق وات
صم مه
وار دات
مذه ل
ل غرفة
ح وم
مو بي
م اسي
حصول ك
قل الية
ج لى
ئ زر
مت زوج
الض بط
يؤ ك
أش به
ا علم
لل تطبيق
إف تتاح
ول ت
ز راع
الرائ حة
أ ورد
دا ق
فجر ات
يت عل
ومج تمع
ش جاع
ج بن
ش ادات
الع طار
يخ الف
ص ون
ديم ير
أ بسط
طح اب
وم يل
شباب يك
تحت وى
ي أت
معالج تها
ش واطئ
الإرهاب يين
٢ ٩
رائ عه
خ امة
است قر
37 9
وحص اة
است جاب
ع ظم
رج وع
مفر وشات
أن جلوس
بور جوا
أتل تيكو
بالا هتزاز
الأ وز
و أمراض
التج فيف
لكن ني
ان تحار
الك فر
الع نا
أز ق
تتح قق
ة ة
أ عمل
تجرب تها
ر اسل
اف غانستان
البتر ولية
رب حية
رأ ينا
حم ى
اصط دام
فا هم
حر ر
الع ديدة
مر وحية
لق يادة
أعد ها
50 4
الك ابلات
يقتح مون
نز هة
لل هندسة
الر عد
ته ان
العش وائية
ت مص
الذه نية
للبن ان
لكن نا
ح جاب
تش ويه
اغ ون
الوس يلة
إحص اءات
الق ضي
ون عمل
٤ ٥
دون ما
ب ثلاثة
السرير ية
الخلا ص
ووضع ها
ني كار
5 60
20 000
سا طة
الا صابة
اكت شفت
يد ري
و الصخور
جائ ز
ايج اد
اع ط
مح ادثة
صاد قة
س كة
تد اب
وتد ريب
استر اتيجي
الد مش
وكس جين
مق ص
برج ولات
19 39
منزل ها
التج هيزات
وآ راء
هد ه
مائ هم
ر واج
الهاد فة
وي جري
لل طلبات
الت جميع
وصح يفة
ار ها
والس كان
جم الا
آ يت
ح ناء
السائق ين
وقد م
وي قع
بر هان
التعا وني
تحقيق ا
وم شروبات
ك وارتز
ف كس
ز وال
وإ جراءات
لموقع ك
فرا شة
الص لح
لل سيد
أق صر
ل جهود
المجم وع
مست شفي
ف واصل
بين ة
ح سنة
ن تحمل
حول ك
وأكثر ها
المسم ى
3 17
المصري ون
مع اك
يييي يييي
ور كس
وخ لا
لوكس م
شروط ه
بي ساو
38 7
قص ب
جام عية
تست ند
بن كهة
الر قية
الأز هار
مل ون
معاه دة
بخ ار
تد وينة
الت كرم
لات ر
19 46
لأن ي
جز اك
فنج ان
لل عروس
تش ك
وت علم
تس و
أن فاس
وخ ز
رض يع
لافت ة
إ طل
أس ماك
ه ذين
شي شة
المج فف
ق طة
در اسي
بل ديات
يف سر
مف لس
ب ائ
الغ سول
التحويل ات
بغ ية
طب عة
المب وبة
وكل مات
والع ق
33 33
يستخدم ون
مك بس
رفض ه
التكييف ات
شيف ر
الار ز
19 52
عبد الوهاب
ط فيف
ط اولات
انتش ارا
حر فة
المصر وفات
القنا ع
28 4
حض ارة
الل عنة
الأك شن
يط انية
مسب قة
جوا هر
بق انون
لل دورة
أس د
5 80
ان تص
حضر تك
باخ تصار
اتخذ ت
يد عون
ور عاية
والج هات
جن ان
تك امل
وا دى
متعل قات
للب كتيريا
اند لع
الت صفية
لمت طلبات
ديد ات
دا ها
سل وى
المنا عي
الف صحى
الت رق
وش ع
عو ام
المر خصة
ب الذ
ب الأعضاء
الص باحية
يش دد
ح بر
الان بياء
لل تمويل
لل كثير
لح ان
ك أنه
الد لتا
والمنظ مات
أذ ون
ان يد
المع قدة
وم ثل
خاش قجي
الوب ائية
مت أخر
الح لف
وي ضم
الح ام
اش يد
انتح اري
تكت شف
النسب ية
و البحرين
ون ظر
ل تجميل
الق ات
الح وسبة
والم جوهرات
الي ان
الإث يوبي
ال ريد
يك ستان
المنت خ
بان كوك
لي دي
أسبوع ية
الس امي
هند وراس
ل زام
سق اط
الحد ودي
م بتد
مر شد
بحر يني
ميلاد ها
سب ين
بو هة
وب ئة
فرن سيس
مي خ
شكل ت
ال وضوح
ا شرف
الرا زق
ي بعد
المرسل ين
وصول ه
ود خول
الث ورية
أس طح
سعد اء
الصي غة
10 24
ش بيبة
روان دا
جيد ير
الألم اس
أ بحث
دوا وين
خ ف
بم وضوع
يم ث
بالق ض
الأ وكر
تقري را
ت يت
الغ وا
والم وبايل
قد ونس
السكان ية
الف واتير
تسم م
الثم ينة
38 8
مع مر
تخ ذ
والتق ارير
الس بل
سر عان
الأ ندل
ف ترض
الد قى
الممثل ين
الترم ذي
والف لل
لل أخبار
بد اء
اق تر
وال هيئات
ني وتن
بم راكش
الفق يرة
لل ام
طوني و
استنا دا
طن ان
مكان ها
لم بة
فري جيدير
المح ق
المر ضية
والأ هم
أف راح
لت أكيد
جنا زة
المؤ لفين
تجز ئة
ضم ير
خ اف
ط اف
شيك اغو
الغ ي
وأ طقم
و أيض
الود ائع
أم كن
يح ظى
و خصائص
مراه قة
قان ونا
ف تنة
الصد فة
العمر اني
ر عا
الك افر
هاد ئ
ز ح
المح اور
ب المزيد
والإ قليم
ع المنا
الأرد نيين
الاور اق
ك غ
خط را
تع ريب
وط نه
ط ينة
اي ها
٣ ٧
الجي وب
النك اح
الح فرة
اختر ت
واس ط
الحد ودية
إ يس
انت ا
اللح مة
ومش اريع
ا يق
أر سنال
و كتابة
ؤ هم
و الثالث
لا وي
ط اط
حجم ها
خي ري
الناز حين
الش يب
م وف
تس ري
والن صف
تل غي
ت مسك
نفا ذ
الشر ك
فس د
الظ واهر
هم س
ط الة
ترن يت
برنامج ا
الط با
التن موي
اض افية
والم راكز
التد ريبي
بإ حدى
ب قطع
الش وكولاته
الر خيصة
ونت يجة
ملتز مون
غ شاء
أل ياف
والا يفون
ب ارة
والم كان
م كرر
بال راحة
المعد ية
زاز ات
تق تصر
بض مان
الجز ئي
الامير كية
مي ج
الم باحث
مست وح
6 40
وت ات
في را
ترم ب
أع طال
الاف ريقية
سا وث
والع ص
وأح ذية
والم ال
واف ز
الإ رادة
14 33
و الرجال
المفت احية
وي ؤ
ودير ما
ل هواتف
ل صفحة
الف تن
الأندل سي
المت فوق
الخ ادم
المعم اري
الفيض انات
الص وفي
ون هم
ومح طة
ز ير
ش لي
الكر ز
اعل نت
ميل ز
لل برامج
ذ وف
اق وي
غرنا طة
شون ال
9 11
رائ ه
والم وارد
لل مسلمين
الإ شارات
الأ نعام
و علاوة
للاع بين
جم الها
الف لكية
الاست بدال
ين ضم
المتش ددين
أ مد
لاست لام
الأستاذ ة
وح الة
س طر
بري ر
مول ين
تنا قض
ان شطة
اسرائيل ي
59 5
ش وال
بوت ان
الم ني
آ د
تن صح
تش ابه
الخ يانة
الت سمم
إ قالة
لل كتب
المعل نة
و وقف
بن س
الأستر الية
ه وك
وق وانين
الم كن
الز ميل
٦ ٠
تعيين ات
الش امي
إ باحي
حاس مة
الأك راد
الت عل
الإس ماعيلي
است قدام
المؤمن ون
الم استر
ومن ه
وم مارسة
مد مرة
طل بية
خي الية
حص ص
ج يني
تت علم
برا د
ب المحافظة
وير ى
فن انات
جاما يكا
برس الة
الحس كة
50 6
سل اسة
وق صة
وج دي
والأ لم
ض طرابات
تن ق
واست مر
الأ عطال
يست لزم
ف اني
وإ كسسوارات
م آ
لائ ق
خلا فة
تش تهر
المخ يم
القت الية
حل وه
حافظ ات
تق سم
إنتاج ها
المف وض
المخ اوف
الأس طورة
39 7
يح وي
ت لاحظ
الأ يسر
لل تعبير
ري فة
بالف جيرة
في ب
تح ضر
المنش أ
المؤس سي
ب المدارس
انت شر
التج ول
تن خفض
الج رحى
الإع صار
و الأمراض
الش قيقة
ر هن
فس خ
الل وائح
سف راء
س وب
ول يف
والر ق
أد ق
وان واع
تف صل
وع ضو
وص فت
معلم ين
منس وب
الاسب انية
لمش اريع
سل با
للس كان
العلم ى
ع واد
ز هران
المز ينة
إت باع
و 10
ر طب
ترا وح
ت وصلت
لدي كم
التح سين
النق اشات
ما شي
الي أس
الم مر
التن بؤ
الأفق ية
من قولة
ق قات
ون رجو
والف نادق
كوت ون
المخ اطرة
موا جه
ذ كار
بالت د
تع ارض
ترح يل
وست ن
والس لع
الأ حرف
اس وان
الص خرة
تس اء
الك عبي
قب عة
الكر دي
الطائ فة
ا علي
وظ هور
و 12
19 53
بحر كة
القط ارات
طف لي
الخي ري
والع قل
خ اطر
تدري جي
بص راحة
ض رة
بإ عداد
مار ينا
وي تحمل
حل فاء
أث ري
لا يين
شن ودة
دست ورية
النس وية
المن شاوي
والم علمات
دين يه
ب شرح
ب الدولة
لل عيون
بور نو
وبل كس
تت وافق
35 2
ف بعد
خلا طات
الق عدة
45 4
و الخصومات
تد عى
و 15
ني كول
ك بد
7 87
ك ها
سكر تير
الشع راوي
47 5
27 4
المن ظم
3 23
ل عملاء
م فعل
كول ور
3 28
تور نت
بالش راكة
المساهم ين
مطار دة
ب الاسم
التر ك
مطل قة
البي ضاوي
الب كاء
أنشئ ت
فاير فوكس
الم ود
ل محطم
التع قيبات
ال واسع
3 12
ع ناء
اذ نجان
زل نا
يد افع
وت ثبيت
وخدمات ها
للت وظيف
المن صب
المتص لة
ن صل
ي عل
لس عر
ب تحسين
اس ين
مفر دات
العص ير
يح لم
المست هدف
ي ومنا
جم هوري
بحر وف
المص ابة
است فادة
مل يشيات
لل علامة
الإج هاد
ار بد
ود ورها
التش يكية
وح ياة
ر مي
تخ فض
الش ا
الح بي
م فيش
أد عية
و الكويت
قات لة
لتس ريع
الس ارية
الالكتر ونيات
اع ترف
وذ وي
استعداد ات
لت ثبيت
كت ائب
فل ماذا
الب نج
ئ م
أربع ين
من ظر
ل تعديل
الج ع
المش ترين
الأوت وماتيكية
00 97
والتأ ليف
المبد عين
لل ذكرى
درا يف
وال هندسة
الفار سي
تج ويف
الموس مية
يتحدث ون
مد ح
ف انه
ست تم
وا ها
مختبر ات
وبي ل
للباحث ين
جان بها
ت سلسل
الشري حة
ولي بيا
زان وسى
30 2
واس عا
قتل ت
تست ثمر
والف رق
الف لاحية
ز عم
راس لنا
الع رائ
الاست غناء
رعد ية
المنا ز
الغ يب
ع بيدات
مائ دة
وم ما
ام تلك
المغ ناطيسية
يك من
والمقا ومة
مد عومة
أمنيات ك
تحليل ية
وت ظهر
لس ه
ف ئ
تحذ يرات
ينيك ها
ل وجه
ض باب
سا ك
مل عق
ذ كير
الضو ئية
الك رك
مد راء
في كم
الت متع
البط يخ
7 68
ن طلب
لل يدين
المص غرة
وس في
رؤ ى
تح ريف
الحقوق ي
أر بيل
مت م
كف الة
بير غ
والس كر
يل ين
مست عدة
مز اعم
تح ريم
اللا هوت
الشاعر ة
الد ائر
تش فير
العق بات
أن شأ
يط ير
التح اليل
الافتتاح ية
ظهر ان
بكل مات
34 9
يت فوق
تش نغ
ب الدولار
كي ماويات
فر عية
أغ ذية
لق طة
برنامج ها
ل مرض
س يدر
لل صفحة
ط رب
الح بل
ص خر
تكنولوج ية
التنا فسية
أخ تي
50 9
20 24
با كو
ن عمان
لل بنك
رج س
باحث ون
يس هم
نا شونال
الصاد قة
وت شير
تح صد
الاش تباكات
وإ غلاق
لسطيني ين
أبواب ها
38 29
لمن ظ
تن قذ
تك في
س طيف
الل سانيات
اح جار
ومن اجم
والك ن
تيب اس
مر ن
الس تين
والمست قبل
و خل
للأ لعاب
تش بع
ي حرص
ون ظم
أش اد
وس عة
شكل ها
تساعد نا
تبر ز
البر مجية
في لات
بع يون
ما شن
الق بلة
ود رجات
الم سبح
الامير كي
ور بط
ود ولي
غ ين
والب لا
ن قدر
بن طلون
النظام ية
وق انون
بي ط
العائ لي
45 6
ي ظن
سنت يمتر
حن ة
ته اني
ي قلب
خصص ات
تداول ات
ب صرف
ب أم
إ نا
04 44
ت امي
الجل ود
والد فع
وأ من
اجاز ة
والخ وف
أون تاريو
ت وزع
الد را
الإج ابات
الك مامات
الأل فاظ
را يت
ط ائ
50 8
وغ سل
وال راحة
وا ثق
الأس ري
بر مج
غ بي
باد لة
اع ف
ف ند
يس خر
ولي ام
ل ابتوب
عج ب
اللغ تين
الرشي دة
و الاقتصادي
ميل يشيات
لن يل
س وائل
السليم انية
تر ند
المخد رة
من ته
بالإ نج
الم فصل
37 2
اللذي ذة
الج هل
الامارات ية
اث ار
9 60
مق اربة
ز حلة
وال استرخاء
أثر ت
لت هم
متفا وتة
للاست متاع
الج واز
ابتد ائية
4 25
ش ش
ب تق
اخت ارت
حت هم
المتضر رة
كارول ينا
ق ذف
ع الج
جني هات
ام وال
وط ه
الفلاح ين
19 59
فيه ما
زر ت
الهم م
الرا زي
ن بيه
الخالد ية
مد عوم
ول كي
مخ فية
مؤ امرة
شاب ين
سر ه
الف خمة
الخ مر
ليون يل
الب عيدة
ور ح
وي كشف
سل وفينيا
ب خطوات
يت وافق
عني زة
الان تماء
وو و
برا يم
كلام ه
ضل يل
بالم وجات
لتف تيح
ضاف ه
الغ فار
ل كسر
زام ير
بد ير
الاكت شاف
وم حت
مه ور
ش وش
تح س
انت قلت
مطاط ية
ومي غا
المزار عين
كل مه
ف ندقية
وأ لمانيا
مر ئيات
النا ج
الم اجد
لل إن
غ وار
غ ارة
وت غذية
وال وقت
طر أ
ب اسعار
يستطيع ون
لل أمراض
مسل حين
زر تي
مقتط فات
لت كنولوجيا
ري كو
حفاظ ا
تست متع
يشار كون
دا عية
ج ارات
الم اي
يز يل
ن نتظر
مناق شات
عا وز
كري ت
سي حصل
وارد ز
تن شط
الك عب
اف ران
واصل ت
بكر ات
ح املة
ع ريق
والأ ز
الر موش
ز رقاء
ج هل
بش بكة
الم جيدة
لع شاق
ست ظهر
الصين ى
السي ولة
أ بت
يز م
ه ضة
مر س
ل صندوق
الإله ية
و السلوك
د افع
سد لة
الا كاديمية
واست مرار
نسخ ه
المض ادات
السي ستاني
الإنجاز ات
85 5
و 9
الج ينز
1441 ه
ين ها
أل وف
يحاول ون
والط ريق
ت ضامن
جاه ل
المكاف أة
الع ادل
وي طلق
والم قيمين
والأ وعية
تس اوي
آث ارا
تمت از
مت واصل
احي انا
صي ص
دعم ه
بي ارات
نت فليكس
مي بيلين
ض ول
ز اني
المك ونة
ري عة
الت واجد
ار ان
3 22
وم عنى
سم اس
القر شي
الش باك
مح تج
ل برامج
تج تمع
الع صب
34 4
دور تها
واب حاث
ط ائفية
الض يق
لمس حوق
خير ية
ايل اند
اح تاج
ي غيب
الو ئام
٤ ٢
زوار ق
الأ قدم
وب حمده
كيك و
اله ارد
الإف راط
كل يل
وم راجعة
ع شاء
ب مصنع
الحص اد
الموريت انية
السوق ية
ا قي
أس طول
أ في
الإ عمار
14 29
والتر كيز
م خط
ث بوت
سب ات
الم تصل
متناهية الصغر
الت عيين
رفي عة
يد ى
ط ائفة
ش بك
المنت هية
اكس ي
بط لا
زرا عي
الت تبع
عم اني
عب اء
الر صد
وي فضل
للمست ثمرين
الإ طلاع
إيل ون
3 11
ثروب ولوجي
الطار ئة
الإ لغاء
مش جع
ق وتها
دع نا
العج ينة
وج رح
مطحنة متناهيةالصغر
الأن وار
الأن بار
ت وعية
تمد د
تاريخ يا
والي ون
خ اب
يش ك
سل مة
تن وي
تس ريح
القانون ى
و وصف
مطحنةمتناهيةالصغر عمودي
ع افات
المعت ادة
ار باح
مطحنةمتناهيةالصغرعمودي الرول
لا حتياجات
الأم واج
ا صلية
ك ليزي
ي ارات
س أقترح
العالم ى
السرا ويل
بق صف
و اليمن
ب عمق
يج ه
وار ت
للم واليد
حزين ه
انت ظام
اخ تلف
زوج ات
اح لي
و كندا
البروست اتا
مستقبل ية
إس اءة
للح مل
الك ميات
الف كي
وا ول
مختص ة
ل ياقة
الاخ وة
وخ بر
البن زرتي
وال وفيات
تغري دات
إقليم ية
وسي اسية
مش ت
ل أخذ
ز وني
الد اعمة
تطوير ه
بق ا
الت عارف
وفي تامين
فر دية
الط اعم
وال وسائد
ذ رات
كوم يديا
الإ كوادور
كا كين
سائق ين
الك فاءات
34 8
مح مل
كر وز
شع ال
حوث يا
شرائ ه
المق عد
مق تض
ف هر
ضاع ف
أو ضحت
حص اة
اسكت لندا
أرض ي
ه شاشة
لل سيا
لق مان
الح زمة
ع طي
ار طغرل
ومست قبل
هات فيا
ل أم
الإ مكانيات
وال زنك
تس خين
وأ ثناء
مقر رات
المش ير
الش ائعات
ارك ود
والأ ج
تل ع
الجس دي
الأ عم
وجد ان
ب مدرسة
النز ول
الت مسك
ئ له
إبد اعات
يش كر
ول ديها
و الحديد
الاك واب
وق صص
مداخ لة
جم ارك
الم رب
واض عة
ن بينا
طي وب
جد ير
ون قد
ملابس ات
ت ظاهرات
ش وية
ب الخطوات
اختصاص ي
تك ريت
تغ ادر
كوا در
ف لك
عائل تك
بلق اح
التس ريبات
يت عهد
وجد وا
واف د
و حق
عر قلة
منها ج
ب السرطان
الع بيدي
الص فة
م بعوث
معل مة
تك فل
البن كية
وش عر
وت ض
مست ند
م خلص
تس هم
والق ناة
نس رين
لا ذ
طل قة
ب المسجد
لإح ياء
باب و
با ث
أف ريقي
للإ جابة
غط اة
ان دا
الص خرية
الم تعامل
أغ ن
وق يف
فرع ون
ا منة
0106 168
كلفين يتور
08 0
وكل اس
ها ينة
محت ملة
بات باع
غل ط
أف ري
ند ن
ك الي
موز مبيق
انت فاخ
تح سب
بي شة
المتن بي
والع اط
المحافظ ين
الرا قي
ين ك
كبري تات
السل طنة
تم ان
ميلا ده
س اره
بد مشق
الأق مشة
إن قاص
28 2
وي زيد
مست شعر
العدل ية
النا قد
الم ضيف
الأس اور
إري تريا
أ درك
ن فقات
تح كيم
الج داول
ويس ترن
الإ بل
حاج ات
الن ية
تح بط
أ ثير
التفري غ
ور طة
50 7
كمان ستان
م ياة
صديق تي
انست غرام
الملائ مة
49 5
غام بيا
اللي الي
ريح ا
ام بو
الميل يشيات
اللا صقة
قض ت
خ الف
بذ رة
الإم ارة
وغ و
والمنا هج
شا ير
0106168 0444
والتش غيل
مح رج
لأن ني
غز وة
سي شيل
تين و
اس يات
اليم امة
والمس اعدة
تن ضم
الك رش
الاع تصام
اق ترح
وا كثر
ح بل
ث يمات
الاستح قاق
أ حرار
أ جيال
الفرا خ
ل أمراض
تس حب
الم جهود
ؤ وس
19 44
ر دي
ترا جم
وف عال
حي ين
تش يد
اع ون
والتر كيب
السي وطي
الباك الوريا
ئ بق
بر واية
الأد عية
است طيع
يفعل ه
ن حصل
ليف زيون
الدمش قي
لين كس
والف ساد
سمي ث
جان با
وي طالب
والإ رشاد
سيم ون
تف جر
تراجع ت
الح ياه
ب فارق
الحي ض
أن ظر
يونيف ورم
لل تحويل
است فتاء
3 19
تس هل
مح كم
ستيف ن
المطب وعات
و تحتوي
نه ى
الغز الي
ور ث
أخ ذه
والمع اصي
وات هم
صفح ته
ل يمون
الن سر
ليبي ريا
الس رة
لم صلحة
وت جديد
م مز
م علوم
الم زامير
أن اس
شان يل
ير أس
تحدث نا
عر ابي
ح بك
والج ريمة
و يرة
تز يل
التفا هم
وت كشف
فا ذا
يست نكر
غ وتي
تريد ها
السلم ية
ه شة
وأ علنت
واص م
خط ارات
وع اد
بت سليم
مش اري
جر اب
دست اه
و الجمعيات
لل فرد
إيج ابيات
لت ضيف
ك ائنا
يد ع
رول ر
الذ راع
أرج اء
و أك
كر د
عق لك
الق مص
الس لك
يع اقب
مخر طة
ع جرم
آ بار
ن دة
تر ت
وك أنها
الأل ومينا
إ زعاج
أجمع ين
ومواع يد
لل ضغط
الض يقة
الح ان
06 4
سل عة
بالق ضاء
المد عي
بإ نتاج
58386 189
الك نسية
٤ ٦
المن وره
ك ليك
جوه انس
ج ارية
المختلف ه
الرا فضة
احتف الا
الق بيلة
لل بريد
وح مل
ض وا
العاص فة
قلوب نا
بك فر
بد الة
إ عاقة
وم وث
نشر ته
لل وحدة
لل مادة
ض لة
ث ون
ت كلم
الأرج نتيني
كر امة
تع ارف
يس ون
خ ائر
ب تصنيع
المع كرونة
الج رح
و الصحية
الم لاحظة
4 65
استر اتيج
نس مع
ف الي
بيع ه
با طل
ف صاح
يه دي
وس وء
الط يف
عق اري
المص ير
ج بت
بي ين
المفاج ئ
التج ارى
تخ اب
التنظ يمات
إ جرامية
45 1
مست ديرة
لب اس
عت بة
المت واصل
الكر اسي
إ مرأة
سن قدم
الخ واتم
والمه ني
تي ري
نس أل
الخلف اء
ف النسيا
ب الخير
وار تفع
كر وزر
إ براز
الاس طح
والت جار
الع اهل
المط هرات
الكافي ين
م طحنه
لل موارد
بول ية
بول ار
ومان سية
تذ كير
الل وح
الع بوة
التخطيط ي
أوري سا
ون قدم
والأ ردن
لا فر
الح واجز
إت احة
لل مركز
بالب شر
وها ج
ت ظ
إ بقاء
بور وندي
الفوتوغ رافية
أخ لاقيات
ير اف
وأ ربع
مص لح
غ انت
تع افي
المص ارعة
و الذكاء
روبي اليس
الماري جوانا
ا خصائي
ت وطين
الضع يف
مكت بات
بإ يقاف
المت ورطين
الح مية
مي وني
جد اد
البند قية
وأف كار
البدي ع
الاستعداد ات
اش ى
أ لات
يولي وز
ول ان
موس ي
عل اني
الإث ارة
وح ضور
ل محاولة
المس د
الت مه
فول كس
الف اي
تؤ يد
المست قيم
التقييم ات
لا صق
وال علماء
شق اق
العاد لة
الض باب
اج تياز
هيل تون
٣ ٣
شيد ية
جزي لا
المحتمل ين
وم شاركة
ع واقب
ج بات
الخط بة
عبد الملك
سنت عرف
الأم ومة
م مين
سب لاي
والم رافق
ض ياع
التجمع ات
الميث اق
التابع ين
مع اهد
سي حدث
٥ ٠٠
وير س
بل ية
بإ جراءات
يت سلم
وت راث
ما زالت
يقد مه
58386 176
ملي ء
مس اندة
لات فاق
النا ظور
مص ة
م علمي
لل وطن
والش بكات
فل وس
بلا دي
الد لو
بار اغواي
واحد ث
للح ديث
60 3
والأ نظمة
المر تبط
البار زة
وب سبب
الجلس ات
الفات ورة
تل قت
ز ود
ه وس
المخ تصر
والن صر
وأ لوان
حن في
أ غطية
المن ع
العذ بة
العد سة
الص بي
الج مالية
للص رافة
با قية
ل أعياد
طي ري
الب يرة
15 78
قتل وا
الب واسير
إج لاء
وإ طلاق
نش تري
بد ت
المق امة
المغ امرات
مر عبة
مجتمع نا
صح اح
الغ زو
لل صور
النص ب
مرب ى
ت يات
39 3
وأ حيانا
وق امت
والمنا ديل
دي مق
تح يي
والم شار
الا طارات
وسوف و
نج وى
لون ها
والاست متاع
ع صي
جي ان
د منهور
خ بي
الانتفا ضة
اس به
في لة
الاخ وان
وت وبا
لل زراعة
بي ست
يحر م
لل مناطق
لل بيانات
تت فق
ب اليمن
المث نى
س احات
تح رر
المز اد
لت غذية
شئ ت
بالل مس
الإ علانية
10 60
وتص نيف
ل سبب
ت اء
مج ربة
تشغيل ه
الخلا ط
ومس رح
تست نكر
الفقر ات
مه نيا
عزيز ى
عد نا
تمر ات
والمح اضرات
بالم ثل
الن امية
يم ار
لا ول
جري ح
ان تز
القي سي
الج ص
س ويت
47 4
39 5
وس يت
تص ديق
إيمان ويل
أل اسكا
هم وم
الع زي
الا ثار
الآ فات
كين وود
كات ا
مخ اط
ترم 2
وال لي
وأن تم
داني ال
تكنولوج ي
بل ه
يف وق
ص ائح
ل ير
بوتس وانا
الق يد
ات ر
باد رات
اعتما دا
إس عاف
أخ ت
ه ولي
هي ه
مه لة
دير ما
ب مثل
البد ني
بل دا
القاد مين
لغ م
ل وشن
ت ضيع
اجر ام
مها جرين
ل تد
جاي ديد
الخ تامي
والي س
للأ ستاذ
المر مى
المبار كة
اد اة
شر قية
المع اقين
الجن ون
الإس راع
وي بقى
الأق ليات
مزيد ا
تحميل ه
الوج بة
الكلد اني
الط رز
الأ برياء
الاست دامة
والل جان
سمي كة
تحميل ها
الاست يلاء
يت بنى
مط ور
ل ته
لق مة
البن ى
وإصلاح ها
لت فادي
ب وف
27 1
ري شة
السي ور
3 38
المه رة
شي خة
ح اضر
سن طينة
ر طبة
الكاث وليكية
الا جزاء
من جب
لإ تمام
فلس فية
ز اهر
الطبيع ى
الص ليبي
نوا كشوط
والع نف
س ويد
از داد
ؤ لات
سر ور
م 2
وإ خراج
عمر ك
تر تي
ور غ
ض ون
سه ام
أث يوبيا
مش بات
التفصيل ية
إ يز
ب مدير
45 00
ه ولم
لس هولة
رس التك
وير جع
والتأ ثير
ه زة
بك اء
تع ترض
بداخل ها
الظ ن
الت خصيص
ومن ح
تذ وق
المتك امل
شخص يتك
ريز ونا
بم مارسة
بان خ
الانتق ادات
الأ فارقة
١٩ ٩
للت علم
الق اطع
يك اد
بل ماضي
معنا ها
ب الإمارات
الم جن
البور نو
وص نع
الج ابري
وح ما
والك يم
التعويض ات
ول ديه
ب الحرارة
يكت سح
ب جهود
اذا عة
من ار
لنفس ك
ل نجاح
تقي يد
مش ى
عام لا
ثق افات
لل دوري
لق وانين
ض حة
للت غيير
قدر تها
تش ديد
ان جلترا
و المحلية
تسجيل ات
الك سي
وث يين
والم تابعة
وا در
الع الى
وف نون
بت خ
با و
معالج ات
دا فيد
هاب ي
تض منت
ومن ت
سير اليون
راب عا
أعمال هم
مشد دة
اك ون
اترك ه
وج هاز
وتر ميم
ميكاني كية
مر ئي
تخ اذ
وري اض
اب رة
رررر رررر
ت تق
محتر فة
والد ولي
موا طنة
مق ومات
ع اهرة
بور تو
بح ائل
الليبي ين
صوفي ا
المت كرر
والن شاط
التح مل
ت وجهات
با ول
أ شر
الدع وية
بق عة
طر فين
المست دام
زالت ها
خ وا
الدر ك
ل بل
ضح كة
برمود ا
الاح زاب
الإح تلال
طل ين
راب غ
الت كاثر
الا كريليك
الأ متعة
ير عى
يقدم ون
فران سيسكو
العق اد
الإ يداع
7 10
40 9
وز ا
حاض رة
است غرق
ا ياه
وب الطبع
الس كة
الروم اني
وبا يلي
و المحافظة
بط انات
حاص لة
اشت هرت
يحمل ون
سر ع
الجو هر
حمل ها
المس اس
إ بتدائي
ي أمل
العق يد
تن ويه
الها ئل
الر وائي
التنسي قي
اك وا
مؤ لمة
بل طف
التور اة
ماكدونالد ز
س طور
المث بتة
الان شاء
م بينا
الوق وع
المق اهي
لز راعة
فع ية
ص و
الس ديس
اسل وب
ف أكثر
إد ارته
ف عة
الإ يميل
الآ ي
لب ث
أ ضخم
شن ال
يت أثر
وت أمين
س ائح
ام يل
شك لا
حمل ت
الم هرجانات
مد بولي
يؤ دون
مق بولة
المقبول ين
س راج
طرح ه
خي صي
وعلاج ها
تد ريبي
الت وريد
أم والك
والا كسسوارات
مطل وبة
الان خفاض
اعتقل ت
وفق ه
خلي ص
الهم زة
وال التزام
دن ياه
بل سان
سك وت
الخ الص
وع ز
مسب ح
از دياد
6 10
وق طاع
سي ئ
سر عات
وص ديق
م خص
فورمان س
جوز ات
ج تمع
بار اك
لإ لغاء
و هران
مفع ول
بق ضية
الزي دي
بال وصول
المت مر
البر وج
وج ميلة
والآ داب
أساس يا
ب وقت
الخز ف
الجوز اء
اغ وا
تب كي
الغ ين
يحت في
حت ما
جي زان
المنهج ية
التحر ر
اقش ته
آ ساب
وين تهي
و البحر
الاست شعار
والن ز
سام ية
الكن اري
البه ارات
هير شل
تخ تص
ت عنى
الع بث
ش معة
ست عمل
تقد مت
ت فر
البن كي
الاعتداء ات
طول ه
د كني
اب ايا
00 49
عاب دين
الن قيب
اع تقاد
وت عيين
مح ترفين
ل الة
ش بح
دراست ه
شر فين
ومست حضرات
سا وي
تران يم
المس اندة
الظهر ان
الأستر الي
وب الإضافة
وأ بحاث
ل شباب
فخ امة
ف عندما
احت واء
اث ارة
مكس ورة
الح ن
كت ين
الم علق
15 85
د مي
حض رة
ث نائ
بي لا
وق تي
تشار لز
الش ائع
ر طان
خ مر
لل اجهزة
الغرب ال
الدر عية
لت زويد
وك ون
مرت بات
والم ملكة
نا يت
مت ولي
الي ز
والا علان
حصل وا
سعودي ين
الب سكويت
الإع جاز
احت فل
الصح افية
توق فت
بق ات
يج لب
ومس حوق
نه وض
مبار كة
الط اقم
إ يك
سب وليس
9 10
ب الطرق
الف هد
الت أه
أعض ائه
وع قله
ها ق
ل فرض
بد م
المسل ح
الساح ر
ارد ير
99 0
كي وت
6 30
وتر ة
عد لي
قلق يلية
أن جل
ك يتس
د بوس
السح ري
العذ اب
إن د
ف ذلك
غ را
للأ رض
المطل عين
والأن فلونزا
نا ش
تش يك
المعن يين
أمن اء
ميوني خ
الإخ لاص
والمن طق
هيل ث
مك مل
المجر مين
اس وب
24 00
مست ندات
الد رب
الط يز
است عمل
است شعار
وي ضة
مت ق
م وقة
ح اش
ب راءات
فض ية
صور ها
حك مت
تخ فف
اخ ته
بالأ مس
والط البات
نت ال
مغ اربة
م غسلة
والإ طلاع
لل بدء
الت قليل
ئ ته
و وجه
الك وفي
غ ول
اوت وماتيك
القضي بية
أسباب ه
ل معظم
ع صف
دي زاين
ذ وبان
حدوث ها
التي شيرتات
والمعر وفة
ت وني
الز بير
أع ز
وك مان
نار وتو
ار تد
وأ ل
بير فورمانس
باه تمام
القير وان
فعل ها
بالن يابة
نت عامل
مقات لة
رفع ه
السمع ية
اد ناه
الماض ى
عز ت
حاف لات
والإ قتصاد
و ورش
مع تبر
ج بين
بالت جزئة
يت سم
وبا قي
و الكسارة
ر هيبة
الن كت
البد لاء
أ ريزونا
47 7
لع الم
يات ية
وت علن
وق الوا
الق ريات
نت ك
د وبي
ن ترك
مد اهمة
ف قيه
بالع يد
فاع ور
الانتق الات
عر س
م وبايلي
ب المنيا
الش ئون
نا هيك
ما ثلة
لل فن
الإن فلونزا
والم متلكات
باد وس
ب الجديدة
العق لي
ف طر
بيع ي
المس ائية
الفج وة
رش اش
وي عرف
19 18
تت وافر
59 7
كيا و
الانست قرام
ألق ى
مش اجرة
وب سيطة
لح اد
ست ك
المشار ك
أ ميس
ج والك
الح رق
التص ديق
19 36
طف ول
با ية
ب العملات
ال الي
ط وا
سم كة
ام رأ
الط ح
التحول ات
والخضر وات
يهم ك
لغ تك
الموص لي
ؤ يا
3 69
لق اب
وز اري
ن ؤكد
ر وش
جم وع
مح ق
تت عرف
لمح بي
ب الطفل
المص باح
الس بعين
وب ور
عد ه
نس ق
مس مار
ط حين
التشغيل ية
49 8
الخص وبة
الحميم ة
وت صدر
أ قرأ
وضع ف
م زي
كفر ات
ث ث
فيض انات
بط لة
الغ انم
خ يم
اللقاء ات
القر آني
الق بور
تخ تفي
الج حيم
عات ق
ف جي
المون تاج
ن جي
مت نوعه
ز ائدة
تر وج
التد وينة
از رق
أد لى
ي وي
ل تكوين
س ارع
ذ يل
تدوير ها
المن ص
الدعا وى
٣ ٨
يل حق
بيت ية
بت ثبيت
الخبي ثة
اساس يات
أ جهز
مس جدا
دي ولا
غ فار
وطالب ات
له ن
لخ وض
صر خة
ج اكس
المه جر
ج 1
الت لا
الانف صال
يد عي
لع بت
5 70
3 39
ب الأسماء
الإسرائيل يين
لاص قة
المن ه
الانقل ابية
خ واص
الت قي
أوغ لو
شي ان
مست حقات
مؤ هلات
قلوب هم
ان عدام
300 00
مرب حة
د وبلكس
بط بيعة
بر فان
الن في
19 41
ود قة
تح ياتي
الوا ضحة
المج اهد
الر ص
اح رص
مل كا
ت درك
بت عليم
لأول ئك
المور وث
الجز ائية
م كلفة
س حرية
تر اس
له جوم
عبد السلام
جد لا
ائ مين
أل كس
مخ بز
سام ر
البعث ات
أي ه
ومنظ مات
ت عداد
وأ رباب
ن مبر
كن ه
د وي
بي ش
ب سلام
56 4
مت احف
لات فيا
ش ادية
الع قم
الأن هار
و غرف
نا ص
تب ث
الج روح
الب اذنجان
تفعل ه
بالن ظام
مز ين
تنته ك
الكرد ستاني
الفر وق
اف س
مت زوجة
الج يرى
يق م
لق واعد
الع صابات
ارب عة
عض لة
تس ارع
المفر وشات
القر ني
الفلبين ية
من اعة
عام ات
بور ش
مدرب ين
الع طري
الجنا يات
التفاعل ات
وت راجع
لت تبع
لاد ن
ق ضاة
بد ار
ب الساعة
ور سوم
لل تقنية
شري عة
الش مول
تقلي دي
الم كل
٣ ٦
ام ور
غام ض
اله ياكل
فط يرة
الجي وش
ون ح
المنا فذ
المن قول
اذا ة
لإ صدار
كول كشن
جاك يت
تواجه ها
المج اور
موظ فة
دا دي
يؤ دى
الر ه
وخارج ها
تست حوذ
وع شرون
ح طان
الم بور
الأوس اخ
الر هان
الف لكي
ارتفا عات
وأج مل
المراس لة
بمن ح
9 71
يناه ز
ان تعاش
لت بييض
الشر وع
ي طمئن
والم هند
أ زرار
ب برامج
خل فا
المفق ود
الز مر
للمس افرين
الاحت راف
مقدم ات
س بيد
ب لمسة
وك افي
والن فط
مب للة
ط وابق
تت فوق
ق مح
الجاه لية
عب اده
با شرة
حصر ى
تفقد ية
الموه وبين
الم بيض
اب يل
إ يميل
نج عل
الها ئلة
وم صادر
لل طرق
عاد ته
طف رة
الح مى
لح جز
والتحديث ات
يه ز
يك مل
وت سليم
م هرجانات
الخض وع
والت مويل
وأ لغاز
مست قيم
سو شيال
50 2
و السيطرة
غ هام
س وبي
ري تو
استئ صال
ون قص
المد مرة
وا شت
الف قيد
الخ فية
الحض انة
قر ع
ب الاعتماد
إن جيل
ونق وش
نظر ه
60 5
نس نت
جس ده
تنظيم ات
الوس امة
وكل ما
حي ي
بأ ربطة
وه بة
وش اهد
الوح ش
وبد ء
مي غا
لل وظائف
بد ول
ومع الج
طع يم
ضيف ه
راج ستان
الغ وص
الانتخ اب
ن وفا
عث يمين
ي وصي
للع زباء
س مسار
رأ سي
الط بري
ث ومة
الأرج ح
أ بن
لل رعاية
ل عملائها
6 25
ومه ارات
غ مات
السيا دي
وج امعات
مق بض
كير ف
السكن ي
ميل ر
ت فرج
وق ائية
لل سلع
شعر ها
بق صة
قت لة
في شي
ها ف
ت ثق
ب نتائج
أ شيب
فل بين
تكسير الجرانيت
الل ول
ان طاليا
مناس با
كل وريد
الب اركود
وت عي
منت ظمة
الملح قة
الصح ه
٢٠ ١٨
يست متع
ومن اسبة
للد عاية
تنفي ذا
الص راعات
غ ادرة
الغ الية
م مثلا
لل جلسات
المير اث
المفر وم
المذ كرة
أ فع
ير سم
وش قيق
فا عة
ست م
راه قين
٤ ٧
والمه نية
وآخر ون
لل علاقات
الأول ويات
لإ ظهار
عا في
ال والد
ام بري
المف كر
الإ طاحة
اس ابيع
للمس اهمة
والباحث ين
لاج ئ
د ني
بال وجه
3 27
زا ير
الشع ري
نو وية
كت ك
مق لاة
عم ولة
المتن قل
الت ماس
مست ثمر
بن زيما
الفلسطيني ون
اج ابة
خ في
أ ئمة
خر طوم
ب بني
التأه يلي
والت رجمة
وأثر ها
ر وعه
ب القرآن
الم هر
ق ويا
45 5
سل ية
داخل ها
ان ما
36 7
مس حة
اليون يس
المعي ار
الص درية
والت غذية
والت رب
ن حاول
رفض ها
البص مة
وتن سيق
ن متلك
ش عيب
المق اسات
شك يك
الخال دة
16 06
بك ى
4 11
النظ يفة
الار تقاء
يم وند
الم خطوط
الصحرا وى
الم واسم
وت بدأ
ضيف ا
خ ليف
مات ش
ت تل
06 48
مح س
غن يم
الق رب
الش حات
خط ابات
ح شد
2019 م
19 51
ومت طلبات
تذ ك
بن كي
الاح ياء
ل إنجاز
وم سلم
الجبل ية
مش ج
ف شار
جان بك
الج لفة
إ جرا
للأ غذية
او بي
الن شوة
القدي سين
السما وية
ين د
خاخ ات
حد ار
ح وثي
وس حب
معظم ها
مع وقات
ب مواصفات
ه نت
بخ ماسية
أ دي
19 32
يت صفح
مع مار
حق بة
بت وزيع
الث واب
أكس جين
رأي ه
إس كان
وم ضمونة
وتخ ضع
والم ركبات
غ شت
تل ر
الاب راهيم
اك يت
إد خ
است عم
36 8
أست را
والب عض
الت هنئة
الحس ني
ال وثائقية
يف ترض
ر أة
توزيع ات
ب معرفة
المست حقة
السط حي
السن ن
ن بحث
الاج تهاد
لل مدرسة
غي ري
ظ ير
حفظ ها
الم عامل
ب قة
الم وجه
س فريات
الم الى
الكاري بي
س امة
ب تي
وي صبح
مخل وف
زه ري
ب المنتدى
الم والية
احتم الات
أ ضر
وبي ت
تف وت
ي بق
والس عادة
قد موا
للمست قبل
والن هي
الق وارض
حافظ ة
الاع راض
التشكيل ي
والت صدير
الحاج ز
وب هذه
نع تبر
طالب ت
ب تعزيز
والح رب
كرات شي
وك يب
و المحافظات
و السلطة
الطالب ة
وص وت
وار ج
الاعت ذار
داف ئ
والس واتر
ل صق
عل اوي
اج مالي
هرم ونات
ز خرفية
الته ريب
ذا ع
تطور ا
اعداد ى
عر وسة
ش حين
ري فر
دات ا
لا يوجد
فلا ديمير
شكل ه
أمام ي
وال وحدة
اح باط
يف اج
لل طلب
المن وية
المق ترح
النص ارى
أصحاب ه
يز و
وري ات
وت غير
والد اخل
لل رقابة
الغر امات
الأنص ار
ير تو
ولات ة
وق فات
مشر فة
خل فه
تأ شيرات
الك فار
واست غلال
أن دورا
يا غة
لل ربح
لل حركة
ك فاية
د مر
تت كلم
بالت ع
40 2
يعتقد ون
بإ شراف
الاستر اتيجيات
الإ طلالة
وأ ت
ن بأ
المصاب يح
أمي ال
للص ين
سح ابة
اللا ج
وال بيع
وا زن
مدرس ه
فز از
بم وج
التس ليح
الان كليزية
تبا عد
ب الذكرى
اجتماع يات
لأ بناء
الا زياء
اد ف
أ متار
يت عذر
جاه زية
تر وجين
بامكان ك
الت وكيل
الاست طلاع
أسبوع يا
انها ء
المتميز ين
آ س
سأ لت
ثان وى
الاور وبية
نور ث
الثلا جات
الإنت ق
ملف ك
تد وم
4 18
نبي لة
تع ث
بش اشة
المكت وب
لل تقديم
في رس
خط رة
وب الرغم
ج وب
تص م
اتباع ها
47 9
واد وات
نسخ ته
ف الن
أم ينة
وي حظر
وي قال
وتح ديات
وال في
نف قة
مر هم
الجرا حي
وإ مكانية
نستخدم ها
للمحام اة
ب الفرنسية
وان تشار
رد ه
را فات
تلا حق
بسر قة
الم يم
مر قس
جل سته
رؤ يتها
اب ادة
وت وجيه
7 60
4 15
بج وده
الز بيدي
اذ ار
16 08
لت ون
الساح لية
والنق اش
لموا صلة
للم ريض
تزوج ت
الح مر
الب لي
المش وي
الخ يام
ي منية
لل أدوية
٥ ٥
مد ربة
ق اصر
شري ان
المع جم
6 70
مختلف ه
الف اط
الأس س
19 35
ص عد
ت شرح
ب الإسماعيلية
وص ار
نت قل
مش ويات
أ جانب
وكان وا
شر وق
خي وط
الكس اره
الام تياز
الاس طوانة
لل دفع
اي من
الاس كان
م هب
بلا ش
بق صد
المص اريف
مس ودة
لاع با
ائ نة
والمش اريع
التط هير
والت قدم
شري طة
انتش ال
وك وب
ها جرين
الموجود ه
عبد المجيد
بق ول
الح صة
الآخر ون
إقليم ي
كيم يائي
الحمد لله
ي خطف
نموذج ية
ب تجميع
العر ف
الكار ثة
ل ثورة
ب هدوء
وغ رافي
خط وبة
خر د
الأ واني
عجل ون
عائ دات
بم ظهر
بع بدا
المع اه
الح ة
الأميركي ين
تط ف
اح تض
المهني ين
ات مام
بولار ويد
السل الة
يم ت
يست طع
بريد ية
الموت ى
ابتس امة
ك فيل
س طات
الم ية
٤ ٩
وك بار
المش جع
29 4
14 32
ون ائب
ور ان
والا هتمام
س ورات
9 74
6 75
دول لي
الرا ديو
الات ه
تص نف
الخي ول
وتص ليح
تلي جرام
لاع بو
عين يه
إمارات ية
28 1
مر وري
البلا زما
است فاد
ف ولا
الر واد
الثم انية
تت ذكر
اكس شينج
وص ندوق
والف كرية
نا قص
مون تاج
يت ون
والح ريات
ر مان
بعد ين
الكلد انية
الر هن
الام يرة
الألغ از
وس ب
ت أم
الج ود
اث يوبيا
الجوه رة
إس ناد
وع يد
الحاصل ين
للإ بداع
وكلاس يكية
مسؤول يته
قي بة
س دد
را فع
تر سم
المخ ابز
ئ يه
لمؤ تمر
ظهور ه
الدي انة
يم شي
الصل صة
الت بغ
وم قاومة
وج ن
الح وائط
اق وال
وع زل
وثلاث ة
بت خزين
إد وارد
مر ئية
كار لوس
بش هادة
امري كية
الوس واس
الذ وق
أس ئل
و استخدامه
تون سية
للمق اومة
و علامات
لم راجعة
للح كم
ل داعش
ل تجاوز
بنفس ها
الري في
ون اش
هاتف ية
سور ابايا
زجاج ي
تفض يلات
الس تلايت
والتص اميم
ل غسيل
يست خرج
سل وان
العر وسة
التناس لية
ود رجة
من اسك
بالق ليوبية
بم فرد
الت الفة
ف ريقيا
خر دة
وين بغي
الد ش
ما جدة
الزع فران
تب را
اد لة
كيم ونو
د رائية
مست دامة
وتح مل
ل فضيلة
تك لا
الاستر جاع
3 18
وأن ك
م انية
للق ارئ
الط ابعة
الح وكمة
وز ني
و وحدة
ضر وس
التش فير
وني سي
بت نا
البا طل
أس أل
ذ م
والمه ارات
إصاب تها
وإ لغاء
فر حات
بدع وة
الفور مولا
الإ رجاع
استف اده
جل خ
ته ت
وني ز
وتط هير
والم دن
و الكسارات
نف ار
تش تمل
تتح كم
أطل س
عم ون
حوث ية
المليش يات
البرا ز
6 87
ن قر
ليس وتو
شر عا
ي هودي
وش اشات
نائ بة
المن ارة
19 37
ك وسيلة
غري دات
دي فا
بإ غلاق
المج از
الع ظم
اشتري ت
والاست فسارات
الحا ويات
النز اهة
اك ستان
وع شرات
عدد ية
الاسلام يه
ش يعي
تر كمانستان
مح ونة
الا عاقة
تصفح ك
الشيخ ة
الإ ئ
وش حن
رد ت
توبي كات
الش مسي
وفر ص
رأ سم
ج ربت
الاك بر
أ ستخدم
ن وبات
ل برشلونة
ت وين
19 19
مصر فية
للإ نت
في تم
اكت سب
اب ى
ده س
غ اس
ب أخذ
الاستح واذ
الأن فاق
والح وار
المخ ازن
أو صاف
وط احونة
ظ ري
المج هر
لت بادل
الاهتزاز ية
فن يا
حكم ه
بي تنا
باح ترا
وك ات
للت اريخ
للا علام
المس افات
الإست فادة
6 64
مي تة
مر ق
صد قة
ش بيه
ثق يل
يع تذر
رح مته
تجرب ته
الب ولندي
ي صال
للج هات
لل نقابة
الط لي
الح يل
منس وبي
لل مواطن
علم يا
الم اني
يك يت
مكت بية
ع ظمة
وتست مر
وت بديل
وب ينما
الث لث
ص خرية
وق لائد
المق ت
الق اعة
كال يد
ث افة
بم زيد
الان تر
وزي ري
ح التها
المن سدلة
و حن
ش بة
وكل اند
وك شفت
الم اشية
الجذ ع
اجتماع ها
لل زوج
المقاول ون
عبر ة
ب وسي
إيط الية
أس طوانات
ا ورات
را غبين
جري حا
بش عب
السرط انية
جعل ك
يش اء
وش كل
وز نك
مار شل
للم كتب
للبيع عقارات
الكاب تن
مت ف
لل ات
ش مر
بر مجية
الث الوث
اسي ه
والن س
و عليكم
في تش
ذبا يح
الصف ائح
الجما هيري
يت زوج
مت كررة
ش بوة
سم وه
خار ف
الث وار
39 2
والثمان ون
لل وداد
ل ويندوز
ف تي
ريتش ارد
الغ لا
وتخ فيضات
وت غ
لل أن
فاز ت
بط رح
الإ ب
الأخ شاب
يعرف ها
وع ائل
مص ادرة
تحقيق ه
بر فق
الط ير
ان ثروبولوجي
يحتج ون
وم لف
وا جهزة
قل بات
سي ون
بر كية
الش يك
التخ فيض
يج بر
لأ طراف
الص باغ
يحت اجه
يح كي
م بيد
فقه ية
عربي ه
رب ها
الز هايمر
2018 م
تغ لب
ها كت
تفضيل اتك
أرض ه
والأ طعمة
لل نادي
الواح ات
مع ت
است لم
ح ته
يق ين
قر طبة
الباك ستانية
صل ه
يست غل
و وجود
تر ية
التنا فس
بش عار
٣ ٩
وا عمال
مز اولة
شر فة
روس ة
البي ولوجية
ويست مر
سف اري
زل ية
تطل عات
ب معرض
الذ كري
اغ نيه
قد ت
الم غر
وال رياض
ظهور ها
ثي ري
الوز يرة
وأ لا
ك دا
رح يم
كا يرو
صوت ك
تح ط
التعا زي
الا عطال
سون ج
تت سلم
ب قليل
يش عل
وس لوك
الع يب
السوري ون
خد اع
لأ هم
ل علم
عق اب
بالف وز
المنظ ار
وحي دة
مؤ يد
لح الة
36 4
مست خدمة
القطاع ين
الس راج
رح ان
أ خط
للإ علانات
عن صرية
الم لل
الم علوم
اص غر
ورؤ ية
ف خور
تج ول
بلاغ ات
المت علم
باب ه
الخ ميني
لل كتابة
لل عين
ل طرح
ف وضية
الدر هم
الاقليم ي
الكاذ ب
اش غال
است خبارات
يم تاز
لل أر
فصل ت
الن فقات
والم لفات
الم طيري
الرسم ى
وشر كاه
إ بادة
الإق تصادي
16 88
وز نه
لؤلؤ ة
تحرير ها
أ ذكر
فا قد
س ئ
ارد ت
وم وس
وح رق
وال وثائق
و الدراسة
نساعد ك
ضع ه
تر قب
بي ضة
ب محرك
68 3
47 8
وف لسطين
و وصل
بإ قامة
ب الحد
للم وضوع
قائ دية
حر مة
الجر عات
يح ظر
لل مؤتمر
قب لك
الثع ابين
وأس اليب
لل بقاء
فان وات
المت بقي
بري مير
الت قد
ماس كات
لل مط
ين ظ
هد ئة
ن حاس
شي بة
4 87
وان ى
مراجع تها
حبي بة
ان قسام
الحر ه
39 8
ه لام
مائ ى
تمنح ك
يخ بر
وت لف
ب المجلس
هي من
لل احتفال
للإست مرار
طاح ونه
المناز عات
ت عم
الان س
النق ب
الأ قاليم
المها جر
الارض يات
مص ابا
او دي
المق ارن
ومع ه
أ طنان
مع اصرة
عق ارية
المر آة
الغ موض
وا صلاح
سوا زيل
أو اني
تح ي
الممت دة
وا ضغط
مح كوم
ف ارات
تجعل ها
المتق اعدين
العري ضة
اح يق
ف وسفات
ف وائده
ذب ذب
الق فل
لل مدينة
مست حيل
بالت وفيق
المست ودعات
إ قناع
المه ند
19 38
يس عون
والأش خاص
مق صد
لل أسر
د مية
بو بي
بأن فسهم
ا طلق
بس ه
اشت هر
8 60
عائل تي
ب بغداد
ل معرض
است قب
خر جة
بال امارات
الش واطئ
الرمض اني
ب الغرفة
صوت ا
شن و
الص ر
الش امية
والم دير
لمن اه
فإن هم
جرا حات
السم راء
يح رق
قطع ت
فا قم
عكا ظ
بخ برة
الف ضية
بسي دي
المت وفر
الكهر ومغ
يشعر ون
48 6
قائ ما
ترك ب
بر ح
ب خصم
الني ابي
اس فة
وم وقف
هام ه
رمز ية
دخول ها
المنافس ين
أموال هم
وب كر
والم صنع
فض ح
فر ار
عا شر
العص ائر
أم لاح
ي بني
مد اف
الأ صناف
مع انات
حس اسة
النج ارة
المبذ ولة
50 3
19 43
مه امه
مت فوق
سان در
الش رائية
وإن هاء
العل مين
ار اء
19 23
لل ز
الاست ثناء
اخ تبر
والب خاخات
0 100
لإ كمال
ضمن ة
المغ ذي
أن وار
وت كاليف
كار لو
4 24
النظ ري
مت فق
16 353
وال فيديوهات
ص لك
ج اردن
تق ارب
الش داد
أك وا
تلا ط
ت كسر
المر ات
الاش كال
ته رب
الهر مل
المنت زه
المع طي
الس اهر
و 14
قر وب
الز اهد
المشر ع
ال وثائقي
جويل ية
تج دون
وأف ادت
محدث ة
التح ية
وت سبب
ن لاحظ
ضل ال
جين كياو
والتق ويم
مظ لة
موظ فيها
لك يفية
الح ياتية
الاد عاء
ون تاج
85 2
وي بدأ
ن شارك
ل وظيفة
السبا كة
احص ائيات
أز هار
55 7
والت عرف
مش وقة
ل وظائف
المح توي
وك يم
التس ريب
وا يلد
لم كتب
قطر ية
الاحت رازات
وس ات
وا عادة
برج ك
ل حة
كثير ون
تغير ت
الص قور
والس جاد
والت فاصيل
مع ار
بي جو
لن وع
الكن وز
و أمان
الع ون
بت ور
الم اعز
لل خارج
المثق ف
والمنا زل
شيفر وليه
د ارة
تح يط
العق ارى
الاح مد
ملي ونا
مح صول
كول كاتا
يل غي
وما هي
والمنت ديات
والا كتئاب
بأي دي
أجن حة
يد وم
مبر مج
د موية
ج يران
بحوز ته
ب الانتخابات
ين ين
هات ين
الن ابلسي
نق ع
بح ص
ود روس
وأ عرب
م بنية
كام ب
ستوك هولم
الإند ونيسية
از اي
6 20
وم ار
كا ذبة
الإحص ائيات
65 8
مع اصر
ف ديو
ص رافة
العام ين
الأن ثى
أي سلندا
ماك ياج
ت اف
نع ود
ف وكلاند
ز ارع
الح ناء
والمح اسبة
موا زين
ري كس
الإستر ليني
ج وري
تح كي
البنت اغون
إ سمك
وي دي
م اريو
ل خطر
ق صي
الأما زون
اج ع
خ رب
المس كن
3 32
رك لة
هب ان
لأ طفال
ستست مر
ان قاص
الاول ية
ال ديو
و 17
يعرف ه
عل ني
سا ويرس
ج وكر
مع ني
ان تم
يص عد
و غياب
مق شرات
بش ع
الض مانات
الت خدير
لق يت
الن صيحة
ي لاحظ
لمست قبل
بس وت
وع ناصر
فر نس
الجز ئية
لافر وف
قياس يا
المد افع
الق اسية
التر تيبات
الاس كا
والأف لام
كتات ورية
والي ابان
الف خذ
الحر اسة
وح جز
والإ حسان
وخر فان
ش خ
الش خ
ير مز
لم وظفي
لان نا
دي مي
تن امي
يخص ك
وز نها
مخل وق
داع يا
ن جمات
كت ريا
والت وتر
وائ ها
منح ه
يق ام
ل محركات
ف سيكون
نك هات
كاب تن
خار قة
بم كتب
الدع ائية
مناه ضة
مشر وعة
ش لن
احترا ق
أطلق ها
متسا وية
المسب بة
الف طريات
مع انا
عك اشة
المط ابقة
وص لاح
والم وت
ث غرة
وأ شهر
ب الزواج
وضر ورة
نحت فظ
طاب عات
رافي كس
بن شاط
الس ورة
باب وظبي
14 49
وام تحانات
والم وضوع
تر وس
انز لاق
وم عايير
سلوك يات
016 40
ي بارك
مرش حي
ل شب
رض ع
جوا زات
جز أ
والط باعة
إد ارات
مل بورن
كت شين
جي دي
انع كاس
ال ائتلاف
أس اة
سل مي
بت بوك
المراس لات
التنا زل
وآخر ته
منت هي
لك ثير
النق ابي
يف جر
والب ل
مست فيد
الق سام
الزع تر
الإنج اب
الأرثوذ كس
لي كم
الفرا عنة
الت برعات
ميس رة
مل يوني
غ واتيمالا
شفي ق
يت عرف
سامسون غ
أن دونيسيا
يجي ري
مع تز
لل وقوف
يعلم ون
ون تن
وج رام
والت زام
م فيدا
ذ را
باك الوريا
الع بي
الص بح
الخص ية
48 9
بام تياز
ونت منى
الاحت فالات
و ولي
تمت ة
المه ارة
الل اتي
والم وظفين
لل رخام
قر آنية
المص احبة
اض افي
كرا ه
شرائ ها
تش ريع
اري ز
هي وستن
منطق ه
مع ماري
تص دى
به جة
للاس ف
لت وصيل
بن ج
كر وشيه
الم اسة
الك ريات
السج لات
فر جين
الت راوي
ات و
قاب وس
خش ية
جل يم
المفر طة
36 2
كوال المبور
ش وفة
19 29
تأثير ها
والم ساء
مراه ق
لح س
ان بعاثات
الم واسير
يك ثر
للمع اصي
رائ ض
الاست فتاء
أنه ى
أف قي
لل ذهاب
تن عي
بالقض يب
ول له
وبي س
وال هجرة
لف اف
الق ار
هجر ية
ظهر ه
رسول ه
الفي صلي
الاست ش
الأز منة
إح ضار
0000 0000
وقر ارات
والخ روج
صار وخي
القر أن
إك سترا
وأ رقام
مثل ها
ليت وانيا
4 14
والح قيقة
ند عو
م ذي
لا زالة
فرانك فورت
تب قي
الض ائع
وبد نه
مط بعة
لح فل
الأ عمار
لل حلويات
الن وبة
المالك ة
لم باريات
لا جئين
الق اري
العر وش
الفل ور
يض اح
مشاهد تها
بق صر
ب الكرة
ب التحقيق
النز يف
التق سيط
الأمري كى
الو عرة
المقط م
ل شحن
والع تاد
لل صحفيين
لل سماح
المن صر
ولكن ي
وك رة
لل بي
كيل ي
تم ون
مش ابه
والمد ينة
كت ا
شي قة
ول كم
قائ دا
تج سيد
او يل
الث روات
مرج عية
والمسا واة
وأ عراض
از اى
أد ري
واق تراحات
مل كه
ق وانغ
تغ ني
مد ا
ث ورات
الك ورة
بز نس
ب الآيات
المعد لة
الأ وبرا
وط ريق
سا كن
خاد مات
ون أمل
مت ش
بل ان
الح ورة
اع تز
وت عرض
مه كر
ز ك
بي حة
الب ؤ
والأ جنبية
والأ وراق
هام ات
المف رق
المش اهدين
أو ى
مل حم
شين كو
وتر تيب
وت مكين
ست بدأ
رس ام
الكس ور
وي شكل
الم ضمون
الم اد
العق اقير
الس اعدي
مق اب
ت بلد
6 76
مهد دة
البتر وكيماويات
و 20
ذ وى
بد وي
9 80
وت وجد
تزويد ك
المد اف
أبو ابه
و القدس
مخ فض
ب تمويل
المح كوم
الز يتي
أو كس
الب طاريات
لل ثورة
كرا هية
اعتمد ت
الع وام
و خطوات
د باب
جه نم
السح اب
٨ ٠
ي وس
يون ان
والمسؤول ية
نسب ته
كا زيون
ف تر
خي ارك
الد خ
وص فية
ودي كور
والك ليات
مار تين
بالض فة
المجم دة
عر ج
ي وت
صفح ه
ت خلف
الفرس ان
وق ته
اي ض
وت هدف
والح فر
شي حات
القر ء
ارتك ب
والق وة
ل تصفح
فتح ات
إيط الي
12 50
ها ك
منتجات ك
طل بها
والتسع ون
فوري كس
شي طان
حدد ت
جز ائر
تت وج
ت ارية
الخ واص
التق شير
الت حق
الب دع
ير حم
يخ فف
ث ه
تنت قد
تض خم
الق ائل
أهداف ها
ي كره
والت هاب
قا وي
ص حن
راس لات
بالغ ربية
الغوا صات
السوداني ين
الا يت
الخط ير
الج راح
ن ابل
اكس بريس
اعتق الات
وك ري
مشاهد ته
داي ما
نس يم
ليم وزين
ز لات
اوت وستراد
الار باح
ود ورات
محج وب
لل مخ
17 58
تد فئة
إ رضاء
م وطن
م طلب
الرئ وي
فاض لة
بخ مسة
وه ين
مقط ورة
مايكر و
لك ان
كو كتيل
طمئ نان
جث ث
المت وفى
48 4
الا صدقاء
وي ضيف
ست صل
المج ففة
ل تشارك
خي يم
ترين يداد
ش اطر
وتع تمد
و الحلويات
لمست شفى
لاست ضافة
الفلس في
ق اقات
المح لى
ونظ را
حف ارات
بلد هم
الاس طورة
وث ارات
ساعد ت
خي الي
اد ميرال
إرس اله
والدي مقراطية
بالم درسة
هوي ته
لل شرب
تك اثر
الت اي
47 3
لا حة
ب الإمكان
الع ريس
المش ابهة
4 85
وتق وية
ج وج
تص اريح
الارهاب ية
كون سيل
غر فتين
ته بط
ب المر
تر بح
إنت شار
مير اث
يد مر
بعض هما
و الخبرة
فت ات
برا عم
الور م
التقط يع
الإبراهيم ي
وي صل
والأ ل
المقد ر
بح فر
لج أ
تي ها
الام تناع
وكس ي
المنز ليه
يص ط
منت شرة
مص نعة
جذ ري
الب ك
ست نتهي
للد راجات
لتأ هيل
الس اقين
لل شغل
ل حن
وح ضر
سر ت
الع جل
ولكن نا
والت ل
وال علمية
الدبل ومات
والتن سيق
الخ ميرة
ه طول
تطبيق ه
الما وس
ن فى
ت خلق
المعا ش
الرش وة
وي تكون
مت وف
قول ون
تركي به
بت غطية
ار تقاء
ما يك
كر مل
بن ظر
المس ام
40 3
ح شيش
الح ادة
والق وى
لوكسم بورغ
ب مسابقة
فرض ت
ت يني
غ ائم
يت واصل
ويد خل
إبد اء
3 37
ومؤ سسة
وتخ تلف
وت بقى
و أسر
لط فل
ساح ر
ت كرر
مت عب
مت شاب
ست حفظ
ذه ان
ه الاند
ض واحي
تط و
ت زل
ي اما
وب داية
والإ رهاب
والأف كار
ممثل ين
خ يط
والب ور
ق يادية
زع ماء
تن قسم
الكر وي
4 35
لت سليم
ل رجال
توا ضروس
المتر تبة
بلا يستيشن
بر بط
ب أمريكا
و اسيب
دجن بر
المصري ه
الش نط
الج نائ
مت نها
بر جل
بم بادرة
بر وز
الن هي
اح م
ومع اني
والك شف
فك يك
سينما ئي
وتص بح
والق مصان
وأ خرج
نج ا
لك ونها
بالب لاد
وأنواع ه
ول اح
الربح ية
الإس هال
اح تر
في كس
تحقيق ها
مر طبة
علق ت
راف قة
تد عي
وت صل
سم ين
ج ج
الفا علة
ي وفق
والمست ندات
الآ يفون
ابون ج
له ام
حول نا
انخفض ت
العر وبة
لل معادن
عملائ ه
خار جة
تخ تبر
عقل ية
يف ضح
وب حضور
نس وة
لل رحلات
بل اس
الض حى
مر اتب
ع س
تقل ب
ب فاس
العص ا
الش يرا
ون فس
تسل ية
المت خ
وج راحة
ما شاء
بي ور
والخ ل
وإ علان
في ون
ف راق
د وب
ح وز
14 01
لل تراث
ري سي
الراش دين
ول عب
والح ساب
لل فترة
لا كت
سك ك
اله دية
الق لا
إصدار ها
بور تون
و الخليج
ضي قة
والدكتور اه
والد راجات
حق ها
تع قب
الإف ترا
الأم مية
وأف ريقيا
وأ ين
ند ين
عبي دة
بس وريا
الي كس
مو حة
تر عة
خ امنئي
إ جمالية
نج ى
ظ ريف
الوا قية
99 6
صر ت
إبداع ية
ل طفلك
ك نائس
ساب ع
اد هم
والك فاءة
ض فاف
اف ته
اعتداء ات
خط ية
ور وايات
طار ئ
بي ير
34 3
وت عط
و الثقافي
مسر حيات
مت هما
التح فظ
الب دا
اس ان
وم دن
والع سكرية
ب كي
العل ني
الرس يفرات
التحليل ات
من وع
رح يله
الخل ابة
ال ارت
نسي ان
سب لة
اله جر
الخار جة
وق ه
تت بنى
إح سان
لع ودة
شك وك
ان وية
العش ائر
٣ ١
اس يس
إم تحانات
أ وي
يف صل
والمس رح
مس طح
المعي شية
مص ف
طر طوس
جوني ور
لل علم
كث ار
جن بلاط
الان شطة
ل عنة
الخ تم
إخ ماد
وار ق
و حقق
لتس وية
غ راي
با ولو
النق ابية
وت خصيص
المسئ ولين
ا خطاء
إ ياد
يت دخل
لل تس
د كتورة
خلي ك
تسليم ها
النمو ذجي
5 16
بوي ض
عزيز تي
تعدي له
ال الف
وات ا
أست خدام
سو يا
هيت اشى
هان ى
نق ض
لب ان
الرس يفر
وط رح
و استخدامها
لل نهوض
لل حقوق
وت ون
بوس طن
ليث يوم
لل مؤلف
المست ديرة
الخ ان
مون د
بر ؤية
وق ين
لل نقش
سور ينام
اخ ضر
أو ها
وي ذكر
تج ب
المق لاة
است كشف
ج وده
ب فريق
وي ترك
للخ ياطة
المل صق
البوكس ات
المت طرفة
ويل ات
وص در
وتوبا غو
لل وزارة
دي لا
تح اليل
ؤ ك
جمهور ها
جسم ها
اف رة
ا يكون
أمس تر
والأ ر
مل ام
مغ ني
جسد ها
الإست فسارات
اعتق اله
فق الوا
الف تى
إحص اء
ون شرت
ود ار
الش ويخ
06 45
ت بات
المغ ناطيس
العث يمين
وائ ق
م بكرا
الغ ياب
نو وي
موا فاتك
ح شرية
وأم طار
تش ا
الاز هر
هه ه
ش بيهة
خل ود
الم خلص
التن مر
هاش تاغ
لإ نت
ع راد
صم مت
اكت ئاب
نظر ت
تر سيخ
الرؤ ى
وخ تم
ها ة
مس لك
لل تعريف
ج غرافية
الح مص
الإ ثيوبية
19 17
ست ساعدك
الخاض عة
اسات ذة
أرض يات
وت وقعات
ش هي
أ كلات
جير سي
تفاصيل ها
الإن تر
مس اوي
ط را
شر ار
بمن اطق
مو صل
جزي ئات
الناج حين
الأ كمام
ف وس
ج 2
ان جل
وب عدين
صي في
إج بارية
أم واج
والإ نجليزية
ل تنسيق
بدع وى
بالت عامل
المخ ز
الفار وق
يقول ه
و ماكينات
شف ائية
المح اكاة
وت ويتر
هداء ات
الفض ائي
والد عوة
د نا
التر وي
يس رق
وتك وين
قاب لية
عشيق ها
الد قائق
ن طالب
ن شعر
مي غ
الحض ارية
الش كوك
الوق ائع
الن بطية
مز عجة
كاف آت
عرف ه
بود ا
اش راف
19 14
والم ث
أ حرف
6 77
ه كت
لل بر
الف ناء
وق لة
غ ابات
المرا عي
ابتس ام
يرفض ون
ن بوية
فض اءات
ان وار
الإم تحانات
اص لا
أكت وير
ر وض
دا و
ح فار
ولد ن
المن وي
اظ افر
ور وح
ور لد
ف 1
ع من
الش اه
لل تشغيل
لتح ليل
ل ثلاثة
رغب تك
الانتاج ية
يجعل نا
ند وات
لد ية
لأ ية
الإسلام يين
يس افر
لخ سارة
ق سنطينة
راج عون
خخ خخ
طل ات
ج الاكسي
و السلطات
بالن جاح
اه الي
ان صح
المعتمد ين
أ غلبية
نيف رة
لل مجموعة
لاد ارة
عيا ده
ط الت
باب ن
ام د
٩ ٥٠
الص يادلة
34 2
والأ غذية
ن قبل
قي ط
فاش لة
ست بقى
در ين
التق ارب
والك ي
مرش حين
للمست هلك
التك رير
وش ؤون
مجاز ر
لس وء
تل ت
كارت ون
اليا ف
الت اب
وعالم ية
وب ول
السم وع
و الثانوية
ن وي
كولور ادو
الإ قبال
هيا كل
الت صرفات
البنج اب
ؤ ي
وت وريد
والج هاز
لمن تخب
ط حات
ذ ابة
ح ح
بغ ات
اص وليا
رش دي
اب تكارات
وم عا
وم ئات
الص امت
الب لاتين
المع تمرين
19 42
ورد ية
س وز
ي بي
عقل ه
ب سيارة
الز بون
الخ فا
لا وس
المت احف
والق واعد
باحترا فية
القد امى
الان حراف
الأ عوام
و البنك
ص هي
سرا يا
ح التك
الطبي ه
الر امية
التناس لي
ومز ارع
وت وسكر
مفاج آت
للح جز
توافر ها
تن شتاين
تا ثير
بع ية
ز بد
تج ده
الا ذا
برا يس
باح دث
الاص ابات
15 77
وإ علام
الإ غاثة
00 7
في الجزائر
شيرات ون
حق ين
الان ص
وأ فاد
التك فير
وت وظيف
مات ت
الا ذاعة
طل بيات
سل بيات
للع رب
ول وا
والتح قيق
لم ثل
برأ يك
بلاد هم
ب وظبي
الإم امة
فس يتم
سي ظهر
سفي رة
المطر ان
الم ذي
الدكتور اة
الب كر
أي ون
أن در
وفر ت
و المحاجر
هن غار
للاست عمال
ر ور
انتخ ابية
تعيين ه
بالن ت
وووووووو وووووووو
ض لات
الز وايا
والر وح
رك از
المن بثقة
سي ول
ئ تها
ودي ا
يت فاعل
مت د
الاخ ري
مواطني ها
حيا زة
بدا يات
التس ميات
دا دة
بد عة
الع ي
التع ريفات
الباك ستاني
الإج هاض
الإ ر
إنف وجراف
م أكولات
أخلاق ية
تل ات
الموض حة
مكان ا
رحل تك
الر ميلي
ز واجه
القض بان
الص ودا
زم لاء
حي حيل
تج لب
اله فوف
والم شاكل
المد ع
اشترا كات
خط ا
تخ ليص
الشر م
سل مت
ب فرنسا
الن عم
4 23
والتص نيع
لت كم
وعلاق تها
وأ داء
هم ام
ش نا
بيان ها
الإ تاحة
يح ث
و الصناعية
المسب قة
المورد ون
أسفل ه
منع ه
تز ود
المدر س
البريمير ليج
الإ ص
9 65
وهي ئة
وت صدير
للق يادة
كري س
سيست مر
يواجه ون
نكر س
أوب را
اقت ناء
مد تها
الق اموس
والح ض
غ ادي
تست عيد
اه تم
الان تعاش
ج الي
بق ضايا
أمستر دام
بالر قم
يف و
نغ مة
غ يت
طاج يكستان
و تحتاج
الكاري كاتير
19 33
وز اد
مار شال
ط ماطم
السعد اوي
ع سكر
45 7
ل ملف
حدث ني
بم راجعة
ام تياز
السما وات
مميز ه
ماري وت
لك ون
بار ه
مق ربة
م وفق
وحد ك
كل ير
زوج ية
الأخ ت
يمتلك ون
مت أثرا
لل ثانوية
ل الات
صيف ية
الخ شاب
ل وط
أل بر
بأ ربعة
موعد ا
فانوات و
سي حية
الج مي
الت رس
اد ب
إف راز
ش ده
المتعامل ين
السير فر
1437 ه
و الأسماك
19 27
يحي ط
الكري مات
ومح طم
والمنت ج
مش حونة
مخ ز
تر سيم
ب الأطفال
الا طباء
م بسط
وال هدايا
تي شيرت
اف عل
لل زوار
ب أرخص
المفر دات
الك وفة
الح نين
الأ يتام
قي صر
باس كال
ب ضم
الماض يين
السح ابة
الرا دي
ولكن هم
تكم يم
الفن انات
يت ضح
مر ارا
المخل وقات
بت وصيل
اور با
والأ خير
لل التحاق
عب اءة
ير فة
ورؤ ساء
اكي اس
أذ كار
م وجب
را هم
المح ال
والمنظ فات
والأ صدقاء
كان و
توا كب
النا در
الاف كار
الاب اء
60 7
فل ية
المتط وعين
الز ملاء
الخل طة
الام ان
وم وضوع
والح نجرة
رود ري
الخز ينة
يد ان
ل فيلم
تأ ملات
وم رح
من و
ب الحب
وح كومة
نها ئيات
سانت ا
المر تقب
التر طيب
اد ريس
وك أس
لل قطط
لاحظ نا
تر شيد
لل ملك
كاب لات
اق را
والإنس انية
لاب ور
وح وارات
نف عل
موا صلات
دور وثي
ال ريق
اب احية
م وب
تهان ينا
النص في
وبات را
لا و
بط عم
بار ا
ب جمهورية
يق فز
و الأسئلة
اختر نا
الإس عاف
19 31
والم صانع
والج هد
مكت بي
د ليلا
الأق وى
نص ا
بين بع
ب أنواعها
الش بيني
و السياسي
هم ه
ك ونا
بي ار
الم علقة
ور ام
غ وي
بالس فر
الش غ
دع منا
السفي رة
10 10
ج نائية
بريك ست
الد هان
وق سم
ع ودي
المص احف
الب ساتين
19 24
متعلقات ك
طف ولة
ست اد
حز اب
اي ار
الكا ظم
أنه ما
مد مج
لح ما
كومن ز
كاليد ونيا
عص را
ر ومن
با كات
التلق ائية
ل استرداد
انت ظ
المس تر
الم وكيت
ل وسائل
تر فيهي
القر طبي
قل بية
وت سعى
مساح ه
غام ق
الح افلات
كند ريه
ت كسب
الصلا حيات
تت ألف
الا طباق
ي كسر
نائ م
لل كاتبة
ال اليك
ئ تين
أ بابا
الشداد ين
الاتهام ات
وم تابع
هو ست
8 211
4 48
لل دين
الفان يليا
مت ل
س وزان
ديد ان
ت اه
الل وتو
الق ش
ه وائي
ده ور
تحويل ها
وجي زة
لل آلات
ف نسنت
سبي كة
ر طل
مص عد
صور ته
لل مواضيع
فه ام
سيف ورا
وان تم
ف وفين
شر ه
لي ما
الف طيم
الألكتر وني
ومن ازل
والق ضايا
لتح ديث
رش ح
بور ج
ها ون
ل وقت
ل سيارات
صديق تها
و غر
ر فاق
بالب احة
الج وفية
وال غرب
مسؤول يتها
وأ همية
للح وثيين
بداخل ه
العاش ق
ار خانه
هر امات
مشد دا
100 000
ير ام
التط وع
البها ئية
ارت هم
36 1
وت واصل
الفل اسفة
الخط رة
التف ليش
التف اف
أمام ية
الص ليبية
هني دي
ما في
لل سينما
زه راء
بالق تل
الأ فران
ال ولي
إ يفر
يط بق
من تي
خر جه
ب الكمبيوتر
المت فق
أر وى
ن نفذ
الز ام
أعم ق
19 25
والع ملاء
عر ات
الل اب
الس ائد
أسفر ت
والم كتب
نت علم
بي ريز
ب الشرق
الر بو
طل عات
ب سلسلة
الت هوية
يص ادق
در جه
نش يد
للم غ
الخض راوات
٩٩ ٩
و الرسائل
لل سلة
فض يل
تق ار
اث ون
واج بة
جن ى
تص غير
الشحن ات
السلم ون
الب ائعين
مشاركت ك
البي طرية
الأ حق
اصدقائ ك
و الحق
غ ابة
س وة
صبغ ات
حت ة
تش اء
الص هاينة
الاب واب
الأري كة
وات ية
و السعال
د هب
تض ارب
بال هيئة
19 21
واخ تبارات
للت خطيط
فين يل
عا شت
زي دي
بس وهاج
المن ظر
إ يست
4 34
يت عادل
مج مة
عق لي
68 6
مض يفه
الب اقة
لق تل
كل ى
ن أسف
حقوق ي
تف رق
ك ليف
سهل ه
تأ سي
اي زو
الج ولات
6 65
الموز عين
الم بتد
الأ مي
مع جنات
ش وكولاتة
ب معالجة
ل وحدة
تح ث
يت وافر
المد ين
أه ميتها
أرد نية
يت وعد
الليث يوم
اج ابات
وم الي
كا يات
القد ماء
الز نا
الأس وأ
الآ يس
اك مل
٩ ٠
والتص وير
ج يميل
اش ياء
قر د
التسهيل ات
والت مارين
رب اط
المتعاقد ين
ب ثق
ب الثقة
الهات فية
الدم ى
تت طلع
بو كة
الم بيت
الد اكن
إن كار
هل ه
ن ذ
صح ته
س وت
ب تك
ب الأحساء
الل هيان
اط عات
م ضافة
البد الة
9 68
ل تسويق
ب غرفة
وف ود
الشر قيه
وريا دة
حضر ت
الخ امنئي
الج واد
٥ ٦
وي هدف
عربي ات
الأ حمدي
ا وكر
3 ع
يوم ه
ط ط
39 1
و خصومات
و أسماء
تشري عات
است ها
م وقعة
ظ واهر
بت قييم
ال امة
4 26
بال ولاية
النا دى
المر جو
أح اول
قرار ه
بج ولة
المؤ بد
يم س
ي زة
تعط ى
الأوس كار
05 44
نب ذل
حصول ه
بالت عليقات
الس وفت
فا كتور
عر اس
س ناء
المستوط نات
اري ون
اذ كار
إست عمال
وأ بي
سك وير
ح شرة
ار ز
وم طاحن
موقع ي
الغن وشي
ت لم
بالم ياه
الأ برز
وا كد
كن دي
تكون وا
المح اولات
التج اوز
هوا يات
حجم ه
المع سكر
الأ وكسجين
87 0
وآ منة
ل شعب
الاحت رافي
أل فاظ
أخذ ها
والم حيط
لمعلومات ك
ط ام
ك ولد
النعيم ي
إ برام
عن صرا
الم وفرة
الأ ذربي
ومن اه
فكر ت
بين ت
الج لي
لل حب
بن موسى
الم ذكرات
ا ذكر
سمي ت
تتع هد
ك أحد
الأنف ال
ك بريت
عن يه
لل حيوانات
فاعل ة
السي وف
بن جلا
نيكار اغوا
مس طحة
ارج ع
وب الفعل
و علماء
الج يب
اج انب
و الشعور
ف ويس
سم يرة
تط ريز
ا يتي
فت فضل
ب راج
التحص يل
وت أكيد
ها دية
لق ات
تف ويض
أج سام
27 00
وظيف ته
مح ض
ط لائع
وإ ذ
مك و
صحي حا
راض ى
انج ليزى
حط ين
بج ماعة
الأس مر
04 9
ه نية
لح الات
شرا ؤها
ش جع
رج الى
أن تج
فع الا
ذر وتها
حت ين
بي كاس
بس اط
الجمع ه
وتر غب
قط ارات
امبري و
وإ ش
الف راق
الرياض ى
ع وف
جس دي
وج از
والع سل
المج اهدين
الان زلاق
وت عليق
م فا
زين يكا
تح ري
است بيان
يض بط
والمر كز
إصلاح ات
مستعد ون
مت أك
عبد الرزاق
خدمات ه
تميز ت
الت بول
وظ هر
من يو
قد مته
مار ب
جي ز
بل ده
و الاقتراحات
صوت ه
النق اء
المت غير
الا هداف
قط يع
فلا ي
الاد اء
دوا فع
ناز ير
ب مرحلة
ن وصي
ن شي
والت فاعل
قيام ك
الن فا
المق اولين
المخ يمات
أن جز
والأ دبي
للمحام اه
فول فو
غ ت
الل د
وال رياضيات
كتاب ك
قطع تين
ظ ي
تح يا
الج وزي
مدف وع
جي وش
اب الا
ويع تقد
نق اشات
الثق ب
لل مستشفى
برازيل ي
العب ودية
نز اف
لل زمالك
ما ده
ف الية
با ذن
الكش ميري
التقلي د
ش جر
جرا حي
تعل مت
الأ بن
اسبوع ين
ل جريدة
الأنا شيد
بن طال
إش راك
والت شكيك
هدا في
لأ لعاب
قد متها
اخت اري
وم زايا
وأ سلوب
و خلفيات
فض لات
جي هان
بن و
إسب اني
آ رت
ود ها
بك ون
النا طقة
الق ين
لل تصوير
سنتر ال
س جين
تعريف ية
الق ف
الد اعم
مر ها
لل تصدير
ع اليا
اه تماما
اع شاب
اس هم
يص لك
وم مثل
تش جع
لم بلغ
لل منظمة
فير جن
التط بيقي
التأ مل
ل سيارة
د مات
5 22
مج رب
وبر لمان
ص ريحة
وح مام
ح جرة
جوز ة
الور اثة
المنط قية
يت جزأ
ن وكس
فات ن
4 49
وال العاب
حم ولة
ب محاولة
ب المنتجات
4 39
اد اب
متجر ك
ح ائرة
جذ ع
الن بأ
وص الة
نع ومة
ع تمد
بنا ئها
الا وت
19 34
وأ رد
مضغوط ة
كت سب
شهد تها
إ طفاء
ن عد
59 2
دول تشي
الو عد
الت لي
ول دى
للس كن
نج معها
الر فض
المح فظة
الش عي
ف ربما
ت تعاون
ب أة
الكلاس يكو
الز رع
افتتاح ية
والخ واطر
خ نيفرة
ب تركيا
وي ضع
م أن
بات خاذ
الز ئبق
الد ال
التراوي ح
يو اني
لل تجميل
اقتصادي ا
وتح ضير
نخ لة
كي كر
في رج
رول كس
ب قطر
اليق ظة
الط اعة
الن طاط
ف وك
المتداول ين
ن وضح
للأ ظافر
جاكس ون
المث انة
الخص وم
والت نظيف
نش ارة
الص واب
داخل ه
وإن نا
والإن شاء
والأخ يرة
لمت جر
تأثير ا
بر فض
التح ريم
الأز هري
والحي وانات
و خرج
لل علماء
الر صيف
الا جهزه
والت شري
نور ا
موقف ها
ستر ى
بالإ جراءات
والض رائب
اله الات
اض افتها
تحديد ها
بو ين
المعاد لات
9 70
والت وصيل
شعر ه
وتست انت
فل ح
زميل ه
بالج رعة
وي شير
والأد وية
وأ خبر
ملتز مة
قل قة
ري به
اج ير
واخ بار
ر كام
الا وضاع
أق ضية
وغ راف
يش تغل
مده شة
لل مناسبات
غ لام
بد ف
إ رشاد
20 26
وتس ريع
والتر فيهية
خ سار
و خطوط
لو فا
قط ين
والد قة
البد لات
اد مان
لي قوم
لوج يا
بالر شيدية
ب القطع
امير كا
9 000
مس دس
أك تر
والمشار كات
والط يور
والت جميل
ما هية
سيل تال
وت داول
م انة
دوري ات
تن ى
الص يغ
لل رياضة
فر ده
اش ارة
مع قد
لل سرطان
جوال ات
الوا دى
الم بني
أمام ها
وم صدر
للم باني
ت تما
المحتج ين
افتراض يا
أك وام
ك شك
المد عوم
الكوك ايين
فان ك
تج سد
الرش اقة
وإ قامة
إ ياه
الممل وكة
الفق هي
سل مية
جلب وع
آسي وية
ل وسي
عب ق
ع ينا
حر ز
تق ترح
الغالب ية
نق اء
كلي وباترا
ك واحد
رش ادية
جهود نا
ب الأعمال
يرا ها
ه ناء
تط ورت
المست فيد
المن فذ
الإنت ظار
أه ولة
مبد عين
تت كرر
بحث ك
ب اللغات
ان عاش
ئ يلة
يؤ يد
والت عبير
صع با
الح بة
الت جنيد
تع ظيم
الخر وع
وق يم
والع كس
بتر قية
الفرش اة
أ صدق
والتأ هيل
تش ل
الاس ماك
بق ار
وم حمود
الص دور
وكس ر
مع تبرا
متوا فقة
سيد ى
بطاط س
احتيا ج
إضراب هم
غ يا
غ زو
تق ادات
تست وجب
الم ترجمة
القر م
20 50
وك يا
08 4
دا ش
د اري
المت أخرة
تق تحم
45 8
طبيع تها
د انا
حقوق هم
الأ وان
الش هي
والمست شفيات
الم تسوق
والتش خيص
و غرفة
مل مع
معل مات
مس امير
ث قل
اه ن
اس عد
للأ وراق
اخ بر
اب نتي
ائ ما
وق نوات
والح اضر
كل غ
فقر ات
القر ش
التز وير
الاق تراب
للأ كس
العر قي
يون يك
وم طبخ
والم فروشات
قن ديل
الإ عجاب
ين شأ
م وانئ
ج وس
تس عين
المنش ط
منتخ بات
كتاب ته
المع جون
الف طور
أم ية
ي عر
ف 2
ب فحص
وم سلسلات
وا ى
س راي
والل يمون
ق اف
الأني قة
ولا ة
وش اشة
ميخ ائيل
صال ونات
الكور نيش
وي ريد
وق فازات
لا هتمام
فكر ه
ن يدو
دفع ه
الان بعاثات
أخص ائى
كن ترول
س كت
لل فيلم
لا ه
الك فاية
التع ريفي
٣ ٢
د با
أل وفة
ين عى
ر بيعة
حلم ت
الحص ص
وت دخل
بار تداء
ا أل
أر طغرل
مق تدى
الج رافيك
الأنا ضول
في جي
الحاس مة
اج را
ابتد ائى
إرس الها
يز ن
مز يفة
كاب وس
اخر ين
وت عني
موضوع ية
مت داول
الام تثال
مر ورية
مار ينو
تقرير ها
با ى
ن هي
للمش ترين
للأس نان
غ زال
خاض عة
للا علان
است شهد
مق رات
ج مي
المق يم
دومين يكا
تكوين ية
المت زايد
الاحتيا طات
مش بوهة
مج هز
لل مؤسسة
كيكر لاند
جان يرو
الاف طار
أث ينا
الج لوك
الا كاديمي
وت وسيع
ح با
ته دم
التونسي ين
79 8
م تحانات
ك ويس
ك حل
ش اليه
ب مر
أوري غون
المؤ امرة
الف صيح
الس امة
إ راد
ير ت
ب تج
إب ليس
زن برك
تقل بات
الص الون
الا حص
واست عادة
خي ام
أخ تار
و الدراما
هد نة
الل بان
الأنس ولين
هن ات
موت ه
مكونات ه
لين وفو
ف عند
الم بتكر
الث راء
ك ذ
لل صيد
لك ونه
بسر عه
ب المستشفى
مشا وير
متي كس
في بر
فوز ا
الو ورد
الميت ة
والإ جتماعية
ط ريف
والج نسية
قيام ه
ب التحديد
الس وسي
الد رج
بالإ علان
الأخ لاقي
أس طوانية
ق وته
الغ ابون
وت تضمن
الزن بركية
أطف الك
يمارس ون
ج الكسي
ت غيب
تس ليط
لل اخ
ك شركة
ك ادر
ب العام
الس ترات
وم مثلي
فع الي
عبد القادر
ر الي
ح يرة
والأف راد
مق ترحة
رفع ها
خور فكان
تصاد ق
الن ثر
اللا فندر
ي با
ومع ظم
وجعل ه
والر ضع
ه وجو
والنت ائج
والط بية
ما ديا
ال ولوج
و الفك
عهد ه
المشر وب
الج سور
وي كيم
مق ولة
للف لسطينيين
في نت
وج واي
بم كن
الشك وى
كوز متيكس
بب ضع
الاج ابات
ضل ية
والأ ستاذ
قل بها
الع القة
وان شاء
و المحتوى
شقيق ها
بالم ال
الرا شد
دقيق تين
المش تقات
العز لة
الب طي
نتائج ها
محظ وظ
ال لاحقة
6 16
مصالح ة
ب التجمع
أخ تر
وشهد ت
ان زل
الأنف ية
اد لب
٣ ٠٠٠
يع تزم
للت غلب
كش اشة
بل ر
أولي كس
كيت و
حاض نة
القص اص
77 0
65 1
لح ديث
بت وجيه
اع اني
واه تمام
من ارة
طائر تين
للق بول
عل منا
عبد الرحيم
ب دة
السج ود
احتيا طية
مرور ا
مؤ خرة
جولد ن
الز هري
بالأ ظافر
الاب طال
إطلاق ها
2 ث
وخ ار
و خيارات
لر واد
طنط اوي
خ وارز
بالت دخل
المي ديا
الج يران
ب ذكر
ايط الي
الض يف
شباب ي
تست جيب
القط ان
الدي ب
است فسر
4 27
إعجاب كم
4 68
والتف كير
تطبيق ا
مص غر
مجمع ة
بط ات
بت فاصيل
المس امير
البه جة
و ورق
تيا ح
اخبار ية
للغ از
ك وف
تجمع ات
ن سل
كي انات
تس ودان
الان تح
أف هم
مص ارعة
مختل فين
تل ط
بطل ان
الحميم ية
اش عة
أ سلم
89 0
ت وص
85 6
وا جتماع
ميكر وني
مق عدا
ب ستان
ب زيارتها
المكر ونة
[...]
