ا ل
ا ت
ال م
ي ة
ا ر
ف ي
ا ن
م ن
ا م
ع ل
ي ن
ال ت
و ل
ر ي
و ن
ا س
ي ر
ا ب
ال أ
ه ا
ال ع
ل ل
م ا
د ي
و ر
ب ي
ال ح
و ا
ر ا
ن ا
ل ا
ال س
و م
عل ى
ي ل
ش ر
ع د
2 0
س ت
ي ا
ال ج
م ل
ال ك
و ق
ت ر
د ة
ب ر
م ع
ال إ
ي م
ا ئ
ار ة
أ ن
ك س
و ال
ال ق
ع ة
ع ن
ال ص
ال ب
ا ء
ا د
م ح
ال ف
ت ح
ر ب
ل ة
و ي
ل ي
ل ك
ال د
ال ن
ق ة
ا ف
ال ر
م ي
ر ة
و س
ا ح
و ت
ك ل
ي ف
ال ش
ال خ
ع ر
و ب
اس ت
م ة
و د
ي د
ي ت
ذ ا
ل ى
ا ج
و ج
ك ن
م ر
ه م
ال ي
ج ر
ل م
إ لى
ق د
ك ة
ن ت
و ع
ال ل
ن ي
0 0
ك ت
س ي
م ت
خ د
م ص
ار ات
م د
كس ارة
س ب
ح ن
و ف
ا ع
س ل
ال ط
و ز
ت ص
ب ل
أ و
ا ص
خ ر
ب د
خ ل
ا ق
ال ذ
ا ه
م س
ال ث
ح ة
بي ع
20 1
ك ان
م ج
ي س
م ط
الت ي
2 1
و ط
ق ي
ه ي
ح د
عل ي
د ر
ب ن
ب ة
ك ر
ق ل
ت م
ت ج
و ض
ب ا
ان ي
ع مل
س م
د ا
ه ذا
ه و
ب ار
الم ح
أ س
ا ض
ص ل
ف ر
ط ة
ت ق
خ ص
غ ير
ع م
ح ي
و ك
ي ك
ت ن
دي د
إ ن
ي ع
أ ي
ال ه
ل ف
ال ا
ب ين
ه ر
ت ع
وق ع
20 21
و ح
و الم
ن ع
م ش
ي ات
را ء
ذ ه
و ظ
ن د
ت ف
ح ق
ك م
ج م
ال ات
و ان
ك ات
ت د
ت ك
ب عد
خ ت
شر كة
ر ق
1 0
مي ع
ال ز
ذ لك
ال ة
و ات
ار ي
ف ض
حن ة
ي ج
أ ك
و ص
ث ر
و ري
ق ط
ت س
ل س
الح جر
ال غ
م ق
ن ة
ون ي
خ ط
ل ب
الم ن
ور ة
ه ذه
م ست
الأ س
ع ام
ير ة
ب ح
1 4
ط م
مط حنة
ب ع
ن س
ف ى
ك ي
أ م
ان ية
ب ت
ا ط
ج ميع
و الت
ف ة
ول ة
خد م
ر س
ال ية
رب ية
مح طم
ن ية
ول ا
ل ق
الم ر
ع ا
الم ص
ز ي
ت ه
ري ق
الم ست
و ى
اف ة
م و
ع ب
عد ات
الل ه
يم كن
و أ
لل بيع
ح ت
و ية
ل ام
ل ات
ئ يس
ه د
ق بل
ب ط
ال ان
الم ت
آ لة
ا ز
ري د
الي وم
ق ر
ام ج
ا ش
ت ش
ج د
ام ة
ين ة
ه ل
ت ي
ب و
1 9
ال شر
ف س
ي ق
ب ه
و ار
الس ي
الم ش
م ث
ج ل
الع الم
ز ة
ب ال
اب ة
دي دة
خل ال
1 5
خد ام
ص ر
م وا
ص ف
ال عل
ع ار
الذ ي
1 2
ن ظ
ت ط
الأ م
ج ه
ال آ
الس ع
را ئ
الم نت
ب ات
است خدام
م ار
ع ي
ح ر
2 5
3 0
ود ية
لك تر
س ا
مص نع
ئ ة
س ن
ز ل
ك يف
ح م
عن د
ب ش
ف ا
مص ر
س اب
الم وا
ط ر
ه ب
ل ت
م وقع
عل يم
ري اض
فض ل
ال اس
من ت
نا ء
ك ب
ال بي
1 3
الم د
را ج
ول ي
و في
عد ين
م يل
و ة
ف ع
م عدات
الع ربية
الع مل
ك ا
ان ة
ش ي
خ ام
ت ت
ق ص
ب ية
الأ ول
ك ز
ب ك
ط حن
ال است
ج ي
عل وم
الف ك
عر ض
ون ة
الإ لكتر
ال ى
ه نا
ت ها
ر ض
ر د
إ ذا
ي وم
ع بد
خ بار
ل ع
الذ هب
ل د
م ية
أك ثر
ا ي
ك ام
ج ن
ا ة
ل ه
و دة
قد م
1 6
غ ة
ب ق
و بر
الص ين
ت ل
الك رة
ائ ل
ان ات
ك ية
ث ير
السع ودية
ت را
ار ية
بر ن
ح ل
يل ة
الم س
برن امج
الم ج
حي ث
يت م
ح ول
و ث
خ اص
ط ن
اس ة
ض ا
ت ما
م ال
ك وم
س ة
ن ق
مح مد
ع ية
ي ش
5 0
م ه
و من
دي و
أ ح
ت ست
ين ا
الح ق
ك ما
الخ اص
س عر
ي ط
غ ر
ص ح
ج ز
شر ة
ال وط
ش ف
ح ص
20 20
ور د
1 1
يف ة
عل م
ز يد
الم تح
ج ة
الم ع
ض اء
ك ون
أ فضل
س كس
ف ق
كت ب
ال في
اري خ
ك ور
عر ف
ب اب
ال نا
1 00
ف ل
ث م
ص ة
م ؤ
غ ي
ب ري
و الأ
ق ا
الع ر
الم ط
ا قة
1 7
و ير
لا ح
الع ام
الب ح
الت عليم
ض ر
وف ر
ب س
ي ح
آ خر
الإلكتر وني
ون ا
ف ات
الح ل
الر ئيس
1 8
حت ى
اله ند
إ د
ن ج
علوم ات
خر ى
2 4
ق ات
الت ر
ا ث
ص ور
ان ت
الت ح
ري قة
ف ت
أ حد
ق ائ
ح جر
عد د
و ش
س حق
ص ي
م يم
ع ات
خت لف
ان ا
ر وس
ع بر
كس ارات
مث ل
2 2
ب ها
ا خ
ل ن
الج ز
أ ول
ص د
ر ات
وج ه
ائ ية
ج يل
20 0
را ق
د ول
الح ر
را ض
أ ف
بع ض
ا ك
وا ع
وا ئ
ط ف
الت ق
أ د
م تر
أن ه
عمل ية
مش ار
وض وع
م ز
ي ست
تر ك
الم غ
ج ديدة
لا ث
اس ية
دي ث
ب اح
وظ ة
اه د
م ات
ر ج
ر ئيس
خ ي
من تج
ت أ
المتح دة
عم ال
الت ج
ال ض
ات ف
ط ي
خر وط
ص نا
الد ول
و يل
سل ام
ام ل
ائ ي
وق ت
م ك
ق ع
ور ية
شر وع
الت عدين
مح ف
كت وبر
عد ة
ط قة
اب ع
اس ي
م ض
تح ميل
ل ح
ال بر
من ذ
ما ء
علي ه
خد مة
تح ت
ون ية
ت ب
الق ر
ق سم
بش كل
اج تما
ائ ر
الم وقع
ج ات
وز ارة
ت ز
ز يا
يك ون
و بي
د ون
الك س
الحق وق
قي ق
البح ث
لا ق
الم ؤ
غير ة
ي ه
ال اح
وا ء
الح ص
الم ق
و ين
اس م
3 7
تن ظ
س ين
سب ب
محف وظة
عل ان
الت ن
ا و
كان ت
أ كتوبر
مي ز
م ان
وا ح
أ ش
وس ط
ري ر
ذ كر
ج ان
المح م
في ه
و ه
ض افة
ج ام
ل اب
شر كات
هنا ك
م خروط
خدم ات
ل يل
ج ديد
نت اج
ك ري
ي ار
غ ط
ح ية
لا ء
عل ام
تر نت
ب ير
ي ون
ال رياض
2 8
د ى
الع م
و الإ
ب را
6 0
الص حة
ت خ
الص ف
بي ق
2 7
ل إ
ش ة
ال ام
و دي
ن فس
أ ة
2 3
0 8
منتج ات
ظ ر
و تر
يا ه
يم ة
ب إ
الل غة
ان يا
الت س
ف قط
ح اد
إ لي
العر بي
4 7
في ديو
لل م
ت نا
اب ات
عا دة
201 8
الحل قة
ها ز
ري ف
الس عر
ز ام
ئ ي
2 9
ي خ
وض ع
الخاص ة
مج لس
س ر
الت ص
غ س
أ ع
ش خص
الف ر
نظ ام
م با
و ما
وا صل
الإ م
ار ج
يا ة
اب عة
اف ظ
مد ينة
ل ها
خ ول
حق وق
ص نع
رق م
اب ط
و عة
ين ي
ح ساب
3 9
ول وج
الق د
كور ونا
تص اد
الث اني
يمكن ك
ان ون
ش ار
و إ
وا حد
201 9
ن وع
ن ص
الج ديدة
3 8
دي م
ني ع
مل كة
ب الم
دي ا
ال اق
2 6
00 0
من ها
ا خت
ر ح
ير ان
كوم ة
د د
وي ت
ائ ف
المش ار
ول كن
وج د
الآ ن
مو عة
ط لب
تك ون
مج موعة
ش ب
4 0
الم نا
ن شر
ما ك
ب م
ل ية
ق ال
الرئيس ية
ط ريق
اد ر
طف ال
الع امة
أ ص
ق م
كت اب
ن ى
وب ا
بد أ
ئ ية
تد ى
الف حم
ي ز
م كان
ع يد
الم ه
ل دي
6 9
ح ف
ب لا
بو اس
الج مع
أ ر
وا ج
اب ي
3 2
قي قة
الك تر
ا ون
ا عد
من تدى
اب ل
مح طة
ب ان
ك رة
بواس طة
ص ال
ل و
ما ية
يج ب
اق ات
وز ير
ال شركة
الب ريد
ط ريقة
جد ات
الم ورد
ذ ات
الح ديد
و الع
سل سل
س ير
ح ب
تص ميم
الم وضوع
كيف ية
ظ هر
ال وظ
ه رب
201 6
اه رة
اه دة
الم زيد
ر ف
بح ث
ب الت
دا خل
الر س
لك ن
ض يع
وق ف
ل غ
ض ل
و الس
د ث
د بي
اح ن
س ات
ح الة
م ختلف
كب يرة
ض من
س ان
ا دي
رائ يل
في ها
ت بر
سب ة
اس ات
يا ء
ك ار
ض ع
ب ريد
ن ف
س لة
ت مع
إد ارة
و هو
الك ت
الج ة
الإ نس
ف إن
ط ب
أس عار
ا ول
م ام
عل ن
الإ سلام
وري ا
ق س
اع ات
مست جدات
مر كز
م بار
لل ت
قائ مة
ع الية
اس ب
الد ر
اح ة
م شروع
لي ز
ريق يا
بل غ
م را
ل أ
ع ق
أن واع
تس جيل
ا ية
في ن
صنا عة
ض ة
كب ير
ن ان
لس ط
ذ ي
ري م
ري ب
الش خص
أ خرى
ست ان
لا ين
قط ع
ام ا
ي ري
ب اد
اح ونة
رب ع
و الح
الم ملكة
الج ام
ل ج
وب ة
ع ض
دي ات
تص نيع
تست خدم
4 1
ق نا
ب ول
أي ضا
رب ة
لل أ
جام عة
ل ان
وي د
ما ي
ب نا
علي ها
ال ار
3 6
عد اد
ش ن
ش هر
ا ذ
د ور
خ ور
ت اريخ
الت ف
عل اج
ح و
ح سب
الم علومات
الع ق
س نة
تنظ يف
الت ط
ب ناء
الث الث
0 5
ف تح
ن ها
ث لاث
الق ط
عند ما
وق د
الس ل
سا عة
الإ س
الأم ري
ه ات
ر ك
ج دا
أ خ
و اس
جن وب
الخ ط
د ين
جه زة
نا ية
ع الم
ذ ية
الشر كات
الث ق
ال يا
اس بة
من ه
ان ع
د ه
وج ود
ين ات
ست ر
ال اجتما
ط احونة
ز ا
آ لات
ح وق
كن ولوج
م سلسل
مل ة
الع راق
م خ
ج راء
و ء
صي انة
أ خبار
201 7
عر بي
ص غيرة
ت لك
الحص ول
من طقة
سل سلة
مع الجة
5 9
ض ي
ق ام
الوط نية
ن ش
و ذلك
غ ل
ح ز
اص يل
ما ذا
تط بيق
الع رب
الج ن
ا عة
خاص ة
ع ين
الص نا
عد م
تر كي
ت ين
الج ديد
أن ها
كل فة
الت ش
3 5
كن ت
ا دة
ق ية
ظ ام
كس ير
الم لك
الخ د
أ هم
مش اهدة
الخ ام
ر ية
م وس
ف ية
ب ج
الإم ارات
الوط ني
الجمع ة
ش اء
الش عر
سي ارات
ار س
جه ة
الس لام
دي ل
لي س
م كن
إ لا
م رة
ش راء
الموا د
ب أ
الإ ن
ني وز
خص ص
الص ور
ي ين
هي ئة
ك يل
را ه
ب سبب
الش يخ
الخ ص
إ علان
الر مل
الأول ى
الصف حة
أ ث
وح دة
الس ود
إ س
ذ ر
و اب
ن ين
ن ب
ج ري
3 4
ولا ية
السي ارات
و الج
ل ين
بر امج
ال وا
مشار كة
د ف
ن عة
ج ار
ع مر
الس اب
المنت جات
ال يد
ال وز
و التي
ح لة
ب خ
المحم ول
ح ين
ح ات
تم بر
الح كومة
ب الن
ال لا
اف ضل
مس حوق
سب تمبر
د ع
الأ ح
ظ مة
ض د
ول ات
متر جم
غ يل
الأ خ
لا ف
المن زل
ال الكتر
0 9
دول ار
بي وتر
د ائ
ام ي
الع ديد
الد ولي
ل بن
تر ة
إ نتاج
م ف
الق اهرة
الأ د
في روس
ز مة
9 9
نا د
مي ديا
ت عدين
كام لة
اف لام
واح دة
و هي
ج مة
الر مال
و غ
في لم
عن وان
سب وع
كت ور
ث ق
ت وي
وم ة
الكس ارة
الد خول
الن س
الجز ائر
ي ص
ط لاق
خ ة
المغ رب
ض ية
ز وج
د ية
الك ثير
ف ن
أح مد
ي حت
لل ح
المنت دى
الأ ور
7 9
ط ار
زي ز
الأ عمال
بد ون
ه ه
ور ت
ج اج
الم عدات
كنولوج يا
الي من
أ ق
الإنس ان
ذ ج
الص ح
لا د
الم ياه
حد ث
الد ين
ص الح
كل مة
الذ ين
راء ة
الك ويت
الص خور
ت غ
بي ان
ب الإ
ال ولا
اد ن
با ك
أم ري
أ ما
ن قل
ز م
اف حة
ق لة
ر ش
الم خ
العالم ية
ص ابة
ت عرف
ا خل
هد ف
الب حر
لع بة
ط ق
ال اع
لي ف
ط ل
تص ف
ب ما
ال وقت
7 5
الم ث
الت د
وظ ائف
ه ما
اب تد
ظ م
لي ه
ج اء
اض ي
الن ف
مبا شر
ري ال
ب أن
الك ر
الح ج
ال دي
أم ام
علي ق
ص لاح
أ ور
س ري
الح ياة
ؤ ول
قر ار
ج هاز
مل يون
الإ د
مع ر
ه ور
الات صال
يا دة
ص ورة
المص نعة
الم وس
غي ير
الش مس
الد ولة
8 0
و يم
ف اء
د اد
خ ب
أ بو
ير ا
ول د
وا ق
ف قد
د ار
0 1
ك د
ي ؤ
م اس
المنت ج
م علومات
الوظ يفة
الح ي
الات حاد
وي ق
م بر
ال ها
أك د
أ جل
ج مع
ت كلفة
الر ح
لل إ
را ف
ام ر
و صل
أف ريقيا
م الي
شر ين
بي ت
أ لف
عمل ة
ري ا
تف اع
الخ ارج
الب ن
س ع
الث لاث
8 5
201 5
0 7
مح افظ
شر ات
ط وان
س و
الط اقة
وب ية
با ط
ل أن
سب وك
س وف
ث مار
ي ب
ن وف
م راج
ض م
المورد ين
الإن ترنت
تح قيق
4 9
ش اهد
الن بات
اب ن
ن حو
م ما
ض ح
4 5
ن يف
الي اب
السي ارة
ر أس
ف ريق
الأ من
اف ية
ه ار
الن ق
ر ان
اج ر
لبن ان
المر كز
الس اعة
3 3
نس ية
الكس ارات
201 4
ر ه
ر مض
الن اس
ال لي
س وريا
را د
در اسة
201 3
مي س
ش ا
ون س
عر وض
ر عة
الج يري
الث انية
اب ية
لسط ين
ط يع
بي ل
ب ث
الك هرب
الاس منت
ترك يا
بال رياض
الس بت
الدول ية
ي وني
الأ ش
وم ي
نق لة
بي ا
الأس عار
ائ ج
آ ن
و أن
موا قع
ش عر
و خ
ص حة
الولا يات
و غير
ب الب
ائ ق
وص ية
مد ير
لك ل
شر ح
د ولة
ج ع
ت مر
مت نقلة
ط ات
تق ديم
الت الي
وفي ر
من ع
ك مة
ع بة
رق ام
المن طقة
الأ ك
سي اسة
سل يم
ت وى
المع ادن
ما ع
رس ائل
ت ا
بي ب
5 00
مط احن
ب الق
ان ه
الا ول
رمض ان
الأ حد
ك شف
الد اخل
أك بر
ي ولي
و هذا
يك ية
مار س
ر وا
إ ضافة
ن حن
ك و
ذ ة
الا ش
ات ه
ش ل
الاق تصاد
م ين
زيا دة
دا ول
وال د
مختلف ة
ل است
ر غ
ت قد
علي ك
ز يل
ب الج
٢ ٠
وص ول
ك ال
شي ء
ت كسير
إ كس
0 2
ن مو
عام ل
ص وت
س سة
ح جم
ت وا
الأمري كية
ص غير
الع د
الأ ع
الأ رض
مبار اة
شب كة
المد ينة
المحم ولة
الس ن
أي ام
س وق
الر ق
قل يم
ش كل
يوني و
مق الات
اش ة
ينا ير
يد ر
المص ري
ال ور
وي ات
لا ع
الص حي
0 4
ق ق
ت قدم
الساب ق
6 5
و الك
من ا
مج انا
الع ناية
يولي و
لد ى
ك ين
ش اب
ز ين
تس وق
أ ج
الغ ذ
ي وجد
ي ام
ري ح
د ات
م الك
تق وم
أ غ
و تح
مك افحة
ك لة
الت واصل
0 6
م عد
الس نة
الص غيرة
أ ل
نا صر
ت ام
الم اء
الشخص ية
أ ه
ف اق
تأ ثير
الح ديث
الالكتر وني
لك م
ق انون
ق ب
عل ق
رس الة
تط وير
و حد
م غ
الم طر
الت اريخ
ماي و
سن وات
در ويد
جان ب
نوف مبر
د ليل
جز اء
الن شر
يج ة
ليز ية
با عة
الك ل
ك ه
ط اق
الت ع
اب ون
ئ لة
يك ا
خر ج
مج ال
عا ون
ت مد
س ام
ال اف
ون ات
مست وى
لاب س
طوان ة
د ير
الس يا
الح د
وع ات
ت ري
8 9
3 1
ف برا
فبرا ير
س اعات
تم ام
يل ي
ي عمل
دي ق
الك امل
مي د
مت ع
مبا شرة
خط ط
تركي ب
ان وي
الم الية
هي ز
ف لا
القد م
الأ ن
الأ خرى
سي س
ح اس
ب وب
النف ط
لع اب
ب غ
الن ظام
الم عر
الم ز
اب س
أ غس
8 7
ع ط
بي ض
الس يد
أ ت
وح ات
مس ا
ش ع
س يا
ج نة
الموا ضيع
8 4
كل ية
ط رق
ب ني
ام لة
الب ناء
وائ د
زي ارة
بيع ات
اس تر
من ة
المست خدم
الأس منت
اد ات
أ رب
ظ ة
شر وط
حق ق
الط بيع
أن ت
قنا ة
عل انات
ب ور
الكت اب
أ قل
ب استخدام
أ نا
و است
4 4
خي ص
ج اه
الم ل
201 2
الخ رس
صف ات
ش فى
س ه
الشر ق
وظ يف
قد مة
ش ري
ث ل
الم ك
لا ئ
كام ل
غ رب
بري ل
الد كتور
الخ ميس
الإلكتر ونية
إ ذ
ل قد
في ما
في سبوك
تف اصيل
السع ودي
مراج عة
سم بر
المج تمع
الد وري
ال را
0 3
ف اض
خ رة
بي انات
ع ى
الفي ديو
ال وجه
م وضوع
قص ة
عن ي
5 6
خط يط
ار ع
ا كت
وق ال
مل فات
ماك ينة
ط س
زيا ء
أي ض
و هم
ناد ق
ق ول
ر أ
دي سمبر
ج ير
توي تر
المست خدمة
الت ى
ار ه
ف ظ
ران يت
ج عل
المست وى
وال ي
مي زة
مرا كز
ج ما
الع ض
أحد ث
25 3
لا ة
ت ض
ت شرين
الان ترنت
اس عار
ا يا
وس ف
ك افة
الحج ارة
أ ط
مل ابس
ز ب
تصف ح
الأ ف
اج ة
و حة
ري بة
ر ى
الت ه
أ رقام
ق اء
سي ارة
بري ط
المص نع
الم ف
الم تن
الداخل ية
ار تفاع
يق وم
ص اح
سم ية
المشار كة
مق ابل
ش باب
البي ضاء
ابتد ائي
ني ك
خل ص
الخص وصية
٠ ٠
ص حي
ص باح
خ راج
تف ع
الط بية
الخ لي
ل تح
رس ال
أ جهزة
ت هم
ب كل
اج ه
ل ط
ع ش
ث ة
تع ريف
ت عمل
الش ع
الخارج ية
م الية
ف عل
د عم
الش باب
إن شاء
نا ف
لم دة
قط ر
ز يت
خ لي
الق انون
ه ير
ن ز
م كت
الز وج
20 22
المر أة
الأ طفال
ل نا
تح دث
ان د
ؤ ال
أ جزاء
وف ق
ميز ات
ت يا
العالم ي
التج ارية
في د
ض اف
ح سن
ج رة
الش عب
الس وق
الخرس انة
الخد مات
موا د
مج لة
ل من
ش ك
الك م
الد ف
يف ر
عمل يات
ب ب
المح جر
ار ب
ا غ
إ عادة
نها ية
ح كم
تل ال
الع س
وم ات
و ست
مر ض
ق ت
ع شر
ض غط
ر ط
التس جيل
الإ علام
8 8
5 4
وي ب
وال ص
بي قات
الم ي
5 2
وس ي
ل ما
المطر قة
الب ط
خ ارج
الس وري
ال رب
إ ث
أث ناء
لي ك
ص ار
ح ديث
ا كل
يد ا
وب ات
س فر
تن في
الأس طوانة
3 00
م م
كر ية
در جة
الص حية
الأ مر
ك ثير
ش ارة
ر ؤ
بريد ك
الق ص
ئ ات
وف اة
مص ادر
ل وب
ط الب
خص صة
المص رية
هد اف
نا ه
قد رة
الم لف
القر آن
وك الة
وات ساب
مس اء
حي ات
تش غيل
وت ي
ف ور
س ية
الل غ
الع اب
7 7
وي س
وك يل
نا ئ
في ف
ز ن
ال برنامج
ا خبار
إلي ها
مح م
لد ينا
ش ها
معر فة
س سات
تق ال
نت يجة
تج هيز
من زل
ف وق
ع ج
أغس طس
مخروط ية
عام ة
الت ربية
وا د
ند وق
ق راءة
في ر
ظ ل
ر ع
ذه ب
الك ريم
الأ سبوع
محافظ ة
علي قات
صف حة
تج ربة
الاجتما عي
لي ات
ف ال
د ن
أ لم
وم ع
وال ف
نت ائج
مت جر
م ون
لل ط
ست خدم
تح مل
ت عليم
ام ات
الن ص
الل جنة
4 8
غ سل
الان تخ
الا خت
اتف اق
ا ولة
ور ات
ه ن
ني ه
مر ار
ل ذلك
عد دة
حص ول
تر ام
الط لب
قط اع
ز الة
الج نس
التر كي
4 3
لا ك
شر ف
الأ خبار
أ بريل
ي وسف
س يل
ح ماية
الع ين
اح صل
ماك ينات
ج وم
المج لس
الج هاز
ق ف
غر فة
عن ه
الام ارات
الأ ص
4 6
د ل
ال وق
اع ت
ار ك
سب اب
ترا ك
الأم ير
4 2
ف لسطين
الي ات
إ جراء
25 0
منت ديات
قص ص
روس يا
الح مل
ا هم
أ ب
وس ائل
مل ف
حل قة
ج ودة
الوز ن
لدي ك
ت ؤ
أور وبا
وال ن
من اسبة
لم ان
لق اء
ع قد
ص الات
تنظ يم
الج ودة
الج سم
الإ نج
يق ول
ن وات
لف ة
ف ترة
حف ظ
ك وب
ط ح
ش ه
ال رائ
ا كس
5 5
و كان
و ام
صح اب
الم عد
الم در
الك وار
الشر طة
ائ مة
إس رائيل
غ ان
راج ع
را عة
د م
الم سا
الق سم
الإسلام ية
ت قي
الس اد
9 6
وال ق
هو اتف
ل غة
فا ظ
رب ات
الل بن
العل وم
الجز ء
أم ين
4 13
ذ ب
ت مت
الف رق
السود ان
الجام عة
البي انات
يحت وي
س واء
د ورة
الب لد
مس ؤول
مج انية
عا ية
س د
ج ين
تح ديث
المر ك
الغ ر
الأس اسية
اب و
إ لكتر
201 1
هر جان
كات ب
تص ل
الق لب
ا خر
ط بية
ض جة
ث نين
تي ب
ام ية
الإ ج
اد ية
ائ ح
أمري كا
ن طاق
ص ب
خص وص
تق رير
باح ية
الاح تلال
مع نا
را ع
ب ض
وق ات
ق يم
ع ربية
خص م
ار د
أ هل
ون ج
موا ضيع
من ي
شر ق
بريط انيا
الأور وبي
ات ب
ير ية
قد ر
ق اب
عن ها
خ ري
ح صل
بي عة
بر ة
ص در
تك ي
تح ديد
اله اتف
الز مالك
الأ رد
ش يف
د قيقة
تنا ول
الم اضي
ال اص
ل ماذا
ك هرب
ك ث
س يد
خ ذ
ت علن
اد ل
إ ست
وا عد
و على
مح جر
لي زي
ط بيع
ر فع
تق نية
إ يران
يست خدم
وظ يفة
سو ارات
الن حاس
ائ دة
إ صابة
6 1
ن ات
ض يف
الكوار تز
الد رد
من صة
ف وائد
ع و
ت ريد
بش أن
الح ب
الت عاون
الأك ثر
ا ور
47 37
ق يمة
ذ ك
ثلاث ة
ب اسم
ب است
القد س
الف ن
الر غ
أ بر
جز ء
تت اح
الن ها
الموا قع
الك تب
الس ري
الأ لم
أش هر
أ مر
7 08
وم ان
ف صل
ز ر
ري س
بالإ ضافة
اه ر
المح لية
نمو ذج
ن ه
لا عب
را ح
خ لا
ب سي
الن ي
الم لابس
العر وض
ات صل
أص بح
5 8
طلب ات
ذ ف
د خول
حد ى
تكي يف
بد ء
الذ ات
الدرد شة
اخت يار
ائ د
من ح
مق را
م وع
راض ي
ت قل
اب ت
و كل
لل حصول
صح يفة
الكم بيوتر
الج ما
7 8
4 00
ه ة
مق ر
ما دة
لي بيا
الموس م
الإ ست
ات حاد
إ ف
ير ات
وص ف
مع نى
مج اني
لل ق
تد اء
ات يج
أد وات
79 708
79708 7
ق امة
غ ب
طر ف
خ مس
المح افظ
الش ب
الج يش
ال اد
وي ج
انت اج
الج رانيت
اس ل
وال ش
ن وعة
ن سي
مص در
قس ام
ث ار
ت وفر
الس اخ
الز واج
الأ ز
اص ل
ين يك
ول م
لج نة
ج و
العمل ات
التص ميم
الآ خر
ه ند
ن صر
ع رب
ط وير
دا يا
الم ختلف
الص وت
ا ذا
أ على
الم ال
وص يل
ني ات
نفس ه
مص انع
مؤ سسة
م ب
در اسات
حص ان
ت نت
ول يس
ف حص
ش مال
خ ار
الم وج
الم شروع
الد م
19 9
ي صل
وبا يل
ك يم
ر سم
تنفي ذ
بد اية
العم لاء
الج مه
وت ع
ه اتف
مل ك
مق ار
لسط يني
ف ني
عبد الله
بل د
المس لم
الدف اع
الثق يلة
أ عمال
في ات
ش حن
٢ ١
لي ست
ص لة
ج ا
تم دة
بالن سبة
السي اسية
الثلاث اء
الأ ل
5 1
ين ية
و إن
ه ى
نا دي
ما د
ت غيير
الع رض
التط بيق
الأ ه
201 0
مس اب
ف ان
غس يل
ر مل
د اع
خط وط
ت وفير
النس اء
الك بير
ا يج
ي قدم
كم بيوتر
ض خ
ص ول
س جل
ح س
الر ج
الب لاد
اط ق
استخدام ها
وغير ها
ط ية
ت تح
ب اء
الموا طن
الم راه
7 3
مص ري
قط عة
تم كن
تحت اج
الرح من
الب ري
ل هم
ح ار
جم يل
بن ات
المتن قلة
الر د
ند ق
الوط ن
المر ور
الف ل
الشمس ية
السي اسي
الإد ارة
اجه زة
ائ ع
ن يا
ف اف
الياب انية
مش كلة
مر حلة
م خطط
ر جل
المختلف ة
اص مة
ا ا
إ ج
أس اس
م مت
كون ات
كت بت
غ ذية
ض ور
صد ار
ص ندوق
ر ابط
ح ال
ت عليق
الف ق
الص انع
أ بي
سي ق
س يم
حز ب
بط اقات
الخد مة
ائ رة
أ عل
وال ط
م مكن
ت ى
الم بار
الحص ى
الأ ربع
ار ت
ي عد
ل ون
ف ار
ص لى
دي مة
ان ى
امر أة
التعليم ية
وال است
مل يار
مست عملة
ع زل
الل ون
التن مية
اجتما ع
6 6
وز يع
ني جي
ك ود
ح الات
الب شرة
وت س
و يلة
ل ز
عام ا
ج ى
ت عرض
العل اج
الص ورة
وان ات
و و
صر ية
ش ير
د وري
ب نت
انت خ
الط ريق
متر جمة
ف هو
علي كم
ر ز
دي قة
خ ير
ث اني
تص نيف
الش هر
الر جل
الح ساب
التق نية
الان ج
نيجي ريا
مشار كات
لف زي
ف ري
را حة
ر ت
ث ورة
الم سي
الم ادة
الط رق
فاء ة
د خل
خ فض
حساب ك
ت اج
الم كت
اس ير
إن ه
٢٠ ٢١
في ا
رس يفر
ان ونية
الل عبة
الع مر
الح جم
الت الية
الاجتما عية
أ سبوع
وت ق
هه هه
لي ب
ج لس
ب لة
المشار كات
الم تصفح
الس يل
الح كوم
وج يه
ط ان
ح مد
المر حلة
العل مية
الأ على
أن ش
أ رض
وفر إكس
ك ير
جري دة
الغذ ائية
التح كم
م هرجان
ليز ر
ط رة
سا عد
س عيد
ري ض
المست قبل
الس ير
الثالث ة
التر كية
من ظمة
س ك
رج ال
تك وين
الفر نسية
الأ وسط
ئي سي
ه يل
مط ار
ما كن
لك ي
ت ون
ب الصور
المد ني
ال اب
ار ير
أ ستر
يع تبر
ول ن
ه ام
مد رس
ست اذ
رائيل ي
ر أي
ح ياة
تع ديل
تست طيع
الق اد
العم ودية
الع قل
الد فع
الخلي ج
ال وس
ي عني
م مار
لو حة
صف ح
ر م
ت خطيط
الدي مقرا
إ ل
إ حدى
9 0
5 10
وهم ية
مو عد
لم ات
شار ك
ز ه
د وج
جر د
ان تها
الع زيز
از ات
7 0
20 00
تح ويل
بلا غ
بط ريقة
الوظ ائف
الص ي
الساد س
وج ل
نس خة
نج اح
م تح
لم وقع
لل ان
ل هذا
ش هد
سل حة
جم يلة
الم كتب
الم جم
الش ي
الج بس
ال استخدام
يل ه
يس اعد
يت ي
مصنع ي
غي ار
تج اج
ت لق
بين ما
الفي روس
الت عليق
الانتخ ابات
إ رسال
مل ات
فر صة
در د
الوز راء
النا قل
المن ش
الرق مية
الخ لا
اط ر
أس ماء
يك ي
يا د
وار د
نس اء
من ظ
م ول
قر ية
قائ ق
ج نيه
تن زيل
تع تبر
اله واء
الن ب
المح توى
الم را
الط فل
الرياض ية
الب شر
اض غط
و كس
مت عددة
م ى
صر ف
ص خرة
حر كة
الحر ارة
الح الي
الأمري كي
إ عداد
9 5
وق يت
ل جميع
المنا طق
الم عار
الات فاق
اط فال
اط ع
اش تر
أن ك
7 1
ون د
نا ئية
سب ق
ر ص
ت ابع
الن ت
الف ت
الأم م
ائ زة
وال ذي
لل ع
كل مات
ق وات
ع اج
صالح ة
اون لاين
الاس لام
إلي ه
ي وبي
م كتب
س اء
الش مالية
الر ابع
الد ورة
البر امج
اق تصاد
ا عر
إن ها
7 2
ون غ
وس لم
مع رض
كيل و
ك وك
ك ذا
ش عب
ري ات
ر وح
خ ال
ث ور
ب ز
اليد ين
الط ريقة
وث ي
لل ف
غر بي
شل ونة
ش اف
ش ات
ب الف
الط ب
الرس مي
الاس تر
ا ظ
ين ت
وض ة
ه يم
نظ يف
مس احة
م باد
ق بال
سب ورت
ذكر ى
تر دد
ب الد
ب الأ
الن وع
الن قل
الش ه
أستر اليا
ي علن
وظ بي
نا قل
مع تمدة
صحي ح
خ فاض
ب ص
ب الس
العل امة
الصنا عية
ن سبة
م ياه
عض و
ع ص
درد شة
بر شلونة
بح ر
الن وم
الك يم
الاقتصاد ية
اد رة
100 0
1 20
ي اس
ي ارات
وحد ات
لل است
في ل
س ح
رياض ة
ت عد
المعد نية
الاست ثمار
الأع ضاء
اف تتاح
اع م
اض ر
15 0
وا ي
هو ية
نس ا
لل اس
بي ه
به ة
ان وية
ان واع
الصين ية
إ ش
وي ف
غ ض
ط بق
سع ودي
راق بة
ت ونس
الح زام
ال هيئة
إ يج
أ صحاب
م وج
ك أس
قل ب
ض مان
خط ر
خبار ية
خ ز
حل ول
ث الث
تن مية
تص ادي
تس ربات
المه نية
الم با
الم ب
الف صل
الع ص
الجمه ورية
يت ه
ي دي
وب عد
ه وم
ن دي
من اطق
مع ه
ق ض
عب ارة
ش اشة
ت واصل
المرك زي
الإ نتاج
14 27
ور و
مج تمع
لاح ظ
كن دا
قص ى
ق وة
التف اصيل
وح يد
وتي وب
نص ية
ن ار
مق تل
مت ابعة
ف قة
غ اية
ط باعة
تع زيز
الق وات
الط عام
السل طة
البي ت
ؤ ون
يك شف
واس ع
مست شفى
غ رة
ط ول
ط ور
جر ام
تق ى
الم حد
العمل ية
اق رأ
ائ لة
ائ ص
أع ضاء
ين ما
وال ب
م لا
ك ول
ثق افة
بق ى
بد و
الر خام
الخام س
أم ير
ير جى
وم ية
و المح
ف ذ
ضا يا
الم اض
الف لاح
الأ فضل
أخ ذ
وف ة
وا فق
وا ز
للأ طفال
عل قة
تف سير
تف اسير
تحت وي
ال اه
اخ تر
وك ذلك
موا صفات
م ير
كان ون
ش ح
ح ملة
تش ار
تج اه
بن سبة
بت اريخ
الش ري
البي ض
الاف ترا
الأخ يرة
اب ا
أس ر
مع ظم
مص ط
مالي زيا
قنا ع
فع اليات
ضر ورة
ش د
ش اط
ذا كرة
خ الد
تط بيقات
ب الع
الت كنولوجيا
الأربع اء
و ابط
مقار نة
عل اقة
ع ود
ض بط
س ما
د فع
برا هيم
اللغ ات
الك ي
الش ريف
الس ورية
الرياض ة
التش غيل
ال ري
ائ ط
أر شيف
6 3
يف ون
غ ار
ض رب
ص ديق
س يتم
ب الش
الف نية
التس وق
مبار يات
ش ق
د قائق
الف نان
الف ريق
العل اقات
الت علم
الأه لي
آ ت
كت ابة
ف كية
ع ز
ر مز
المص در
السود اء
اد ث
وك يف
وف قا
وان ين
ه ولة
من هم
قل يل
فر ان
ط لق
ش به
النا ضجة
الم قا
الح الة
اح تف
14 38
نظ ر
ن صف
ك ذلك
خ ن
تص ريح
الكهرب ائية
العل مي
الش ارع
الج ميل
ال ظ
ا ير
أك يد
أ عرف
29 3
يج عل
هر ات
جم ال
تس اعد
بو ابة
ان ها
الدر اسات
الت خ
الأس رة
الأ ط
أبر ز
0 50
ي عرف
وت ين
وال ز
ن قدم
مج ة
في ض
عم ار
دائ ما
العل م
الص د
الش حن
الح ماية
إ طلاق
أهم ية
وب ين
مح توى
خ بر
ت وض
بط ولة
الن ظر
الغ سيل
الرس ائل
الإسلام ي
الإ قليم
اك ثر
ا عل
إ سلام
أم راض
يا ئية
و يا
فت اة
ف نادق
ط ويلة
ض ير
سم ير
د و
تع الى
ترام ب
ت باط
الم قبل
الطبيع ية
الخ بر
ال وصول
ا يل
ئ ين
وع ي
وت ش
ل حقوق
غان ستان
دي كور
تع يين
الد ع
5 7
لل عمل
لك رة
ع ت
ري ت
تي ش
تر كة
الوا قع
الن مو
الن فس
الم كان
الد ور
الجن وبية
الأرد ن
اف ر
إلي ك
ألم انيا
آ ل
8 2
نق طة
ن جر
مز دوج
صح ية
بك رة
بان يت
ان مي
الك اتب
الق ديمة
الح رة
الح رب
البن ك
الأ صل
اعت بار
ا في
ئ اسة
وين د
مشار يع
ظر وف
حد ود
ث انية
ت ث
بر ى
ب شر
الف لسطيني
الح س
الج لد
البري ط
ال بيع
ائ ري
أ من
9 15
ي غ
م وز
م هم
ل ال
غر ف
ع مة
س ق
را قي
ر ومان
ح ا
ج اب
الق ائمة
الغ ربية
الص لاة
السيل يكا
يت ها
وت ن
م خت
رؤ ية
جه ات
تر تيب
ت و
بن ك
ب اس
المصنع ين
المس ؤول
الت حقق
الإ علان
اب ه
أ ثر
مسا عدة
ل يم
قي قي
ع نا
طي ب
تش كيل
ت وق
التج ارة
اع ي
اح ات
ا من
إد خال
إ طار
أ تي
وس طة
من ك
مر ح
م دة
كري م
فر نسا
ع يم
ج يد
ج وجل
ت داول
بي د
المح كمة
العل يا
الخ رط
التن في
اض افة
است خراج
أ ون
من ش
م فت
غ ذ
عم ان
رغ م
در ية
ت وجد
ب يرة
الش اشة
الج ي
الت عامل
الب د
الأ ق
6 4
6 00
يوبي ا
يدر ول
يا ج
ول يد
قا عدة
غ را
تما د
تح سين
الفيروس ات
الثق افة
الإم ام
الإ ير
15 84
وص ح
وجه ة
ه ان
نق وم
مت وسط
لغ اء
قي اس
فر ص
ف وز
ع س
شخص ية
دا ة
ح بي
ج اح
تقي يم
ب اق
ب ارات
اهد ات
الق يام
5 293
1584 41
08 8
وا يت
ناف ذة
نائ ب
موا جهة
محم ود
مت نوعة
ست ير
رس وم
ج دة
ت كنولوجيا
ب وك
ب وس
الف ض
الس ؤال
الخرط وم
الجام عات
الت ك
ا وز
ون ه
وف د
وا شن
مد ى
م وت
ك بار
ف هي
ظ هور
طر ح
ز ية
ح ضر
تح ليل
اله دف
الم فت
الف ني
الر ابط
التق ويم
الاش تراك
ار ض
ول ه
واشن طن
مر حب
مدرس ة
ع ه
شر طة
را ث
تك شف
بن غ
بط ال
المط احن
الماض ية
الت لق
الت فا
ات ها
أح كام
وائ ل
ه دايا
موا طن
من ى
م ربع
روا ية
بد ا
الذ كية
ي حدث
مه مة
م قدمة
كتب ها
ز ات
ح كومة
تفع يل
تر جمة
الز جاج
الار تباط
وا قع
ن ك
من از
مط هر
مح ل
لب ية
عل امة
ط لاع
ز جاج
خل ق
خط وات
ت علم
بن ى
ان ف
المن ظ
المق بلة
المعر فة
الر وح
الح مام
الأم راض
يس يا
ور اما
مر ت
ع اد
شار ع
ش ين
حد وث
ب اللغة
الج ان
الأش خاص
اح مد
اتيج ية
أ ية
4 12
يوم يا
شها دة
ح مل
ح اليا
ح اء
ج ون
ج ور
ج از
بير وت
ب ذلك
الك لمات
الك ري
الف ترة
الع اصمة
الشر قية
الد اخ
الحديث ة
الب الغ
الا خ
الإ ل
الأس هم
الآ لات
أش خاص
و يمكن
ند م
ل عام
س عد
س ائل
ر فض
دي س
ح والي
جن بية
بان وراما
المدر سة
الكهرب اء
القط اع
العس كري
الش راء
الج ميع
ات صال
ائ ب
8 6
مكت بة
لل ج
ك اء
فر ض
ش ارات
س وار
را ك
ر بيع
ذ ار
خ طة
ت بع
ام ين
النبات ات
الموج ودة
الف ور
الض غط
الر سمية
الر سم
الدول ار
الحق ول
التس ويق
الت أ
إ براهيم
وا جد
مع اي
مت ه
ف ه
ر ر
ب كر
الساب قة
الت ابعة
الإ يط
الإ باحية
يد ين
ي وتيوب
ل هذه
قص يرة
صي ب
صاح ب
سه لة
دون يسيا
ح زام
ح رب
الملف ات
الط ي
الر وس
الج ه
الإ ره
الأ لعاب
إلكتر وني
200 8
وي ع
نش اط
من ز
معد ل
مح ار
ل قي
دول ية
خصص ات
تج د
بالب شرة
الد ه
الح سن
الت زام
الأ قل
الأ بيض
إ صدار
يل ية
ون يا
و كانت
و إذا
نص ائح
م ميزات
غ ال
س كي
س اد
خر وج
تر م
المسلم ين
الق ي
الج وية
الج اف
التق لي
ه انوي
مر ور
كن درية
فا يات
ص اد
ص ابون
س ارة
ذ ن
ح لق
ح سين
تيا جات
تح انات
بن فس
ب ون
اي ضا
الع الي
الت عليقات
البحر ين
أ صل
مساب قة
مح اولة
فر د
فر ات
رب ما
دي وان
تط ور
بي ئة
الق نا
الفلاح ين
الع ناصر
الص ابون
الر جاء
الذ كر
الب لاست
اج ن
7 6
38 2
وا جهة
هو ة
مش اكل
مس ندم
مح كمة
م وقف
لل صف
لل ب
ل أنه
قام ت
س ورية
ري بية
ر وج
ذ وي
خري طة
تص در
تح رير
ت بدأ
بغ داد
ب حيث
الم قد
الم علم
الكيم يائية
الحي وانات
الح كم
الإنج ليزية
ال وج
اب ين
أ لعاب
أ زمة
ي كن
واس عة
ند س
فر ق
علام ات
سي كون
س اع
زام ية
خ را
اني ين
الن ار
المنت ديات
المغ ربية
المست عملة
الق ول
الز يت
اس مي
ئ ا
5 3
يحت اج
ي لا
ي بلغ
وق ة
وج ب
مط لوب
مط الب
ما ذج
في زا
ز ون
ز واج
راه يم
ر قة
جه ود
جد وى
بر ج
ب كم
ب الكامل
المؤ سسات
الك بيرة
الق ضاء
التص نيف
الأ جهزة
اح ف
ي ان
وال ان
مح د
لل غاية
ك ف
ع ون
ش ت
ح فل
جمع ية
تج اوز
بط اقة
ب مناسبة
القد رة
الط حن
الرغ م
البي ئة
الأم ين
اتفاق ية
أ ض
يم ون
ور اء
ن عم
مز ايا
م وبايل
لس نة
ف ندق
دع وة
جز ر
جراء ات
ج وز
بي ليه
ان خفاض
المست شفى
الكت ابة
القر ن
الت كسير
الأح مر
ال و
وا ص
مي ات
مق ا
مع ا
ق وية
ق ار
علي هم
ض وء
جي دة
ج وري
بد ال
ب لي
العل اقة
الط لاب
التح رير
إ ح
وت ص
م ري
قاب لة
س نت
خي صة
خل ط
ترا خيص
المح لي
الم فض
الف نادق
الس كر
الخ ض
الجز يرة
ار تك
ئ ول
أف لام
والت عليم
مع قم
مع رف
م كة
لل ه
ك اش
ع ناصر
سل امة
س ؤال
ح قيقة
ج ح
الن بي
الت ون
الب عض
اح تجاج
أ سباب
وال خ
نق اط
ن وم
لل كمبيوتر
ف ص
طر ية
صي غة
زوج ة
رائ ع
ت وكيل
ب هذا
الم سلحة
اط عة
ائ م
ائ عة
أس ئلة
13 61
وال ر
واح صل
لل مشاركة
كل ه
ظ اهر
رش يف
رب ول
ث مر
الم لا
اللا زمة
الق ض
الصنا عة
الج ونة
اد ارة
34 1361
يؤ كد
وأ ضاف
ن اس
ل وحات
عل ينا
عل ماء
ع اص
را ص
در س
د امة
تع ب
بح اث
بالق رب
ب فيروس
انتخ ابات
ام يم
الي ه
المنزل ية
الم خروط
الق انونية
الفل بين
الر ئيسي
الاس م
الإ ثنين
ال ضر
اف لة
ات ي
وصح يفة
وس وف
و آ
مث ير
مؤ تمر
للان درويد
لا يت
ع ف
ظ ار
خل ف
جم ه
جم الي
جد ول
تر ف
تد خل
تح قق
ب الح
المق ال
المؤ تمر
الشب كة
الذ ى
الإس رائيلي
الأس د
اب راهيم
أ رد
9 8
وي ض
وا ض
معاي ير
قر ر
ش قة
ش ط
س كان
دائ م
تم ثل
بد لا
المت وسط
الع ن
الع دد
الز را
الافترا ضية
اش ات
ا علان
إ م
إ زالة
أرب عة
أد وية
ون حن
وال غ
م وظ
ق وي
ري حات
رائ عة
ثم ان
تص بح
تح كم
تج ديد
المط ل
المشار يع
الصي انة
الس فر
الز ي
الر ابعة
التف تيش
البر لمان
إف ريقيا
أ ولا
يج وز
وط ة
وء ة
مسلسل ات
مس اعد
مر ك
ماس ك
ل ذا
في تام
غط ية
طب اء
س ور
در وس
خ وان
خ ات
الم ض
السيا حة
السي اسة
السري ع
التح قيق
الب را
اكس سوارات
ابي ض
إ مكان
أف غانستان
7 4
و عن
ه ز
ن دا
مث لا
م سب
س ى
ذ ور
خص ائص
ح اول
جي ب
ت ظهر
بج ودة
المش تركة
الم مت
الق ريبة
الطبيع ي
الب اح
الأس ود
ال وضع
ائ ن
آ ب
وا دي
و شر
ها ج
نا ول
ن ور
للاس منت
ل شركة
كم ال
فس ارات
ع ودة
ش ئ
س بيل
ث اث
تص ر
تش مل
ت ابعة
بع اد
بار يس
ب الغ
الم رة
العض و
الص لب
البشر ية
الات صالات
الآخر ين
أ مل
ي زيد
ويند وز
وصل ت
وا جه
ما ج
م بدأ
لل أس
ل علاج
ل طحن
ل بيع
كث يرة
ق ذ
ف هم
ع رة
ض ج
ساب قة
س كن
خط وة
تم ويل
المواطن ين
الس ينما
الح سين
الأ رشيف
اكت شف
اب ق
أمري كي
يق ع
يق اف
ي وما
و ذ
لق اح
كس ر
فر ع
ري با
رائ م
دين ار
حد د
بر ابط
الن قد
المر ض
الم بيعات
الل قاء
الق بض
الا طفال
الإل زامية
ا وي
إ ي
أ ست
يم ان
ي و
وف رة
نا ئي
ن ون
من اف
مرح با
ليف ربول
شي خ
شك را
رح لة
تنا زل
تج عل
ت وس
بس رعة
بت ه
باك ستان
المج ال
المت علقة
الدر اسي
الته اب
الأ قسام
الأ ستاذ
ات صالات
أعل نت
يل ات
وي كي
وم س
وع ية
وح تى
غر ام
ص ات
سر عة
ز و
ذ ل
ت بحث
بق لم
بالج ملة
الن ظ
المجم وعة
الط بي
الشع بي
الساخ ن
الس ائل
الد ست
الت داول
ال ليزر
يؤ دي
من وعات
لا قة
ل بة
كل م
ك ورة
عل اقات
ط نا
ب الك
الع ا
الش اهد
الش اعر
الدر اسة
الج نسية
الباح ث
الا ثنين
اع مال
أن ظمة
أن بوب
36 28
14 43
ومن تج
وا ط
ن قد
ن بات
ل وزارة
قر أ
غ دا
عا ش
طي ز
دا ية
خي ار
ته تز
تج ارية
الن ات
المح ت
الع ثور
الط لاق
الشر ج
الر قم
الد قيقة
الد عم
الا علام
إ لغاء
أ هداف
آ لاف
37 7
وث ائق
ند ية
مع ها
مزدوج ة
مد ونة
مج موع
لل ش
لفزي ون
ل عب
فا ير
رس ول
خلال ها
تد ريب
ت غير
ام يك
الن ز
المنا زل
الف لسطين
السيا حية
الس رعة
التص نيع
الت عب
الأ غ
ائ قة
إث يوبيا
أ داة
وري ت
ق تل
في س
فا دة
ف ك
عن ى
عاج ل
سا خن
حم ه
حز يران
تن سيق
بت وقيت
ب هم
اني ه
الس بب
الخلا يا
الخ ير
الج وال
الت وظيف
ال وسط
أ ز
آ ثار
يت ين
ي بحث
ها ي
مناز ل
مكان ك
لا يف
كان وا
كا دي
ط اقة
شر كت
سق وط
راء ات
تع اون
بد ر
ان قر
المؤ سسة
الك لي
القر ار
الروس ية
الحر ارية
الج اه
ئ ب
أ ين
ور ك
وائ ية
و اني
مص باح
مح امي
م مثل
ل يلة
صباح ا
ش يد
س خ
رح لات
خت يار
جما عة
تر غب
باح ث
المش كلة
الصنا عات
الذ ه
الحد ود
الت خلص
الأمن ية
أح ذية
يد ن
وال خدمات
ه لاك
ممت از
مح رك
ف ول
عالم ية
ط ه
ص يد
ب غي
المفض لة
المد ارس
الق وة
الق ديم
الفلسطين ية
الغر فة
الط بيب
الحكوم ية
الت مو
الالكتر ونية
أ مس
ين ه
يت د
ي بدأ
وص فات
مت خصص
س وى
تق ع
تط لق
ت يل
ت سليم
ام ير
ام ام
الرس الة
الت رب
ال ابتدائي
اب لة
ا خرى
إجراء ات
أ ربع
يق ى
يع ود
يت علق
وم ست
مع هد
م ها
لن كر
رياض ية
ح راج
ح اجة
اليوم ية
النت ائج
الم وارد
الم ار
الص غر
الداخ لي
الح ال
الث دي
الإج تما
الإ علانات
الأ راضي
أر سل
يس ى
يري ا
و هذه
هي كل
نظ يم
ن ماذج
مل موس
م ور
لك ية
لز مات
كين يا
كم ية
ك اب
ق ضي
فع ال
ف اس
سري ع
س س
ر اب
ب زيارة
ب أنه
انتها ء
اله جرة
المنت خب
المن اسبة
الملك ية
الم كس
الك برى
الك املة
الف صول
الع راقي
الخ شب
الجز ائري
الاق تصادي
اح دث
ات ين
أنش طة
أق وى
أف كار
أ خر
آ سيا
يدرول يكية
يج ار
ود ر
وث يق
وت طوير
وار ب
مص غرة
مج مع
م ظ
لف ات
ل ول
ل ند
ل أول
كل ام
ك لا
قل ال
قر ام
قا ذ
ق واعد
غ و
ط بع
ر ون
ح وار
ح ث
المط بخ
المش عرة
الع هد
الص رف
الر وا
الديمقرا طية
الح م
الح شرات
الجميل ة
ال اج
ا ى
ا وت
أصبح ت
9 00
200 9
ي ض
ي ريد
ها د
ند ات
ن وا
م ورد
م قد
ق ضية
ف لي
سم ى
را ز
در جات
خي ارات
خط ي
ح مة
جمه ورية
تم اما
تق ارير
تح ول
ب هذه
ب سعر
اه تمام
المد يرية
المث ليه
المبا شر
العس كرية
الأور وبية
ال وحدة
است خدم
أما كن
14 40
1 10
ولوج ي
منت دي
ماس نجر
م بيعات
لم س
قا في
ق رب
عد ادي
طبيع ية
ط حنة
خص يص
خص ة
تق نيات
ت علي
بدأ ت
ب اع
اللبن انية
الك لنكر
الق در
الح قيقة
التلق ائي
الت نظيف
إ يط
6 7
يمكن ني
موقع نا
من جم
مسؤول ية
مرا حل
مباد رة
م ميز
لل نساء
ك يك
ف كرة
عم لائ
ع شرة
ص اب
جز يرة
ت ير
بل وم
ب وص
ب خصوص
المد نية
الم شر
الف ات
الس ابع
الح فاظ
البريط انية
الإد ارية
الأخ ير
وب التالي
و هناك
ن جد
مر اسل
لغ ات
لدي ه
كن ة
ق نوات
في ك
ص لاة
سم ك
سليم ان
سل وب
دائ رة
خت ار
تع بر
تح صل
ت وزيع
ب مدينة
الن واب
المد ير
العراق ية
الع بد
الر طب
الت عا
الت خصصات
الب ل
الأحد اث
ال ويب
ال وزارة
است عمال
اس ماء
ار ى
إ علانات
أه لا
أن حاء
23 21
نظ رة
من اسب
مش ق
كر ات
كت لة
قي ام
غ زة
ز ز
رج يم
ح ذف
ج ب
ت عليقات
ت راجع
بنغ الور
ان طلاق
الن و
المستخدم ين
الم غربي
الغ رب
الع صر
الع الية
الصح افة
الس ت
الز من
الر ؤ
الإ نت
الأس ئلة
إث راء
إ ع
إ باحية
وفي د
وري د
والم ست
ن ست
مؤ شر
لل معدات
ل تر
فض ة
ص ابات
خد رات
ج بل
ت وظيف
ان ج
ان تشار
ام ري
الوق اية
النس خة
المط حنة
المسا عدة
المراه قة
الق اضي
الشر وط
الحي وية
الإنس انية
الأخ ضر
اس ك
ار قة
أد اء
أحد اث
أج مل
أ بطال
يم ين
ي ورو
وس يا
وت م
وال ل
وات س
وا طر
مر جع
م جرد
ل تن
ك فر
في ين
عم لاء
طن بول
ط لاب
شن ط
رب ونات
دع اء
دا ي
حر ف
بار ك
ب أي
ب أفضل
المتح دث
الق راءة
الفي زياء
الفر نسي
الخ ل
الحر ية
الألم انية
الأس اسي
اس بات
اح د
اج م
ؤ لاء
أ لة
أ علن
200 7
ي وفر
ول و
وز ن
والم ر
و شي
مو دي
مصط فى
مس جد
مد ار
لي لا
لي ح
ق وق
غ لاق
ط ويل
ذ و
در هم
تع تمد
بر ين
بد اع
با يدن
ب هدف
اما كن
المن ورة
المش ترك
الم وت
الك لام
الشخص ي
الش ت
التج اري
الانج ليزي
الاح تف
الإ صابة
اح فظ
ائ رات
إ قليم
أط لق
أ صد
8 3
14 39
ير اد
ي حي
ه جوم
مش ترك
مت صفح
ما ئ
لدي ها
ل أي
كال يف
ق يد
فيتام ين
ظهر ت
ط بيب
ط ابعة
ضع ف
ست ايل
ز ان
ر كات
حم يل
تع ود
تج مع
تج ارة
ت وقف
بل دي
بق وة
ان وني
اليمن ي
المن اسب
الص يف
الس لع
الر أس
الح قيقي
التي ار
اش ترك
يست طيع
ير ه
وف سكي
والم وقع
والت طوير
و عد
و أس
ه وا
مف هوم
م كونات
م راقبة
لان كا
كس سوارات
ق مت
ق اص
ص ع
شري ط
ش ان
ز ال
خ اذ
حساب ات
حر ارة
جم ات
جر ين
ج يدا
ج لة
ج اد
تت بع
ت كن
ت ان
بق يمة
بس هولة
المت ط
الم الي
الك وك
العق ارات
الصين ي
الساخ نة
الس ما
الد و
الح وار
الح الات
الأصل ية
الأ قصى
اض ات
اخت بار
ئ ناف
إ قامة
إ علام
أ قدم
وي تم
ومنتج ات
ول ى
وال نشر
وال له
واج ب
نق ابة
نش طة
نج وم
موس م
ملموس ة
كت يريا
كا ة
قل ت
ع راض
ظ يم
صف حات
صح افة
سل طة
ث انوي
تد فق
بر مجة
ب الر
ام ت
الق نوات
الغ از
الجمع ية
التق رير
الت غذية
الان تاج
الأش ياء
الأ جنبية
است مرار
ار تداء
اد م
ورت ات
ه كذا
نفس ها
نفس ك
مل تقى
فا ي
ضاء ة
صنا عات
ش مس
سل ط
س احة
دف اع
د ب
ج ائزة
تص رف
تص ار
تج نب
بلا د
بري دي
المت جر
الف ضة
الط بع
الص يد
الج ري
الج افة
الت حميل
الاول ى
الاس ب
الأط راف
الأ يام
اب د
ي بدو
وم يت
وم ح
وض ح
و هرات
ممار سة
مح طات
لل دراسات
كر م
قيق ية
ق وم
ق مة
طبيع ي
س مع
خمس ة
حر ية
ج نس
ث بت
تج ار
بط ارية
بسي طة
بال فيديو
ب وت
الهند سة
الم مكن
الحر كة
الت جميل
ال هواتف
اك بر
أي ار
1 30
ي ي
ي أتي
وح ية
مدير ية
ل استخدامها
كر ون
كثير ا
قي يم
فق ه
عل مية
ش ام
ر خيصة
خط يرة
ث ي
توا جه
تغ ذية
ترا ف
المحافظ ة
المبار اة
الم تر
العق ارية
الث ورة
الث انوي
الب ار
اج عل
ه ج
مي لاد
مس اج
لند ن
لا وة
فس اتين
ف را
عق ارات
ص بح
س لمان
د واء
د كتور
ح ريق
ج يج
ث ناء
تت ضمن
بح سب
المط هر
الف كر
العق اري
الشعب ية
الرج ال
الح مد
التقلي دية
الت غيير
الان سان
اف ع
ابت ة
ا كتوبر
أ طفال
8 05
78 28
16 0
وثي قة
مه ما
مقر وءة
لل ي
كس اره
ك افحة
ق وى
غ ني
ط فل
س ويف
ز من
ز راعة
رب ح
رأس ية
خد مت
ح لم
توض يح
تع امل
تط لب
تر بية
بري س
اه رات
الق يادة
الف عل
الف ع
الف ئة
العن وان
السي سي
الس ويس
الر عاية
الذات ية
الد قيق
الح اجة
التح الف
الب داية
الأ ماكن
اش ت
اس وب
ات ك
8 1
7 00
12 71
وط ن
والم ؤ
وائ ي
ند سين
مقا ومة
مس يرة
لد عم
س لم
س طح
د را
د اب
تب طة
تأ سيس
بل دة
ب ود
ان ته
القاد مة
الع ط
الشر قي
الش ام
الر أي
الخ يمة
الخ ار
إيط اليا
أ يل
805 1
59 37
47 7828
يد ه
وا زم
ن شرة
مي سي
ملا يين
مل خص
مؤ سسات
م ذ
ل تحقيق
ل أنها
ق ين
عط ور
عدد ها
ش كر
ش امل
سب لة
س ود
خط اب
جر ى
تم ث
تج رب
الياب ان
الي ون
المركز ية
المحد ودة
الم فر
الق يمة
الق نب
الغذ اء
الشر عية
السل طات
الس كن
الحل ول
الإ خوان
الإ خبارية
الأم ور
ار قام
اجتما عية
ا كم
أ لب
23 4
وي ه
ور ونا
وت ل
نظ م
مي ق
مل ي
مر ات
لل عام
كات ه
ع ائ
ط بي
ش اهدة
سوار وفسكي
ري ج
خصوص ا
خر س
تق ول
تص وير
ت زيد
الن صر
المش اكل
الع زل
الع ب
الرب ح
الج يل
الت وصيل
8 00
ور حمة
ه لك
مل ع
مج د
ماع يل
لل مست
لإ نتاج
ك وفيد
ك فاءة
غي اب
ط يف
ذ ير
داخل ية
حم ام
ح اج
تصاد مية
تص اص
المق الات
المح اجر
المث ال
الم خت
الع يون
الع ودة
الج ذ
الث انوية
الت خطيط
الأ زمة
الأ ر
اد ه
ائ ها
إ سب
يم يل
يع يش
وي ست
والم نا
مي ه
مح اض
مت ى
مت خصصة
م أرب
لي ت
لغ رض
لح ماية
ف وب
ساع تين
ر ين
دي دا
حف اضات
حاد ث
جور ج
جري مة
ج را
تك ار
تح مام
تج ميع
المش اهدات
المد ونة
الم ا
الجن وب
الجام عي
الإ جراءات
الأز هر
الأد نى
الأ مل
ال غير
استخدام ه
إ خ
أيل ول
ي ظهر
هر ان
قل اب
في فة
في ت
فإن ه
غ رق
ط يل
ض افية
ش اه
ر اس
دي ان
جي ش
ج اع
تأ تي
ت بة
بي ديا
ب تد
ايج ار
اي ام
المطل وبة
الم ميزة
الل عب
الك ني
الط باعة
الز راعة
ال وار
است عادة
ار ضة
اء ة
إن سان
أع راض
أض ف
أ بيض
وفي ات
وت ا
مه ارات
ملع قة
لين كد
للط اقة
ق يادة
عمر و
ع بين
ص ادر
شي ط
ش وت
س انت
ز لي
ري ست
ر كة
حلق ات
ث رة
تأ جير
ت ختلف
بعد ها
اي ط
اه مة
الي ب
المكت بة
المؤ لف
الم قدمة
العل ماء
الع نف
الج مال
الأس واق
الأ سباب
اع تماد
ا عدة
إ جمالي
أ مي
6 88
ي كتب
ي دة
ي تر
والم ج
والت ق
ني سان
مع ين
م ميزة
لتح سين
ل خدمة
كر ر
ق الت
فيض ات
غ ا
ع الي
طر د
س ف
ري ع
ري بات
رق اء
د ام
ث نائية
تر ح
ت تم
با ي
المت خصصة
الل ح
الفي تام
الط بيعة
السي وم
الر ماد
الخ لف
الح الية
التون سي
الإ سب
ال ابتد
ار ف
ابي ب
اب وظبي
إذ ن
أو ضح
يح صل
وف اء
وح ش
وجد ت
مس ار
م بلغ
لل رجال
لل جميع
لح ظة
ل ص
كب س
غ الب
ضح ايا
ش عار
س كا
روا يات
ح ضور
ج ول
ج ارة
تي ح
تص ريحات
تس ليك
بين ها
بل دية
بك ال
النب وي
المت اجر
الم خل
الق هوة
العمل ة
الس كان
الرمل ي
الده ون
الح وث
البرا زيل
البحر ية
الإير اني
الأمير كية
الأس نان
الأ مة
إمكان ية
أن هم
أغ راض
14 37
ين بغي
ون ها
وس م
وري وس
والم ع
و ها
و حي
موس ى
مف اج
مرض ى
م فر
ك يا
فيديو هات
ف ز
ف د
ط عام
ش املة
ز ار
رط ان
خط اء
توق يع
تف ل
تعلي قي
تر ض
تر ات
ت وصيل
بر ص
ب المدينة
ان تق
النا دي
النا ئب
المراه قات
الم ولد
الم وظ
اللبن اني
الك رب
القص يم
الفي لم
الف را
الغ يار
العمل يات
الش كل
الش اب
السي دة
الس اح
الخ روج
الت ل
الانج ليزية
اري و
ابع ين
ا عرض
إ نت
يس مح
وع مل
و عدم
ني ين
نس يت
منت خب
مط بخ
مصنع ين
مت طلبات
مبار ك
ل تنظيف
قائ د
ق ابل
في دة
عمل ه
ع ثمان
ط ائرة
ضخ مة
ض مام
رائيل ية
د اء
خر ط
خ م
توا فق
تركي ز
ب الكويت
ان س
ان دونيسيا
الياب اني
النمو ذج
الن يل
المحافظ ات
السوري ين
الرائ دة
الحساب ات
الح ض
الان تق
ال وحيد
ات جاه
ائ ه
ئ يات
إ صلاح
أس واق
أس رة
ير و
وق الت
وص فة
ور ا
وا ضح
و امل
هند سة
هل ية
موا عيد
مل ح
مصر ية
مث ليه
للم زيد
لل مح
لل صحة
كام يرا
عن دي
ط ع
ضخ م
صنا عية
صح في
شر ب
سي اسية
س ار
ز ائر
د ق
خ ش
خ ان
حي انا
تيل قرام
تعب ئة
تد وير
تخ فيف
تح ضير
بح اجة
اله ندي
المست دامة
اللا عب
الك اش
العل امات
الض وء
الصحي ح
الديمقرا طي
البي ولوجي
الب ص
الا خبار
الأك بر
الأ لغ
الآ لي
اء ات
ؤ ل
أب وظبي
يوم ي
يم وت
يف ا
ويكي بيديا
وم لابس
وم ت
وف ى
وال آ
وا ة
ه ؤلاء
ناه ية
مع ينة
مخ الف
مت ناهية
لاح ظة
كس ها
ك اس
غ ريب
ضا من
ست كون
سب ونج
س كر
ر وي
در الية
حق ا
تق ويم
تش ي
بار د
ب مق
الني كل
النها ئية
المد ن
الفور كس
الصوت ية
الس يرة
الس امية
الس اق
الجاه زة
التنفي ذي
البن وك
الإ قامة
ال وزير
ال هي
ال ائ
أش كال
أس منت
00 9
يس مى
ي خص
ون يات
والت ن
و اريخ
نها ئي
ن غ
ن سب
من طق
من تصف
مست ويات
مست قبل
مح لات
م زيد
ل شراء
قي ب
قل ق
ف ف
ف ريد
ف أ
عبد العزيز
ع ما
ش وف
ش ستر
ساب ق
س وبر
د مشق
ح كا
تح ان
بي ون
بو وتس
ب حق
المج مع
الكتر ونية
الك بار
الف وز
الشب كات
السي طرة
الس ح
الخام سة
الج ير
الثق يله
الت اس
است عداد
اح ية
ا عرف
أم وال
أد ناه
688 75
وت ه
هههه هههه
هل ال
ه لا
نا حية
مك اف
م وجود
للت عليم
ل صالح
ق تصاد
غ لب
عد ن
ض اع
سر ية
س ائر
زا يد
رس مي
ر في
د قيق
خارج ية
ح ديقة
ح ان
ج س
تق سيم
ت وفي
ت ات
بين هم
بي وت
بط ل
ان تي
الوق ود
المس جد
اللا عبين
الفيتام ينات
الس هم
الج اري
التد ريب
اق شة
ائ حة
أ ى
آخر ين
6 2
يست قبل
وبر كاته
والأ ح
و خاصة
مرا ه
مد ارس
محار م
ما غ
لإ عادة
ل اس
ق ولة
ق ضايا
في نة
فات يح
ع ديدة
شب كات
ش قق
سي ط
ست لايت
ري ه
ذي ب
حي ان
حب وب
ج يع
ج ية
ثم ارات
تسوق ي
تس جل
تر ى
تت ميز
بي ات
بوص ة
ب صورة
ب العربي
الوار دة
النص وص
المخروط ية
الك شف
الف رد
العام لين
الصنا عي
الش مال
الز رقاء
الجما عة
الإ ف
الأ ثر
أن نا
أس ود
يم ثل
ي ول
و تحميل
ميد ان
مق ال
مد ف
لينكد إن
لن دا
ل أحد
ف كر
ف ئة
غ ام
شخص ا
ش و
س وري
ر وب
تر اب
ت ضم
ت تمكن
المح ف
الم يز
الم اس
الك ون
الك السيوم
الق صة
الفق ه
الح اسوب
الجي زة
التد ريس
الب ع
الأد وية
اب يع
3 50
ي تحدث
وي لا
وم عدات
وك ي
ور ين
والس لام
و أكثر
ن قص
مد ن
مج م
مؤ خرا
م شر
لل مر
كل ها
كل ات
ك ك
فض لا
فا عل
ف و
ع يسى
طل بة
شي ئا
شعب ية
ش ئة
سا هم
س يف
روا د
ر كن
حصل ت
ح ض
تل قي
تف اعل
تس مح
بسي ط
المي لاد
الموا فق
الموا صفات
المسي ح
المج انية
الل يمون
الفن انة
العص بي
الط ويل
الر ئ
الح بيب
الج دول
التط بيقات
الاسلام ية
الابتد ائية
الألغ ام
الأ رب
است ثمار
ار ين
أول اد
أن ي
أف راد
أ لا
أ بناء
أ باد
9 4
4 59
ي ضم
ود ه
والت كنولوجيا
نا ك
ن ح
من اجم
مص ل
مخ تص
مث ال
م ولد
ل ش
كي ه
ق افلة
ق ادر
غض ون
عل مي
عب اس
ع صر
شر كه
زوج ته
ذ ى
خط أ
ت ذكر
اه ل
المعار ضة
الغ بار
الط الب
البريد ية
الإ ث
الأد اء
ائ ة
أم ان
25 8
يا دات
وت وك
هي ون
ن اب
منز لك
من خفض
مست قلة
مد ريد
كل ب
كبير ا
قي قات
ق ه
ف اه
ف إذا
عرب ى
ظ اهرة
طيز ها
سير فر
سي ما
ريم وند
ح كوم
ث انوية
تي ريست
ت أس
بين تيريست
بعد ما
بح جم
بالف عل
اله جوم
النها ئي
الم كونات
الفك ية
الع ميل
الز ب
الثلاث ة
التمو يل
التط وير
الام ري
الاست قلال
الا يط
الأم وال
الأف راد
الأد ب
ال واحد
استر اتيجية
اج مل
إد لب
69 4
يع تمد
يط لق
وم ؤ
وط رق
ور قة
ور ق
ه ول
ن جم
مك ياج
مت وسطة
م سي
ل مح
ل إن
كي ب
كهرب ائية
كهرب اء
ك ثر
ق ريب
ق اد
فاض ات
فا وض
ف من
ف اصل
ف ارس
غير ه
عم ودي
ع هد
شركت نا
س يت
رومان سي
رق ية
ر حمه
داع ش
دا ولات
ح يل
ح ظر
ح ط
ث ف
ت وجيه
ت بلغ
بت ي
ب ديل
انف جار
الن شاط
الم هم
اللا ج
الق ضية
الق ابل
الص نع
الرياض ي
الد نيا
الخض راء
الج و
الج را
الثق افية
الب اب
الاخت يار
الإعلام ية
الأل وان
الأ نشطة
اا اا
أك ادي
أرب اح
أ وب
أ بدا
6 8
يد عو
وي ورك
وق فة
ود ع
والت ص
والت ح
وار ع
وا كه
نا طي
مي يز
مش اهد
مح لية
ل ضمان
في ز
ف ستان
غل ال
غ از
ض و
ش فيات
س هل
رسم يا
رج و
دي ه
جلس ة
ج ابة
تس ويق
تؤ كد
ت وقع
بع يد
بد ور
بد ل
الهند ية
النفس ية
المقد س
الم اج
الفيديو هات
الصح راء
الص باح
الس ر
الرس وم
الدر اسية
الحم راء
الح فاضات
التج مع
الار دن
الإ شارة
ال يف
اق ية
اض طر
ا زي
إسب انيا
أص ول
أ لق
أ راضي
يص بح
ير د
ي منع
ومن ها
والت ر
ن خ
مساب قات
مس ك
م سل
لي د
لل ص
لل ايجار
لف ائدة
لدي هم
كر تون
قي بة
ف شل
ظ هار
سي دة
ست ار
سام س
س الم
ز ع
خل يل
خب راء
خ بير
حيات ك
حت ي
ح ديد
تح ب
تج اري
بج وار
ب وز
الن مسا
المعر وف
المص رى
المت عددة
الكتر وني
القص ص
الفي سبوك
الس رير
الحر ام
التر جمة
التح ديات
الب لا
الاش ترا
الأ ب
ال ريح
اع تقال
اش تري
اث اث
ات خاذ
ائ يات
إنها ء
إ يقاف
أس رع
3 60
200 4
يت س
وط نية
وج ات
وت ط
والإ نتاج
و هل
ه لة
نس خ
ن هر
مق اطع
لي ون
لل حد
ل معرفة
كي ز
ك لي
ك اف
قد رات
فعل ا
طن جة
ط وال
س ورة
رب ت
د ينة
خرس انة
حت اج
ح ام
جد ية
تف تح
تز از
ت اب
بح وث
الن خ
المج الات
الك فاءة
الق وى
الف ائقة
الع بر
الط قس
الس فير
الز ور
الز وار
الخ يارات
الخ برة
الترب وية
الإيط الي
الأم ان
اد ت
ئول ية
أ سي
9 2
يك و
وف ا
وان ية
وان ا
وال علوم
ها ء
نظ را
مي كي
موقع ك
مو ية
مل عب
مد خل
لل سيارات
لس حق
ل عمل
ل صناعة
ف بر
عق ود
عب ارات
ط بيعة
ش ديد
سري عة
رج ى
خ واطر
خ فيف
حر ص
ج هد
تم وز
تع قيم
تر ول
بد قة
ب أسعار
ام يرا
الموا فقة
المط لوب
المست جد
الم عا
الل يل
القنا ة
القط ع
الض ارة
الشت اء
الذكر ى
الح اسب
الث قافي
التك وين
الان ف
الاص طنا
ال التزام
اكت شاف
اج ل
ات ش
اب رات
اب ر
أه الي
أم بير
أد نى
١ ٠
يز ال
يد عم
يت ضمن
وي تي
ور شة
مص الح
مش بات
مراج عات
لل وجه
لس فة
ل تجهيز
عم ق
عق ب
ص فر
سكس ي
را كز
ر سمية
ر ئيسي
در ج
ح شرات
جاء ت
تي ال
تن اسب
تص اميم
باد رة
ب ولي
ب جميع
ب أنها
ان ك
المه مة
المص الح
المح يط
المت واجد
الم خدرات
الكل مة
الق مر
الق طرية
الق ت
الص حف
الس كري
الد وحة
الخط وات
الخار جي
الح ائط
الج هات
الج ملة
التش كيل
الت نظيم
الاح تياجات
الإنج ليزي
الإس كان
ال وكالة
ال وض
اف ريقيا
است بدال
18 0
0 10
وم ه
وض ية
وت ك
والم نت
وأ ج
و استخدام
نا ضجة
من اء
مت وفر
ما عة
للب شرة
كون غ
كل ف
ق صف
ق صر
ق بول
عمل ها
ع طر
سح اب
رض ا
ر خصة
ذر وة
دي ز
خار جي
تنا فس
تن قل
تك اليف
تر فين
تؤ ثر
ت وجه
بن ية
بل ج
بال ضغط
ب اللون
اول ات
الوا ق
اله يدر
النب وية
المه ندس
المنظ فات
المش هد
الم قر
الق س
الفر ز
العق ود
العض وية
الع قد
الط وب
الزي وت
الإقليم ية
الأور اق
الأص لي
است ط
اس مه
ار بة
ا وف
أمري كية
أكد ت
7 694
25 54
16 5
14 82
يط الب
يت ميز
ي اب
وغ ان
وس يلة
وز يرة
والم ياه
وائ ز
ناطي سي
نا يل
ن كر
مي ث
من صب
من د
مل حق
مط اعم
مصل حة
مج اري
مت اع
م ذه
للم رة
ك وريا
ف رة
غر امة
عالم ي
ضر ار
ش طة
ش اشات
سي طر
زوج ها
ز اء
رب ط
ذ بة
ديكور ات
خل فية
خرط وم
ج رائم
ت ور
ت بط
بر ون
ب المغرب
اي ه
المح اسبة
الم كر
الق ف
الف ساد
الدين ية
الد ار
الخ بث
الح فظ
الح زب
الت مر
الان تها
الاجتما ع
الإيط الية
اك مة
اخت بارات
ائ يا
أس فل
١ ٩
١ ٦
ين غ
يس ية
يد خل
وي كون
وي ش
وو وو
وم وا
ود ا
والم ت
والت د
وائ م
و خدمات
منزل ية
مض خة
كل اس
قر ارات
ق انونية
فن ون
فلا شات
غس الة
عل ا
عبد الرحمن
ع ادل
ط يران
ش غ
سيا حية
ست ها
س يتي
س فيل
در ان
د ولي
حديث ا
ح ه
ح ك
جد د
ثق يلة
ته ن
تقد ير
ت عر
با دة
النها ية
الن ه
المع اص
المس ار
المرض ى
المر وحية
الم سابقة
اللاج ئين
الكري مة
الع سل
الش مالي
الدر جة
الث امن
التر فيه
الت وجيه
البر تغ
الات جاه
الإ عداد
الأس ماء
الأرض ية
ال ذاكرة
است ضافة
أم ث
أص در
9 1
14 0
يا ف
ي ير
وس ل
وت ست
وار ئ
ها دة
مست لزمات
مج الات
لل اطفال
لكن ه
لان د
لا جة
قل بي
قت لى
ق ضاء
ق ديم
ف لة
غ م
ع قل
سه ولة
رومان سية
رب اط
رائ ب
جم وعة
تف ظ
تص نع
بي س
برين سفيل
بإ قليم
الن جاح
المنا خ
المط اط
المست شار
القض ائية
الشي ء
الش ائعة
السن وات
الزرا عية
الد وار
التق ديم
البلاست يكية
البح ار
الب و
الب از
الان تقال
الإره اب
الأ لف
الآ ثار
اجن بي
اث نين
إ ضافية
أور اق
6 79
4 50
17 8
ول ذلك
وص ي
وش راء
والتن مية
وال يد
هد ية
مس لم
مد رب
مث لي
مان شستر
ماج ستير
م من
لم ساعد
لل منتدى
لع يد
كنولوج ية
كن يس
كري ست
ك ش
ق الة
ف ما
غ وط
غ انا
عي ار
عج لات
عام لات
ري ك
ري قي
ر صد
ديد ات
ح ولي
ج اف
ت ميز
بي ضاء
بر س
با دي
ب راء
الن ور
المع الجة
الم عن
الم عدة
الل هم
الل ات
الكر وم
الك لية
الغر بي
الغذ ائي
العد و
السن وية
الر ص
الر حم
الذ كي
الخ يار
الجام عية
الاق ترا
از ياء
از الة
ار ا
إج ابة
9 7
24 8
24 0
يم ر
يش اهد
وس ع
وت ج
وب اء
والن فايات
نا ح
ما دي
ل تف
كر و
ك تر
فق ات
غ ن
غ ز
عا ة
طب اق
ط لع
ط ا
سل وك
ست ون
ر عاية
دي ب
حي ح
جم ان
تع ويض
بين هما
ب عة
ب الانجليزي
اول ين
ام ه
ام ش
اله لال
النبات ية
المع هد
المحف وظة
المؤ من
الكهرب ائي
الكني سة
القاد م
الف لا
العقل ية
الشري عة
السير اميك
الس عادة
الزوج ية
الز ع
الرق مي
الرد ود
الر وسي
الد واء
الخ مس
الج د
التن سيق
التص وير
التاريخ ية
الت كلفة
الب ول
الب ور
الار ض
الإس كندرية
الأول ية
الأ كادي
الأ رج
اق تب
ا منة
ا ثر
إن ج
إ ره
إ ثر
أغ لب
أ قسام
7 65
٠٠ ٠٠
ير ى
يح ب
ونا يتد
ولكن ه
وط ريقة
و عندما
و عند
ند اء
ن مط
مي كان
مه ندس
ماس تر
ما ش
مؤ خر
ل خام
ك وا
فقد ان
ف ش
غرب ال
غ هاي
عر وس
عاص م
ع ائلة
صف قة
شها د
سر ى
زي ين
راج عة
ر وابط
ذ كية
حل يل
ج بهة
تص دير
تح اول
تث بيت
ت بي
بع ث
باق ي
ب فضل
ب دي
ب تقديم
ب اه
الولا دة
المن زلي
الممت از
المقا ومة
المت قدم
الم وبايل
الك ورية
العد ل
الص فرات
الد رس
الج بل
البلاست يك
اس لام
ات هم
أق رب
آ لية
15 00
ين يا
ي كت
ولن دا
وض اع
وشر وحات
وب ه
والم ك
ند وة
نا ط
مجم وعات
لم ست
لل مع
لل مت
فيروس ات
فس ار
فاوض ات
ف لات
غ ليف
عن صر
عر فة
عد ل
رياض يات
رح ى
ذكر ت
خلا ص
حف ص
ح وا
ثمر ين
تمت لك
تض ى
تر ب
تت وفر
ت وب
بح ضور
با غ
بأ قل
ايج ي
انت ظار
المن ام
المر ح
المح رك
الل ق
القول ون
الش املة
الروا ية
الح مار
الح بوب
التركي ز
الت راث
الت حول
الت ابع
الام ام
الائ تم
ال وه
ال ريال
اط ئ
اص ط
اش تراك
اسب وع
اب يح
إ ير
أن فس
أكادي مية
أ عم
14 41
١ ٨
يوم ين
يع اني
ي ونايتد
ي ذكر
ي حقق
ون ز
والإ علام
وال فر
نيوز يل
مي ت
مل م
مس ر
مر ه
مح دد
مث ابة
مؤ شرات
م يني
م لاحظة
لي ص
لم شاهدة
للح فاظ
لل شعر
لل ذكرى
ل تكون
ل إدارة
كام يرات
ك يلة
قول ه
قضي ب
علم ين
عش ان
طار ق
ضي وف
ش را
سع ود
ز فاف
ر ام
ذ كور
خد مي
ح صرية
ح بة
تم كين
تعليم ية
تش كل
تر كية
تج ارب
تام يل
بعض ها
بالت عاون
باد ل
انت قل
ان يت
ام رة
الي سرى
النفط ية
الن مل
الن شرة
المنش ورة
المبا شرة
القدر ات
الق وانين
الش امل
الش ارقة
الس م
الخ ز
الح اج
الج ل
التف كير
التر تيب
التح ديث
الت قدم
الت رد
البح وث
الاع ت
الاح تيا
الأ وقات
الآ سي
ال ابيض
اق ترا
اس طنبول
ادث ات
اح تياجات
اب نت
إيج اد
إ مام
أس اسي
أح مر
أ حيانا
يت عرض
وي ستخدم
وم ج
ولا يات
وز راء
ور ز
وت خ
وال اح
وأ ف
نوع ية
ممار ستها
معد لات
مع ارض
مس جل
مح اسبة
متح ف
مار سة
لن قل
لل شركات
كهرب ائي
كنيس ة
قل يلة
ق ش
ف لم
عط اء
طالب ان
ط ال
شا عر
سي طة
سي اسات
ز وار
ريم ون
ري دة
راق ية
ر ئاسة
ذا ذ
خز انات
ح لب
ج ولة
ج لب
تع زية
تز م
تر د
ت سبب
بن ظام
بعد م
بار اة
ب ى
ب مثابة
ان ست
الوسط ى
اله دايا
المفت وح
المستقبل ية
المتط اير
المت وقع
المت احة
الق بول
الق اعدة
الف كرية
الض ي
السلام ة
الرائ ع
الرؤ ية
الح وثي
التق ني
التعليم ي
البلد ان
الب نية
الب كتيريا
الاع مال
الاست مناء
الإد اري
اس ر
ار ئ
احتجاج ية
ئ يا
إسلام ية
أول ى
أن درويد
69 3
6 50
200 6
يق تل
ون ى
وال ث
وائ ر
ن ن
ن عمل
مغ ربية
مح ت
لل شركة
لل س
لق ى
ل خ
ل إنشاء
ك را
فر قة
ف نية
عي ش
عنا وين
طبع ا
ط ارات
صع وبة
شن غهاي
شر م
شر ت
شبه ات
س وس
س انية
راج ستان
ر و
خ نة
خ لاف
حي وانات
حر ار
جديد نا
تد ور
تد عو
تا يل
تأس ست
ت عل
ت خصص
بم جرد
ب صوت
ب جامعة
ب أس
المي كان
المق الة
المف اصل
المط ار
الم يت
الم سم
الفض ائية
الف ار
الط يران
الص هي
الذهب ية
الدول وميت
الخط وة
الحكوم ي
الجن وبي
الت ها
البر وج
الب ورتات
الإس رائيلية
الأ نظ
اد ير
ائ نا
إن ما
ؤ اد
أد ى
أ وت
أ جر
آ ذار
99 009
99009 693
يص در
يت طلب
ي قل
ي عرض
وي ك
وق اية
وج بة
وبر امج
و كسارة
مي ص
ممتاز ة
مر اني
مد ني
م ريم
لإ زالة
كس ي
كس ل
ق ريبة
في زياء
فع الية
فر ن
عملائ نا
عم ودية
طف لك
صف وف
ش رائ
سين ما
سا طة
ري حة
ري بي
رض ي
ذك ورة
دا ث
د وت
خل اله
حم امات
ج ني
تح اد
ت ضع
بي لة
بل كس
بع ناية
بر د
ب الله
ان و
الوس ائط
الن سبة
الن حو
المص ابين
المسؤول ية
المد رب
المخ تص
الم يد
الم سلسل
القر ان
العم ومية
الط ائرة
الصح فيين
الص لة
الشه يرة
الشع ور
الس اعات
الز هور
الرح لات
الخ ضر
البط ولة
البر تقال
الاستر اتيجية
الاحتف ال
الا كت
الإقليم ي
الإس منت
الأمير كي
الأح وال
اقتصاد ية
ئ اب
ؤ كد
أل وان
أرد وغان
5 12
1 200
وم ر
وق ص
وط ني
ور ش
والت س
وال برامج
وإن ما
نس ائية
ن وش
مك عب
مس اح
محم ولة
مار ك
م ئات
لف ت
ل زيادة
ل تس
كر ار
ك بة
قي ه
فص يل
عند ها
عل اق
عص ير
طل الات
شر قي
شخص يات
ست ة
ذ ين
در الي
حم دي
ح لي
ح لا
ح فر
ح جز
جر عة
ت يم
بق ية
باست مرار
ب البريد
ب اعتبار
ام تحانات
المح طة
القط ط
القط اعات
الق ومي
العام لة
الضر وري
الض مان
الصحي حة
الص غير
الساد سة
الرب اط
الرائ عة
الذ كاء
الجذ عية
التق نيات
الت قييم
الاه تمام
الاسلام ي
الأ زياء
ال ظروف
ال الم
اف ات
است لام
اد لة
14 96
يمكن نا
يد ل
يح ذر
يح اول
ي منح
ي ضع
ول ين
وش ة
ور ئيس
وح قوق
وج ميع
والت ى
واض حة
هاتف ك
مو ث
مق ات
مع ك
مس ح
مذ كرة
مح ور
مج يات
مت ها
لي وم
لم واجهة
لل بنات
ق ن
ق ليلا
فر ش
غني ز
غ راض
غ اني
عد ا
عالم يا
ط لا
صنا ديق
سين اء
سي دي
سل طان
ز ما
رئيس ية
ر ال
خطوط ات
خ ين
ح ى
ح قيقية
جوري م
ج ذ
ج بر
تش ارك
تر ية
تخ زين
ت خصيص
ت اجر
ت أمين
بكال وريوس
بق اء
بإ مكانك
ب وضع
ب جانب
ان صار
اله يدروليكية
النو وي
النا شئة
الن سي
الن ج
الموضوع ات
المل تقى
المكس يك
المك ثف
المدني ين
المتواجد ون
المت قدمة
الم اك
الق ومية
الف ئات
الض و
الص الح
الد بوس
الخ ش
الت نا
الت عرف
الت أكد
الاست فادة
الأف كار
اص د
ائ ى
إد ارية
21 0
يع بر
يح مل
ويع تبر
والم بيعات
والع ناية
و العمل
و اري
هي ار
نق اش
ن ض
مي ك
مواطن ين
منه ج
من صور
من صات
مح لي
م كاتب
م ريض
لل شيخ
لتن وع
ل تطوير
قر ن
قد ام
ق ريبا
ف هذا
عام لة
ضا في
شه ري
ش وة
ش باط
ش اري
سيا حة
س وا
س عي
رون الدو
دي ال
د وا
خ برة
ح يدر
جا وز
ث بيت
تش هد
تز ال
تر ق
تد اد
تاريخ ية
ت اي
بن جاح
بل است
ب وزارة
ب مشاركة
ب محافظة
ب تر
ام ح
الهند سية
الملك ة
المص رف
المشار كين
الكت لة
القر ص
الفت اة
الف ندق
الص لبة
السري عة
الساق ين
الس يت
الزيت ون
الزوج ة
الر قة
الخلي ط
الخط اب
الحر مين
الجه ود
الث ابتة
الب خ
الاس كندرية
الار د
الأ طباء
الأ ج
است يراد
ار ام
ائ ك
ا كي
إلكتر ونية
إ عدادي
أص غر
أسر ار
أد خل
أ وقات
200 5
17 0
ين شر
يف عل
يع طي
يش عر
يج ري
يت نا
وه كذا
وج ي
وث ق
وت وفير
وت وس
وال دة
وا يا
ن و
مح يط
ما ق
لم كافحة
لل تنمية
لس ة
لب عض
كل وب
قص د
ق وانين
ق ادرة
غو غل
عس كرية
ع سل
ط ورة
صد ارات
ص انع
سا عدة
زي غ
د قة
خلا يا
جميع ا
ج لات
تم ارين
تص فيات
تش ير
ان شاء
الور دي
الموظ فين
الموس يقى
المه ني
المت وسطة
الماج ستير
الم ور
الكويت ية
الك حول
القف ازات
الفلسطيني ين
الش مراني
الش قق
الرياض يات
الر وم
الر وابط
الر بيع
الح لق
الج ولة
التج ارب
البد ء
الب ابا
الاس تحمام
الإس ماع
ال ود
اق ط
ار وع
ا يران
أص وات
أ كس
4 80
30 1
ي شرف
وما كس
وكيف ية
وك ولات
ور ى
وب عض
وال رياضة
و العم
و أيضا
هيون داي
هد د
ه امة
ني ويورك
نص وص
نشر ه
ن وفر
مصط لح
مخ اطر
محار بة
ما هي
م خصص
للح ماية
للإ يجار
لل بحث
لف ترة
لب ناء
لا دي
ك نا
قيم تها
ق ور
في لا
فس اد
ف لسطيني
ف خ
ف ؤاد
عف ش
ع ان
ش جرة
سو هاج
ست ي
ست اني
س را
ز اد
ز اب
رش ادات
راج ات
خلي فة
حي اته
حص ري
ح قيبة
ح ري
جاب ر
ج ال
ج اك
تف عل
ت لفزيون
ت به
ب عنوان
ب شركة
ب أكثر
الها د
النا ضج
المن غنيز
المن ظمة
المسي حي
الك ونغ
القي اسية
الق ن
الفي س
السما ح
الز مان
الر ضا
الخ ليل
الحر اري
التر ويج
الت أمين
البي ان
البو ابة
الإم كان
الأ بحاث
اط لاق
اص دار
اح ترا
ات ذة
اب واب
ا يد
ئ ه
ؤ ه
آ كل
يم ي
يش ير
يد فع
ومن يوم
ول هذا
وف ية
وص يات
وال اس
نج ليزية
ن ر
موس وعة
موس كو
موز ع
مق اطعة
مط عم
مط رقة
مجد دا
مار كيز
ما هو
م ولا
م وض
لم جلس
لل ك
لل أم
لائ حة
كشف ت
قي دة
ق اط
فل ون
فاير وس
طب قة
ص وص
ص ن
سب ت
سب ار
سامس ونج
دف عة
خات م
خ شب
حضر ات
ث نائي
تف ض
تع اني
تس عى
تد ل
تخطيط ي
تح الف
بلغ ت
بك ورونا
بر ئاسة
بد ع
بالم اء
بالج سم
بالت فصيل
بال رباط
ب تس
ب ام
الن صف
المس احة
المخ ابرات
المبار يات
الم ائية
الف ضاء
العد وان
العا شرة
الص ندوق
الخ براء
الجان بية
الج وي
الج دد
الث قة
الاست شارة
الأع راض
اق ي
ا وى
ا علام
أعل اه
أخ بر
28 0
2 20
19 8
يمكن كم
ي سبب
ي حدد
ي ثير
ي أخذ
ول يف
وك ذا
وع اء
وض وح
وات ي
هر س
ها ض
نف سي
نت ين
ن صي
مع هم
مز يج
مت نقل
مب الغ
م خصصة
م بي
لل دفاع
لل تصرف
لف ل
لاب د
ل وان
كتاب ه
كا ي
قار ن
فق ال
فس ير
عد دا
ع شرات
ط اب
صل ب
صد ق
س قط
زه رة
زام بيا
ر وم
ذكر ه
دي ك
جهاز ك
ج يت
توي وتا
تنظ م
تع يش
تع ا
بال ضرورة
باب ا
ب تصميم
اي بر
المش تري
الم ريض
الم ذكورة
الك اولين
الق واعد
الق ضايا
الفر ن
الفت اح
الف م
الغ ابة
الطي ونة
الط ين
الذات ي
التن مر
الت سمير
الايط الية
الا طلاع
الإ ر
الألم اني
الأد وات
الأ نب
الأ ثاث
ارام كس
ار تها
اب ير
ا كا
إ ما
إ حص
إ تمام
أون لاين
أه يل
أن باء
أح ب
أ ستاذ
آ ي
آ منة
12 2
يوم ية
يه تم
وق يع
وس حق
وز يادة
والإ د
وال دولية
وأن ت
نشر ت
ن وب
ن ستخدم
منخفض ة
مض اد
مؤ قت
م ارة
لل سنة
ل يني
كل ما
ك افية
قا عة
ق الب
فور ا
فلون زا
فض ي
ف لت
ع جمان
ط ى
ضر اب
شا ومي
سر طان
ست خدام
سب ع
س جن
س ال
زي زي
رح مة
دور ات
خص ومات
ح ما
ح صر
ح رق
ج ديدا
تم ديد
تعليم ات
تع بير
تط الب
تخ سيس
تت علق
ت كس
ت عني
ت علق
ت اد
بم وجب
بع يدا
ب وم
او وس
انتخ اب
الوا حة
الني ابة
المار كات
الم ير
الم وضة
الم جر
الم الكي
الكل اس
الك يل
الك بد
الق انوني
الغ رانيت
الع يش
الط لق
الط اووس
الش هير
السل يم
الس رطان
الس ابعة
الرح يم
التق ارير
التفا عل
الت سليم
البي اني
الإ ضافة
الإ ضاءة
الأ هم
الأ رز
ال ورد
ال هوية
است عراض
اس رائيل
ا ولا
إ خبار
أك مل
أ كت
ين صح
يش مل
يحي ى
يت كون
يا ط
يؤ ثر
ي واجه
ي تحمل
وق اف
وغ رب
وط حن
و العربية
و أم
مه ام
من بر
من اه
مفت وح
مس رح
مس ألة
محاض رة
مج وهرات
مت وفرة
مباد ئ
م وك
لم زيد
للع ناية
لل حجر
لل بيئة
ل وازم
ل معالجة
ل عرض
ف وس
ف لل
ف حم
عش ق
عس كري
ط هران
شاه ين
سي طرة
سن ويا
س حب
را وح
دور ا
د رة
حين ما
ح از
جما هير
ج سر
ج بك
توي ات
ته دف
تك رة
تقد ر
تد عم
ت تجاوز
بي ري
بو ة
بل س
باك ستر
ب سم
الواق عة
النقد ية
النا قلة
المفت وحة
المد ى
المخ اطر
الم ات
الم ائة
الل طيف
الل حم
الق لق
الق اب
الف وت
العر وس
الع وامل
الع نصر
الع مودي
الط ر
السير فر
الس ويد
الد وا
الحديد ية
التعا قد
الترد د
التح ويل
التأ ثير
الت وتر
الإج ابة
الإ تص
الإ بداع
الأس رى
الأح كام
الأ حيان
اق ل
استر جاع
استر اتيج
است هلاك
است شارة
ار شيف
اد ى
اج راءات
اب ري
أس اسية
أ زياء
أ ريد
أ خت
11 1
يع ق
وم ق
وم طحنة
وض ى
والم وا
و أكد
هد اء
ه ونغ
ه ولندا
نج اب
ناد و
موج ودة
مص مم
مح اجر
م مة
م كيف
م شرف
م خل
م بيع
لم طحنة
لل وصول
لل شباب
لكن ها
لك افة
ل وك
ل تقديم
ل استخدام
كي يف
كر وم
ك ميات
ك ربونات
فض اء
غرا فيا
عد ام
ع ائل
طل الة
ط لاء
ط اولة
صد قاء
شهد ت
ش ؤون
س وء
رات يج
را دة
ذ رة
خاص ية
خ فيفة
ح ظ
ث ري
تهن ئة
تق ان
تش جيع
تسوق وا
تر ين
تت ناك
ت وليد
ت ليف
ت ضمن
بالد مام
النات ج
المح امي
الم وقف
الم وز
الم قص
الك ث
القط ري
الق يم
الغ د
العق وبات
الط لبة
الط بخ
الرس ول
الر حلة
الدي ك
الخط وط
الخص ائص
الجزائر ية
التف اح
التج ربة
الب طن
الإعلام ي
ال وثائق
اب ها
اب نة
ا ين
إد راج
إ غلاق
أو امر
أما زون
9 3
08 5
١ ٣
يم تلك
يك ات
يا قة
ي من
ون صف
ون شر
ون ت
وم ين
وك الات
وط لب
وتص ميم
والمك ملات
وال صور
و إدارة
ني ابة
نت يت
مع ي
مص احف
مر شح
محم ول
لن فس
لم شروع
لم ؤ
للمر أة
لق ب
لام ي
ل صنع
ل تصبح
قص ير
قص ائد
قد مت
قا دة
ق رة
ف ون
ف ائدة
عن ف
عق وبات
عق ار
عا دي
ط قس
ض ار
ص فة
ص عب
ص خور
شر وحات
س ائق
ز نة
ري ش
ري ادة
رج اع
را فق
دا خلي
خام ات
حق ائب
حز مة
جورج يا
جن يف
جد ه
ث من
تق ريبا
تف جير
تش عر
تح دد
ت بقى
بن وك
بر و
بر ميل
بت ش
ب ورت
ب قي
اليون ان
الهيدر وك
المه ندسين
المن وي
المن صة
المست مر
المخل د
الع يد
الع ذبة
الص در
الشهر ية
الح دث
التع ريف
التط ور
التش ري
الب وكس
الاشترا كات
الا عداد
الأف لام
الأص وات
الأ نت
الأ جانب
الآ لاف
ال وصف
اق تصادي
است هداف
است ئناف
اب يات
ا وية
ئ ها
ئ ر
أع اني
أساس يات
آ ة
200 3
12 5
10 4
يل تقي
يخ ة
يت وفر
يا دية
ي علم
وج اء
وب الت
والمج تمع
والت ش
وا ه
وأ نا
و أوضح
ه يدروليكية
ه رة
مس ن
مس ؤ
مار كات
م وضة
لي ق
للت عدين
ل نظام
ل مع
ل تعزيز
كبس ولات
ك شاف
قا عد
ق لم
ق اسم
ف هل
غير ها
عرض ها
عر ق
شير تات
ش هور
سي اسي
س هم
س عة
رغ بت
رج اء
ر ابع
د ست
د اف
حي ب
حر وف
ح دة
جاه زة
توق يف
تلق ى
تص ليح
تص فية
ترا ض
تر ميم
بو اب
بك ثير
بر ز
بال اضافة
ب تسجيل
ب التسجيل
ب الان
اني ات
المق ار
المغ نتيت
المسا عدات
المسؤول ين
المس ئولية
المر تبطة
المحت لة
المح اس
المتح ف
الم عم
الم ة
الل يلة
الل واء
الل اس
الك اميرا
القاب ضة
الق مة
الق ارئ
الفن ون
الف تح
الف اك
العل ا
العا شر
الط احن
الشر ب
الشخص يات
الش ؤون
السل طان
الس وبر
الد رقية
الخ ي
الجه وي
الجان ب
الج دار
الج بهة
الث نائية
الث لاجة
الاسب وع
الاد نى
الاتفاق ية
الا ور
الإير انية
الإ صلاح
الأ و
الأ نف
اع تداء
اد وات
اح ل
ا علانات
ئ ك
إل ينا
ؤ ها
أن صار
أش ياء
أح لام
أ زيد
آ من
آ لام
30 60
2 25
١ ٥
يس عى
يد اع
ي في
وص نا
وس ري
وتع تبر
وت كون
وت أ
والت ج
واج بات
وات ب
وأ شار
هز از
ها دي
ه بة
نوع ها
نوع ه
من ف
مط اب
مر تل
مر ان
مث يرة
مؤ ك
م ود
لي غ
لل يدين
لل استخدام
لح ساب
لاحظ ات
ل منع
ل عملية
قام وس
ق لا
فوز ي
فريق ية
علوم ة
عل ما
عض وية
ع وا
صد ور
شها دات
س كري
زا يا
رق مية
خ يمة
حص ى
حد اث
جمع ة
جم الية
ث ان
ته تم
تح تفل
تح ام
ت ني
ت خطي
ت تكون
بز از
باح ة
ب وتين
ب مصر
امري كا
اليمن ى
اله جري
النه ضة
المل عب
المدر سية
المد ف
المت ابعة
الم وجود
الم عروض
الم ضافة
الم تك
الم الك
الق ادر
الفر قة
الط وارئ
الص اد
السود اني
الس ف
الز فاف
الد جاج
الح اضر
التل وث
الت والي
الت ربة
الإ ش
الأ هلية
الأ هداف
الأ رقام
ال واحدة
ال ربع
است قرار
اسب انيا
اس يا
اس ئلة
ار ته
اب حث
ا يفون
إعداد ات
أ قصى
09 4
١ ٢
يل زم
ير فع
ي هم
وه ات
وع ه
وع ا
وس يخة
وتوك ول
وب د
والد عم
والح فاظ
وال اب
و وضع
و عدد
و العالمية
و الأس
هد م
ن زل
مكن ك
مق الة
مع الم
مز ارع
مث يل
مث لة
مت نا
مار كة
لمساعد تك
لم باراة
للاست ثمار
لقي ح
لت وفير
ل خدمات
ل تق
كوب ون
قط ار
ق ان
في صل
فلا ش
ف ورد
غض ب
عم يل
عل بة
عد اء
ع كس
طالب ات
صاح بة
ص ى
سا كنة
ذا كر
ذ اب
د ت
حز اب
ح افظ
جز ئة
ج سد
ثلاث ية
تف عة
تع دي
تر خيص
تؤ دي
ت ملك
ت كت
ت دي
بي ك
بلد ان
برون اي
بالت أكيد
بال اس
ب منطقة
ب ست
اه لا
الهيدروك ربونات
النظر ية
الن ح
المك ياج
المسي حية
المجم وعات
المج يد
المج لة
الم ها
الك مية
الفك رة
الفر ص
الفت يات
الغ سل
الغ رض
العبد ية
الصيف ية
السل وك
الدست ورية
الد مام
الد بلوم
الخ بز
الحوث يين
الت حليل
البريط اني
الباز لت
الب ث
الان درويد
الاح جار
الأن واع
الأف قي
ال وحدات
ال ظهر
اش ق
اش ترا
است قبال
از ن
ارس ال
اح ياء
اح نة
ا يف
إن جاز
إ صابات
إ ر
أم ور
أصد قائ
أس ابيع
أخ نوش
أ سلوب
أ راد
آ راء
14 5
14 20
12 8
00 1
ينت ظر
يج مع
يت هم
يت متع
ي حر
وق وف
وان ب
وال ى
وال بحث
وائ ح
نظ رية
نا غي
نا ة
موا قف
مو ديل
مش هد
مز ود
مد ية
مخت بر
مخ في
مت احة
مت اجر
ما ئة
م قياس
م بنى
لك ات
لا ط
ك ست
قب ائل
ق ى
فر ج
ف وري
ف ها
ف اط
عي ون
عم ري
ع زيز
ضا دة
شع ور
ش ى
سع ودية
سب اق
س ون
ري غ
رح يل
رح ب
راب طة
رائ حة
ديو انيه
حديث ة
ح وض
ح لف
ح قيقي
جيج ا
جي زان
جن وبي
جر انيت
تن ام
تف ضل
تف اق
تس ع
ترا ث
تب اع
ت لاوة
ت لاف
بي انا
بن شر
ب بعض
ان قلاب
ان درويد
ان ترنت
اليوم ي
الن وا
الك رد
الك اذ
العم ري
العض لات
العرب ى
الط ف
الصهي وني
الص عب
الس حر
الرص اص
الد ماغ
الح بر
الجما عي
الج دل
الث امنة
التص ويت
الاعت بار
الاع تماد
الاست عداد
الاس رائيلي
الاح ترا
الا ز
الإنس اني
ال ويندوز
ال هم
است مر
ار تفع
اب لات
إن دونيسيا
إس ماعيل
أسبوع ين
أج واء
أ وس
أ ظهرت
أ بل
7 50
5 000
3060 98
3 000
248 085
178 094
يش ارك
يت ك
ويج ب
ول ل
وك م
وقع ت
وعي وب
ود عم
والز راعة
وال علاج
هر مون
ن يل
ن اري
من اقشة
مف صل
مش غل
مح ركات
ما يكون
م دي
م اني
لم جموعة
للط باعة
لس لة
لا ج
ل وح
ك برى
قل وب
ق ميص
غ ينيا
ع ظ
ع اصمة
ظ افر
طب خ
ط راز
ط ائر
ط اء
ص لي
شا غرة
ش مالي
سن ه
س يرة
زا من
ز مان
ز لة
رص يد
رائ دة
را ط
دا ولة
د عا
خلي ج
حت ية
ج واز
ج وا
ج بات
ثم انية
تقل يل
تد شين
تاي وان
بو عة
بط ن
بح لول
ب وجود
ب عمل
ب صيغة
ب الشعر
النظ افة
الن فايات
المن صورة
المط اعم
المصرف ية
المص ط
المرا كز
المج اني
المبار ك
اللي بي
الكرب ون
الكر ام
الك ويتي
الك السيت
القص يرة
الفاك هة
العد الة
الع ادية
الص وم
الش ق
الش را
الس لاح
الس جن
الزرا عي
الرا عي
الذه بي
الد ل
الح ية
الح صرية
الح رس
التع ويم
التر م
التر جي
الت لقيح
الت حتية
الاح تجاج
الا خرى
الإسب اني
الإره ابية
الإجتما عي
اط ف
اس ود
ارت باط
ئ ل
أط ول
أصحاب ها
59 9
199 8
13 5
ينيك ها
يك في
يق ود
يع تقد
ير غب
ياس ر
يا دي
ي واصل
وم ط
ول ون
ور ود
وح ماية
وال ض
و تحقيق
و الحصى
و آخر
نيوزيل ندا
نا عم
ن رى
موا فقة
من س
مفت وحة
مض اع
مراه قة
مر اس
مح ام
مت عة
مار ين
م وريت
لي فة
لي ش
للمست خدم
للح كومة
لل خرسانة
لل اتحاد
لاست خراج
لا جات
ل فين
ل عدم
ل تحميل
ك يد
قر رت
فن حن
غس ول
غ اف
عي ه
عام ين
ص دي
شق راء
شري ك
ز يم
رق ص
راتيج ية
را وي
ذك اء
ذات ية
ذا ك
ذ ان
د ري
حص ريا
ح سام
جد ار
ج سم
ثق افية
تق بل
تع طيل
تر ز
ت هي
بي تك
بش راء
بخ ير
ب ولاية
ب شرة
الن جم
المن اسبات
المص ادر
المح ظ
المجتمع ات
المج وهرات
المت هم
الم سل
اللق اح
الع ظيم
الع ش
الط يب
الص راع
السينما ئي
السعر ات
الس احة
الدع وة
الخليج ية
الحص ان
الجمه ور
التاس ع
البح ري
الباحث ين
الاع تداء
الاتحاد ية
الإجتما عية
الأط عمة
اغ نية
اط ي
اص ي
اس تح
از ة
اح لى
اجن بية
اجتما عات
اتب اع
ابط ال
ائ ز
ا وب
أز رق
أ كل
أ طر
أ صيب
99 9
9 25
200 1
ين تج
يط لب
ير فض
ي وضح
ي ختلف
ي تح
ون ظام
وق عة
ود ول
وحد ه
وتق ديم
وت و
وت هم
وت ستخدم
وت ابع
وإ صابة
وأ د
وأ خ
نظ افة
مين يا
مو ارد
مه نية
مص نوعة
مست مرة
مس احات
مد ر
م للي
م كس
م فاتيح
لي كون
لم صنع
لل علوم
لل د
لج هاز
لتح ديد
ل مركز
كف وري
ق يل
فر وع
فت يات
ف نج
غير ات
غس الات
غذ ائية
عط لة
طار د
شخص ي
شاط ئ
سما عات
س داد
رد ود
راق ب
راج ة
رائ ط
رئيس ة
دائ ق
خل فيات
خط ار
حيات نا
حد ائق
ج ولات
ج راحة
تف قد
تس اقط
تح ذير
ت مل
ت سمى
ت داولات
بق يادة
بع ين
بري ف
ام س
الور قية
المه دي
الملا ط
المعلم ين
المصري ين
المست هلك
المرا فق
الم صل
الك ومي
الك ود
الك اظ
الفي وم
الش أن
الس ج
الرغ بة
الد ليل
الحي وان
الح ادي
الجاف ا
الج لسة
الج ر
التعب ير
الت لف
البن ات
الب ترول
الب ائع
الانتخ ابية
الامري كية
الاصطنا عي
الاستثمار ية
الاح د
الا غ
الإمارات ي
الأل ومنيوم
الأ وضاع
الأ حزاب
است متع
اح تم
ائ نات
إ يمان
أك ولات
أغ نية
أش عة
أس هم
أس س
أث ار
1 15
يعق وب
يت عين
يت جاوز
وم ل
وم ش
ور نيا
ور فع
وتع زيز
وب ناء
وان ت
والم ط
وا خر
وأ هم
وأ صبح
ه اب
ني و
نا وي
نا ق
ن عرف
مط لق
محد ودة
متصفح ك
مت وا
م لاء
للف حم
لل رئيس
ل حم
كري ات
كر ه
ق برص
ق انوني
فاي بر
فا ية
ف سي
ف جر
ف اد
ف اج
غ لق
غ ريبة
ظ ن
ض ابط
صلاح ية
ص ينية
ص ديقة
شي ش
شي ح
سلط نة
سكن ية
س نا
س فير
روي ترز
ر وك
د ود
حيات ي
حت يا
جما عي
جل ترا
ج وارب
ج وء
ج ماع
تمر ين
تل عب
تجد دة
تب ادل
ت تيح
ت تحمل
بشر تك
بش دة
بس ط
با قة
ب مع
ب اني
ام لات
الهاد ئ
الها ش
النق ابة
النت يجة
الملك ي
المص انع
المس حوق
الم ودي
الم قرر
الم ذكور
الل سان
الكري ست
الع ادي
الط ابق
الضي قة
الض ع
الص ادرة
الش وط
الش هادة
الز يارات
الح ميد
الح مص
الجن سي
الت ضامن
البخ اري
الب نت
الب ديل
الانتها ء
الاس عار
الإ قتصاد
الأل واح
الأد بية
ال واتس
اق وى
اش هر
إ شارة
39 6
3 15
17 5
يف وز
يف ضل
يط ان
يس جل
ي خرج
وه ى
ون ظ
ولا ذ
وق ي
وفي ن
وس عر
وت كنولوجيا
والح ماية
والتد ريب
وال ه
هوا وي
ه ورة
ه وتل
نف ط
مي كر
مه ندسين
منظ ومة
من حة
مفاج أة
معرف ته
مع مل
مط لع
مست شار
مر كب
مت عدد
مبيع ا
م ذكر
للت واصل
لل موقع
لل مواد
لل غة
لأ صحاب
ل ست
كه ة
كن ب
ك يس
قط يع
قر ى
فض يلة
عم ير
عام ر
ع زيزي
ع اء
ط قم
ض باط
شع بي
شع ارات
شر ون
ش تا
سيد نا
سري لانكا
سر قة
ساب قا
س في
س عادة
س بي
زي وت
ز ق
رغ بة
ر وما
خط بة
خ ض
خ ادم
حمد وك
حص يلة
حس اس
جل الة
ج وائز
ث بات
تف وق
تس رب
ت غطية
ت ضر
ت سل
ت ذ
ت خرج
ت بدو
ت أكيد
بنفس ك
بات جاه
ب ذور
ب اليوم
الوس وم
الو حي
الها دي
الن هار
المغ ناطيسي
المعر وفة
المست شفيات
المحد د
المتن وعة
المت داولة
الم ميزات
الم ساب
الم راد
الق يس
الفي ل
الف وائد
الع ميد
الط ائف
الط ائرات
الس ب
الرق ابة
الد قة
الح كيم
الح ديقة
الج هة
التعب ئة
الت كاليف
الت را
البي ئية
الب سيطة
الأع شاب
الأس اس
الأح ساء
الأ مع
اع يد
اع يات
اخت لاف
ا غس
إل خ
أط راف
أس وان
أس امة
أح سن
5 85
19 99
14 42
12 3
1 13
ين ظم
يع قد
يت صل
ي قبل
ولوج يا
ول اد
وك ا
وق طع
وض عية
وص ور
وش وب
وس لام
وجه ات
وتوس كر
وت وث
وت ها
وت نظيف
وا خت
و هنا
و إلى
و أسعار
هي ب
مو بي
من ق
مكيف ات
مط ر
مسا هم
مر ش
مج ان
مت ن
مان ع
م فيدة
م علم
لم تابعة
للت خلص
لل كسارة
لط لاب
لد خول
لا ي
ل يرة
ل عدد
ل تشغيل
كس ار
كام لا
ك جم
قي ود
ف كان
ف في
ف ئات
غرا فية
غذ اء
ع ومة
طف اء
ط يات
شي قة
شهر ين
ش يل
سن ين
س لاح
س رير
ز رة
خام س
خ سارة
خ اء
ح ملات
جلس ات
جر ية
ث ى
توض ح
تلق ائيا
تقدم ها
تص اب
تش كيلة
تأ خذ
بي اء
ب القاهرة
اه ير
اه ي
ام رات
اليمن ية
اله ول
النو وية
الن ارية
المسلم ون
المح مدية
المح ترفين
الل جوء
الك ار
القنا ع
الف واكه
الع مال
الع اشق
الشه يد
الش ديد
السكن ية
الس ني
الس لسلة
الر ط
الر ضع
التعليم ات
الت لفزيون
الافترا ضي
الاخت لاف
الأكادي مية
الأ كس
الأ شهر
الآ داب
ال وارد
اع ية
اص ابة
إ ظهار
أس هل
أر مينيا
69 7
2021 م
ين ته
يم ات
يف ية
ياس ين
وي ين
وم صنع
ولكن ها
ولا دة
وس هلا
وز نه
وج عل
وج ر
وب ذلك
وب ان
والأ ن
وأ ح
و يمكنك
و كة
هو امير
هن الك
ه ون
نفس ية
موت ورز
موا صلة
من اسبات
مفت اح
مع الج
مص ابيح
مشار كت
مر وحة
مت ابعين
م مل
م قطع
لو كس
للط لاب
للح ياة
لح ادث
لإ رسال
لأ غراض
كن ز
ك بر
ق منا
ق ديمة
فض لك
فاط مة
ف هد
ف ائقة
ف أنت
عي وب
عو امل
عار ية
عا يز
ض ريبة
ش ارية
سن تر
س ول
روس ي
ذات ه
دي اب
دن فر
دف ان
حق ائق
حر كات
حبي بك
ح ون
ح ارس
جل دي
جل د
جزء ا
جام عات
ج سمك
توفي ق
تنت ج
تن شر
تن ز
تك ريم
تست عد
تر فيه
تايل اند
تأ ش
ت لف
ت ثير
بلي غ
بد وري
بح رية
ان ين
النق دي
الموس وعة
المنا جم
المق تر
المؤ شرات
الم لح
الم عي
الكر ز
الغ رف
العربي ه
الع شرين
الع جوز
الصح في
الص فر
الص عبة
السي اسات
السن وي
الرح مة
الدع وى
الج هوية
الث م
التن فس
التخ زين
الت وقيت
الت ور
الت بريد
الت ام
الب ارد
الام تحانات
الاست متاع
الارد نية
الإ عدادي
الإ ح
الأنب اء
الأش كال
الأح جار
الآ راء
استر داد
اح ي
اج د
إذا عة
أنفس هم
أت ى
أ جن
36 5
3 20
3 13
25 5
25 00
يل عب
يش كل
يس ر
يا طة
ي صنع
ي صف
ي ث
وي ح
وه ما
ونس ية
ومات يك
وش ن
وز ي
ود ان
ود اع
وتح ويل
وب حسب
والم ورد
والم شار
والت ف
والأ د
وال دين
وال بر
واح ين
وا ش
هر ية
ه ية
ه ذي
نج ار
مين اء
مي قة
مي تها
مورد ين
من وعة
من فذ
مل يش
مكت وبة
مظ اهرات
مطالب ة
مصر ع
مشروع ات
مش تري
مر تبطة
مح اكمة
متح ركة
مت اب
ما ط
م ئ
للإ ست
لل مق
لك ى
لت زام
ل عل
ل تص
كرو ويف
كر ت
كات بها
ك ى
قص ارى
غ نى
عند ك
عج اب
عار ف
عار ض
عا قة
ظاهر ين
ظ ات
طلب ك
طر اب
ط ري
ض لة
ض عي
صنع اء
صل ات
صد ير
ص يل
شع راء
ش في
سكن ي
س يدر
س مي
ري فات
رائ د
ر ول
ر وعة
خص وصية
خ فية
خ الية
حز ينة
حر ام
حتيا جات
جن رال
ث انى
تن ورة
تن ة
تل مي
تق وية
تق رر
تت متع
ت وريد
ت وج
ت منع
ت لت
ت خل
ت تردد
بن حو
بلا ك
بل ين
بت ها
بب ساطة
بالد ار
بالب لدي
بالب خار
بار كر
ب وري
ب معنى
ب إنشاء
اله ض
النق اط
المنا عة
المط لق
المش خص
المرح وم
المرا حل
المح ذ
المجمع ة
المؤ جر
الم خصص
الم تجددة
الف جر
الغ دة
الع ائلة
الط رف
الس وي
الس نجاب
الز ر
الر ع
الر اب
الخص م
الح وا
الح ار
الته ابات
التن قل
التصنيف ات
التد خل
التح قيقات
التح اق
الت فسير
الت خرج
البد نية
الب عد
الاق ليم
الاست مرار
الا علان
الا خبارية
الإسب انية
الإ يج
الأول اد
الأرب عة
اقتب اسات
اف ل
اط لاع
اضر اب
اسم ين
است فسارات
ابتد اء
ابا يت
ا ورة
إ خبارية
أنش ئ
أمث لة
أق راص
أط عمة
أ لي
آ ند
38 0
3 30
20 5
20 30
يع ادل
يساعد ك
ير جع
يد ليك
يتم كن
يت يح
يا دين
ي حل
ي بقى
ون ص
وم واد
وق ل
وف نت
وص ولا
ور ه
ور اسك
وب شكل
والم علومات
والم س
والس يا
والتس ويق
والأ من
وال صحة
وال شباب
واح ترام
و ديو
و العالم
نون و
نها ئيا
ن كون
ن ضع
منه ما
معد نية
مري حة
مرت بط
مخالف ة
ما ئية
م وضع
م ئة
للت أكد
لل نقابة
لل نظام
لل خدمات
لاست قبال
لاح ية
ل ويس
ل صديق
ل تنفيذ
ل برنامج
كول شي
كري مة
قر ات
قال وا
فوس خي
فع الة
فإن ك
ف وج
ف ح
عقد ه
عق وبة
عض وا
ش عبة
سن وي
س وي
ز ح
ز الت
رائ ق
رؤ ساء
دا ود
د بلوم
خط ير
خط ف
خط ب
حم اس
حكا ية
حر جة
جد ل
ج ملة
ث انيا
تنت ظر
تع ادل
تع اد
تص ام
تد ين
تد فع
تتح يدليك
تب ريد
تا يم
ت لفزي
ت لا
ت كم
ت ختار
ت أكد
بته مة
باك و
ب المنطقة
ب الل
ايط اليا
انته ى
النق اش
النا طق
الن طاق
المك اف
المعن ية
المست ثمرين
المح ل
المتحدث ة
المت وفرة
المت خصص
الم عرض
الم تع
اللي بية
الكر وت
الك عب
الق مح
الفر صة
الصح يفة
الس فينة
الر أسي
الدست ور
الخ ري
الحمل ات
الحس كة
الح ملة
الجي دة
التون ر
التلق ائية
التف وسيخة
التح ضير
البي ئي
البالغ ة
الب كال
الاقترا ع
الاست قرار
الاس نان
الإ صدار
الإ صابات
الأم امي
الأرد نية
اص ول
اص بح
ارك ود
اد ثة
ا ها
إن نا
أمن ية
أ عداد
أ ضيف
أ سم
أ خي
آ ية
آ ر
38 6
27 0
2 30
12 4
يني ث
يت صدر
ي غسل
ي ء
وم راكز
وم خ
وليف ات
وق وع
وفنت وس
وغ را
وط ي
ورت ة
وج ين
وت ف
والم ق
والم عدات
والم اك
والت خ
وال قانون
و ود
و خلال
ه يد
ه ود
ه شام
ه ري
نج ح
ن رجو
موا فق
موا ط
من ص
مل ت
مص ير
مص ورة
مست مر
مخ اوف
مح رم
مج الس
مث بت
مت اح
م سبق
م رب
لم وا
للإ علام
لل ماء
لل قيام
لل جرانيت
ل وبا
ل طة
كون ها
كس ب
كر انيا
كاليف ورنيا
كا وي
قي اسي
قط رات
قائ لا
فري قي
فري ش
فال والدة
فإن ها
عم وم
عق يم
ط عن
ط ائرات
ضح ى
ض يق
ش موع
سن غاف
سا خنة
س قف
س ط
س رائيل
ري ز
رك وب
رش د
ر ويج
ذات ها
ذ را
دون الد
ده ون
در اما
خلي ط
حفظ ه
حاز م
جير مان
جم هور
ث قة
تنت هي
تما ع
تلق ائي
تست مر
تر كز
تد ريبية
تج فيف
ت ية
ت ود
ت فيد
بين ك
بي هات
بل وك
بعض هم
بع ثة
بر ية
بر كة
بت ت
بالم ورد
بالإ نجليزية
ب مستشفى
ب الرغم
اهد اف
اليد وي
الي ورو
الن يك
المعار ف
المشروع ات
المست ويات
المس اهمة
المس افر
الم ميز
الم خصصة
الك وم
الك هر
الق ذف
الفق رة
العبر انيين
الطر فين
السني ورة
الذه اب
الد وائر
الح زن
الجما عية
الجام ع
الج ار
التع ديل
التطبيق ية
التركي ب
التج هيز
الت وليفات
الت حر
الب اركود
الام تحان
الاست شف
الإ يجار
الإ طلاق
الأنظ مة
الأنت يمون
الأم انة
الأز رق
الأ ولي
ال لى
ار يات
ار سل
اد مة
اث ناء
ا كتب
ئ ذ
أو ضاع
أمير كا
أك ون
أح وال
أبو اب
أ طباء
آ رائ
7 89
18 8
0 12
يع زز
يع انون
يشاهد ه
يش هد
ي ثبت
وم كافحة
وم حمد
ولي ست
وكولات ة
وضع ت
وش ات
ور دي
ود رات
والم واد
والم ه
والل ودرات
والغ از
والتر فيه
والأح كام
وال دراسات
وال بحوث
وا ف
وا زن
وأ ع
و عرض
و الحصول
نن صح
نق ول
نف ذ
ناب ولي
نا شط
ن في
ن فق
ن بيل
ميز ان
مل يارات
مك ملات
مس ئول
مر ضة
محافظ ات
مج هول
مت زوجة
مب تكرة
ما وية
م فيد
لل شحن
لاع بي
ل محطة
ل قة
ل طرد
ل أكثر
كوك و
كم زار
كر د
قلا دة
قضي به
فري دة
ف ج
غذ ائي
غ نية
عن هم
عل اء
عق اد
طوان ات
ط لاقة
ط بيق
ضر ر
ض ربة
صحي حة
شه را
ش ديدة
ست ا
س راح
زي ارتك
زم الك
ز به
ري خ
رج الي
رئيس ا
خرج ت
خب ارات
خ سائر
خ اط
حلا وتهم
ح يفا
جن سي
ج ائحة
توس كر
تف ا
تط رح
تد مير
تج ميل
تت عرض
ت تحدث
بي ته
بو كس
بن ها
بلا زما
بط انة
بد عم
بج ائزة
باب وي
ب صد
ب زيادة
ان غ
ان ب
اله رم
النا صر
المط الب
المص ورة
المس جل
المر ج
المث يرة
المؤ قت
الم وريت
الم عنى
الم بادرة
الك اري
القر ارات
الق وي
الق لوب
الف ولاذ
الف علي
الضر ورية
الصي في
الص قور
الزي ارة
الز كاة
الرغ بات
الدع اء
الحسين ي
الحر بي
الج سد
الج رعة
الج دران
التط بيع
التشري عية
التج ار
الت اج
البي تكوين
البع وض
الام ر
الاخت بار
الا ثاث
الإسماع يلية
الإ يمان
الإ له
الأن درويد
الأرد ني
الأ وقاف
الأ ليفة
الأ بواب
الأ بطال
ال وحش
ال علي
اط س
است ئ
اس ى
ار يت
اد و
احتجاج ات
اجتما عا
ابي ين
إلي كم
إس طنبول
إ بريل
أي ها
أ ود
أ با
36 6
29 7
20 2
199 7
14 6
13 6
10 9
10 1
٢٠ ١٨
١ ٤
ين قص
يق رب
يش به
يس وع
يز ور
ي وح
ي خت
وم لفات
وم غ
وم دينة
ولوج ية
ول مة
وق ية
وفي ما
وظ ف
وصنا عة
وز وج
ور س
ودر ن
وج ست
وت ة
والع ق
وال بحر
وأ خبار
و علاج
و السعودية
و أنه
هب وط
هان ويم
ه يا
نص ب
منتجات نا
مناه ج
مل ين
مل كية
مست قل
مست خدم
محف وظ
محد دة
محاض رات
مؤ ثر
م وي
م عل
م ارات
لل ثقافة
ل رفع
كول وم
كان يه
ك است
قي ات
ق وس
ق وائم
فإن نا
عمل ت
عل يا
ع ال
صد ى
شتا ين
ستر سل
سب ل
سان د
ساد س
س مح
س أ
زا وية
روس ية
رغ بات
را ديو
دن يا
د ان
حم ود
حف لات
ح امل
جاف ا
ج زة
ج حة
ث ابت
تنافس ية
تعليق ك
تط لع
تص ريف
ترك ارد
تر فض
تح ذر
تج ريبية
ت يك
ت وك
بي اض
بلا ط
بط ية
بتد ئين
با خ
ب وع
ب غير
ب عملية
ب الص
ان هم
ان قطاع
ان ز
الوجه ين
النا ف
الن رويج
المه ام
المن يا
المقار نة
المش ي
المث لي
الم ياة
الم وحد
الم ند
الكوك يز
الكت ان
الك بري
الق ليل
الع نا
الصنا ديق
الصف حات
السيا ق
الس لة
الزوج ين
الزب ائن
الد خان
الخلي جي
الحل ويات
الحر جة
الح ليب
الح كمة
الح قيقية
الج يد
التح ديد
التاس عة
الت ونسية
البور صة
البر لم
الاد ارية
الاد ارة
الا علانات
الا خير
الإتص ال
الأل ياف
الأص ول
الأ صدقاء
الآسي وي
ال ولاية
اش ي
استراتيج يات
است غلال
اذ بية
ات رك
ا منا
إ يه
إ له
أ عد
آ يفون
4 29
10 80
10 5
10 3
10 2
يق ضي
يق ال
يف تح
يست ضيف
يت وقع
ي حق
وموا صفات
وم ميزات
وك ما
وع بر
وس يتم
وس ة
وس ا
وز ة
ور اق
وح ل
وج رحى
والمنت جات
والص غار
والج مال
والت غيير
وال نساء
وا ية
وإ عادة
وأ ما
هن دي
ه لات
ه جمات
ن نت
ن مت
ن ال
ن ارية
موا جهات
منظ مات
مك ين
معر كة
مست حضرات
مر وع
مر تين
مخت ارة
ماس تركارد
م فاوضات
م خطوطات
لم صر
للم بتدئين
للت أمين
لل مواطنين
لل صد
لس ان
لا غ
لا حقا
لأ جل
ل رئيس
ل ر
ل حل
كريست يان
كت شاف
ك وين
ك التالي
ك ائنا
قر ض
قر آن
قد ير
قات ي
في ظ
في تنام
فل وري
فر نسي
فت اء
ف ست
غان م
غ وطة
عل شان
عج لة
عبر ة
ع ماد
ع تي
طريق ه
صدر ت
صح فية
ص يدا
ص يح
ص ري
شرائ ح
سنغاف ورة
سم ات
سل طات
سب احة
سب ا
س ويس
س فينة
زي ثر
رم وز
ذر بي
د عي
د اقية
حكوم ية
حص د
ح ليب
ح الي
جر ث
ج وي
ج وال
تن وع
تع ويم
تع ال
تش خيص
تس اهم
تجرب تي
ت ول
ت وت
ت منح
ت فر
ت تطلب
ت با
بن قل
بن د
بر ات
باست ثناء
بإ ستخدام
ب قدر
ب جهة
ب الذكر
اي دة
اه يم
ان ش
امش لي
اليد وية
الوس يط
الوا دي
اله ر
اله امة
النص ائح
الموا قد
المه بل
المنا فس
المح لات
المث الية
المب اني
المار كة
الم ذاكرة
الم تق
الم بلغ
الم انيا
الف لسفة
الف سائل
الع ادة
الص ديق
الص ادر
الش كر
الش ف
الش اف
السن ه
الزع فران
الز ن
الري اح
الرج وع
الرئ اسي
الر مز
الر خيصة
الدي كور
الدوا جن
الده نية
الخلف اء
الخ واص
الحر وف
الح دائق
الثلاث ية
الترويج ية
التد ريبات
الت وحيد
الت عرض
الت صفح
الب دي
الا من
الإست خدام
الأز مات
الأ جن
ال ين
ال افلام
اق ش
اق ب
اغ تيال
اعد اد
اع تمد
اضطر ابات
اري ه
ار يد
اخ تف
اج تمع
ائ لات
ا كن
إيج ابية
إلكتر ونيا
إ سم
أنواع ها
أساس ا
أس اليب
أر خص
أ علم
59 41
5 697
25 75
13 1
1 14
٢ ٥
يوح نا
يع رب
يع جبك
يس اهم
يد اد
يت وجب
يت ن
يت ان
ي ضرب
وي عمل
ون قل
ومن طقة
ول ها
وف اك
وز ع
ور دة
ور بما
وث لاث
وت قدم
والع ديد
هند ية
ه اني
نس ائي
ناط يسية
ن بي
مي جا
منظ ف
منز لي
معر وفة
معر وف
مع ة
مط روح
مط حن
مست فيد
مد ين
مح ادثات
مث الية
مت كاملة
مت ابع
ماي كر
مار كت
م قل
م جر
للم ياه
لل سيارة
لل دول
لل جنة
لل بريد
لف ظ
لت عدين
لامي ذ
ل زم
كور سات
كل ين
قط اعات
قد ار
فول ت
فل ن
فا خرة
ف وات
ف النس
فالنس يا
غط اء
غر ار
غ ادر
عن ك
عل مت
عاج لة
ع بيد
طم ئ
طبق ا
ض ب
صي انه
صوت ية
صنا ف
صف قات
ص اف
شام بو
ش غل
ش حين
ش أن
سيد تي
سي كيم
سر اب
سب عة
س ؤ
زيا د
ز خر
رومانسي ه
رد قة
راث يم
دي ف
در ك
دخل ت
خص ائي
حم زة
ح يا
جل ال
جع فر
جع جع
ج نسية
تن سي
تف شي
تص حيح
تست حق
تس وي
تد اعيات
تخ فيضات
تح ية
تح مي
تج ري
تتح ول
ت كرار
ت خت
ت تمثل
ت تع
ت تج
بين ا
بم شروع
بلاست يك
بلا ده
بط ولات
بريد ه
بر ع
ب ف
ب العمل
ب الطريقة
ان ضم
ان اة
امر ؤ
الن يران
الن ض
الن شط
الن جوم
الموا قف
المنظ ومة
المن هج
المن هاج
المن طق
المغ ار
المعر في
المعار ك
المعار ض
المع تمدة
المس رح
المس افة
المر فق
المتك املة
المؤ هلة
الم وقد
الم وصل
الم عل
الم راجع
اللاس لكية
الق صر
الق تل
الق بي
الق ب
الع طرية
الص عيد
الش وارع
الس مري
الس ائق
الز ائر
الز ائد
الد ائمة
الخل في
الحر م
الحجر ية
الح ارة
الجري مة
الج رائم
الج ذب
الث من
البص ري
البرتغ ال
الب اط
الإنتاج ية
الإ ق
الأق صر
الأس ر
الأ نا
الأ كل
ال وكيل
ال وعي
ال ريف
ال راد
ال اجهزة
اف ه
اض رات
اش راق
است هدف
است قبل
است ثنائية
ار خص
اخت ار
اخ رة
اخ تصاص
ات عامل
ابد أ
ا ديث
ئ مة
إن قاذ
إن سانية
إعلام ية
إ قرأ
إ ق
إ عطاء
ألف ا
أكس يد
أع تقد
أ ضرار
4 000
21 2
19 7
05 5
يل يا
يع ط
يش ن
يش ار
يست هدف
يدرول يكي
يج يب
يت ش
ي قر
ي ضمن
ويل ز
ونس ون
ون خ
وق ود
وق ا
وفي ق
وض يح
وشي ه
وت يل
والمؤ سسات
والم خ
والعم رة
والت جارة
وال ثقافة
و عروض
نشر ها
نز ول
نب ض
نا دى
نا جح
ميل ان
ميق وع
موريت انيا
مند وب
ممت عة
مق ابلة
مف وضية
معلومات ك
مع امل
مص حف
مش يرا
مش تركة
مست خدمي
مذكر ات
مح ا
مت كامل
م ودرن
م غل
لم سة
لل وقاية
لل كشف
لل كبار
لل ة
لل أولاد
لج عل
لا زم
ل كسارة
ل شبكة
ل تنظيم
ل تجنب
ك رب
قل بك
فتح ة
غي ب
غرب لة
غر ين
غار يت
عند ه
علا وة
عل اف
عب وة
ع وم
ع ناية
ضع يف
ض ربات
ص وم
شهد اء
شف اء
شاب ا
ش احنة
سك ربت
س رق
س ج
زيثر وماكس
رف لة
را عات
ر خام
ذ مة
د رب
خل ية
حكا يات
حت وي
حاس وب
حاج ز
ح ناء
جن ب
جما عات
جرث ومة
جر ح
جبر ان
ج يم
توس يع
ته د
تن شيط
تق ف
تغيير ات
تغ طي
تع طي
تض خم
تح م
تب اس
تأ ليف
ت ومي
ت ورتة
ت سمية
بك افة
بعد ه
بعد د
بع مر
بع ات
بص فة
بس عة
بت وفير
بالم ملكة
بإ مكان
ب وج
ب مرض
ب تقنية
ان هيار
الوحي دة
الهول ندية
الني ابية
النق ب
النس خ
النا شر
الن هر
الن شوة
المف اج
المعاص رة
المع تمد
المصالح ة
المسا واة
المح بة
المث ل
المتح ركة
الم اث
اللغ وي
الكون ف
الكومي ديا
الكتر ونيات
الك يني
القر ية
القر ى
الق راء
الق ة
الق امشلي
الف حص
العل وي
العد وى
الع ولمة
الع شرات
الطي ور
الطب قة
الص قر
الص ع
الص دم
الشر كاء
الس مكة
الس فلي
الرا حة
الر ز
الذ رة
الخ طة
الح فر
الث انى
التنفي ذية
التص اميم
الت بليغ
البلد ين
البط ارية
الب ند
الب لدي
الب قاء
الاست لام
الاست فسارات
الاست ثمارات
الاخت بارات
الإس اءة
الأرض يات
الأرب اح
الأح ياء
الأ بعاد
ال يمين
ال وسائل
ال راه
ال العاب
اق ه
اع تبر
اس طح
احتف ال
ائل ية
ائ بة
إ ضراب
إ صاب
إ تصل
أي هما
أول ئك
أو كرانيا
أغ نى
أس ف
أس رى
أخ ير
أ جنبية
أ بعاد
7 20
33 1
21 4
18 7
ين ج
يق ا
يف هم
يعمل ون
يع ي
يست حق
يس هل
يخ ضع
يج د
يات ه
ي حول
ي ترك
ويق ول
ومن ذ
وق را
وفاك يا
وط الب
وسوف ت
ودي وم
وتر كيب
وب دون
واي ضا
والد كتور
والتص ميم
وال رمل
واحد ا
وا كسسوارات
وا خ
وأ جهزة
ها جم
ه ارة
نصر الله
نج لاء
ميكان يكا
مي وم
مولا ي
ملحق ات
مق اس
مع تمد
مش اعر
مس قط
مرك بة
مذه لة
مد ون
مختص رة
مج دي
مت را
ما ح
مؤ سس
م ملكة
م ظهر
م أس
ليز ى
لم عدات
للم شروع
للج سم
لل هواتف
لل كتاب
لإ طلاق
ل وس
ل ذوي
ل تك
ل تصنيع
ك راج
قس ط
قد ونس
قد وم
قات ل
ق دي
ق اله
في نا
فر ك
ف وت
غ بين
عم دة
عش اق
عرض ة
ع راقي
ع جل
ط ماق
صاد رات
ص عيد
شي ئ
شا كل
ش وية
ش بي
ش احن
سود ان
سرا ويل
سب ح
س مة
س جاد
ز عيم
رع ه
رس ومات
رج الية
راف عة
ر خ
ذك ير
ذ لان
ذ كي
دين ية
دع وات
د بلي
دبلي و
حص اء
حساب ه
ح واء
ح ج
ج ينة
ث يوم
ث ابتة
تن ميل
تن قذ
تن بيه
تف هم
تع اش
تص ارات
تس اب
تد لي
تد ريس
تخ فيض
تحديث ات
تجهيز ات
تت سبب
تب ديل
ت خص
ت ار
ت احة
بول و
برا ون
بخ اخ
بت لك
ب وضوح
ب ورد
ب نتيجة
ب أحدث
انتها كات
انتها ك
ان عقاد
ام كان
ام تداد
اله جرية
النوا فذ
النف سي
النسي ج
النات و
النات جة
الن حل
المير اث
المنش آت
المقد سة
المقا وم
المق ابلة
المغ ذية
المغ اربة
المعا يير
المش اهد
المز دوج
المحذ وفة
الم وث
الم عرف
الم راقبة
اللات ينية
الكاظ مي
الك ه
الفض ول
الف ة
الع كس
الص فقات
الش موع
السود انية
الساح ل
الس نين
الس لم
الز عيم
الرا حل
الدور ان
الدست وري
الد رفلة
الد ائم
الخ ذلان
الحمد اوي
الح كا
الح ظ
الح جز
الح ادية
التنفي ذ
التقلي دي
الت مييز
الت كييف
الت جزئة
الت با
البص رة
الب ني
الب لات
الب صل
الاع ضاء
الاستشف ائي
الاستر اتيج
الاس تح
الاحتيا طي
الا كل
الإ فريقي
الأن ابيب
الأش عة
الأس ماك
الأ نص
الأ ما
الأ خطاء
ال وباء
اصد ارات
اس باب
از جة
اح تج
ات فق
ا ذهب
إ رشادات
أق ول
أصدر ت
أد بية
أد ب
أح زاب
آ لي
آ له
آ باد
4 16
24 2
2 60
19 88
17 9
16 00
10 6
ين و
يم تر
يم ارس
ي وافق
ي بت
ويند ام
ول ماذا
وقص ص
وق بل
وف ات
وس يقى
ور وبا
ود ور
وح كم
وجه ك
وتن مية
وتح سين
وت نت
وت عي
وت عد
والمورد ين
والمح يط
والم لفات
وال فعاليات
وال اجتماعية
وار ض
و شركات
و خدمة
و أو
و آلات
نز ار
نت ه
نب ذة
نائ س
نا فع
نا ضج
ن هار
ن جيب
مي قاتي
موظ ف
منف صلة
ممار سات
مل ء
مع ية
مع كم
مض غوطة
مض ادات
مس ير
مز ودة
مر س
محد ود
مح اس
مت ميز
مت علقة
ماكن ات
ما كس
مؤ لف
م قدم
للم وسم
للم علمين
للق وات
للف وز
لل مس
لل كاتب
لإ جراء
ل يا
ل ولا
ل بدء
ل أفضل
ل آلة
كون ا
كل يا
كر ك
كار ت
ك ورد
ك اري
قف ازات
ق دة
في ني
فلي كس
فق ود
فع ول
فا يز
فا ذ
غالب ا
غ وا
عمر ه
عم وما
عد ت
ع ينة
ع ك
ع ظيم
ع صابة
ع شيقة
طراب لس
طبق ات
ط عم
ض ن
ص راع
ص بغ
ص بري
شه رة
شن ال
سير ا
سي و
سل يمة
ز ينيث
رض اء
رص اص
رش اد
رائ ش
ر وز
ر مح
ر دا
ذه بية
ديز ني
در ع
خط طات
خص ب
حين ها
حق ات
ح وث
ح اض
ج ونسون
ج نية
ج ت
تكس اس
تق لي
تف الات
تط ورات
تست هدف
تست ضيف
تح ديات
تب وك
ت عم
ت سي
بير و
بو ست
بل ون
بق سم
بط وط
بد اخل
بب جي
ب تحميل
ب ئر
اند لاع
الي سار
الي س
الوظ يفي
الوج بات
الوا جهة
المه ارات
المنظ مات
المعر كة
المع اد
المط بوعة
المصط لح
المص نوعة
المشر فين
المس احات
المس ألة
المرك بات
المحد دة
المح ام
المت داول
المؤمن ين
الم مارسة
الم فاتيح
الم جه
الك تف
الق وية
الفل سبار
الفع ال
الفرا غ
الف وري
الع ود
الع ارضة
الع ائلية
الط ابع
الض فة
الشع وب
الشر ح
السيد ات
السم وم
السف ارة
الس هل
الس لف
الزجاج ية
الز وايا
الر مض
الد يني
الد ورات
الد خل
الحوث يون
الحص ار
الح ضر
الجما هير
الج م
الث ر
التن موية
التفا وض
التس عين
التاريخ ي
الت لفزي
الت خصص
الت أكيد
البر وتين
الب ه
الام ير
الاستر داد
الاست ثنائية
الار تفاع
الا زياء
الأه لى
الألف اظ
الأ وغ
الأ ند
الأ غذية
الأ رص
الأ ذن
الآ ليات
ال يل
اقترا ح
اف غانستان
اع تق
اط ار
اض ف
اض ح
اشتر ى
استط اع
است خدمت
اتفاق يات
إسلام ي
إ و
إ ضافي
إ خراج
أن ني
أصد قاء
آ ليات
14 9
11 7
1 16
1 12
يي يي
ينت هي
يص اد
يد وية
يد ك
ي هدف
وي ته
ون يك
وم ترات
وق ر
وق تها
وف ان
وسلام ة
وس يط
وس ج
وت يك
وب ها
والمع ادن
والم ن
والك م
والس ير
والت عدين
والأ ف
والأ جهزة
وال شراء
وال اتصالات
وال ا
وإ زالة
و علوم
و ذكر
و خام
و العام
نشاط ات
نس عى
ناد رة
ن يت
ن شيط
موج ة
مه تم
منتج ع
من ير
من اس
مكاف آت
مقا وم
مع قولة
مص ان
مس افة
مز رعة
مر سى
مد بلج
مح ر
مح امل
مام ات
مار سات
م وح
م هد
لم دينة
للم بيعات
للق ضاء
لل مص
لل مجتمع
لل صناعات
لل رد
لل تجارة
لل اتصالات
لت لك
لبن اني
لان ه
لا حيات
ل تطبيق
ل اله
ل أحكام
كريستيان و
كري ا
كرد ستان
ك وت
قرار ا
قذ رة
قام ش
قاب وس
ق يس
ق هلية
ق مر
ق بيل
فقد ت
ف ليس
غ وب
طرح ه
ط يلة
ط وي
ضاف ات
ض يا
صنا ع
شر كاء
شر ط
شخص ين
شا كر
شئ ون
ش مران
ش قية
ش باك
ش ال
سيم ات
سير فرات
سويس را
سع اد
ست غرام
س يادة
س حر
زيم بابوي
ز را
ريد مي
ري كس
روح اني
را وى
دا قة
دا خ
خي ال
خ ابات
ح كة
جعل ه
جرا حية
ج واب
ج ذور
ج أ
ثلاث ي
ثالث ة
ث وذ
تق ر
تف ق
تط عيم
تر فع
تح ر
تج ن
تت خذ
ت وصل
ت وثيق
ت بيع
بور سعيد
به ات
بن ود
بل سان
بك امل
بق راءة
بريط اني
بج هاز
بج دة
بالن قر
باعتبار ها
باب ها
ب موقع
ب مركز
ب ذكرى
اه ة
الي كتر
الور ود
الهض مي
الها وية
النز اع
النا يل
الميز ات
المها جرين
المن س
المكر مة
المف وضية
المشتري ات
المس يرة
المس ارات
المختص ة
المح ر
المث الي
المت عة
المت اح
المت ابعين
الم ون
الم مل
الم ضادة
الم دة
الم بر
الم ئات
الكريست ال
الكر تون
الك ول
الك لى
الك لب
الك ات
القط عة
الفلا شة
الفر ع
الف وضى
الف لفل
الف توى
الغ الب
العرب دة
العبر ية
الع اج
الص يام
الشر ف
الشاف عي
الش قة
الش غ
الش اي
الس ماء
الس لبية
الس رية
الس جاد
الس ادات
الرضا عة
الراد ود
الر شيد
الدبلوم اسية
الخ لية
الخ لط
الخ ادمة
الجن ين
الجري دة
الث ابت
التغيير ات
التر ابية
التد ريبية
البر ية
البر مجة
الب وس
الاه تزاز
الان ضمام
الاس واق
الإنت قال
الإر ترية
الإج هاض
الإ ع
الإ طارات
الإ جمالية
الأم امية
الأ وس
الأ لب
الأ ضحى
الآ ية
ال واتساب
اص ر
ار ش
اخت راع
اخ تصار
ائ فة
ا على
إن جلترا
إن ترنت
إست خدام
إث بات
أن س
أق يم
أع ض
أرد ت
أحد هما
أ بنا
56 789
39 0
34 56789
3 40
19 5
18 9
17 6
16 34
100 00
1 21
١ ٧
يق ية
يف تتح
يد ات
يت بع
ي وفنتوس
ى ء
وم تر
ول اء
وقع ات
وقت ا
وغرب لة
وس يتصل
وتط بيقات
وت مت
والمر أة
والج ودة
والأ ش
وال اتحاد
وار تفاع
وأ ر
و ورد
و بيع
هند سية
هل وانية
هدف نا
هد فين
نقد ية
نب ى
نا قلة
ن ام
مير كل
مه كرة
منش ورات
ممكن ة
مل كي
مك المة
مف صلة
مع اني
مض حكة
مش كل
مر حة
مخ تصر
مح تويات
مح اولات
ما ويات
ما طم
م وق
م لائ
م غربي
م خر
م اري
لل عملاء
لل سفر
لل ر
لل تخسيس
لل بر
لل اع
لك ت
لفت اة
لتح ويل
لت ها
لت غطية
لت ا
لاح قة
لات ينا
لا ه
لا زمة
ل تنمية
ل تقنية
ل تصميم
كا وى
قل نا
قض ائي
قص يدة
ق وط
ق طة
ق ري
في كون
فعل ه
ف هناك
ف نان
ف على
ف از
ف ائق
عرف ت
عر اب
عد ى
ط الما
صي غ
شموع هم
شر عية
ش يك
ش ور
ش اك
ش ائعة
سنت ين
سح ارة
سب وت
سب ليت
رياض ي
ري ان
رش يد
را ي
را حل
ر واتب
ذ يات
ديد اس
دي مقرا
دع وى
دار فور
د مج
خب ز
خ مة
حضر موت
ح سان
ح اسبة
جهد نا
جن ين
جما عية
جاز ان
توا فر
تنز انيا
تن سى
تن جح
تق اطع
تض يف
تش يل
تر سل
تأ جيل
ت ظار
ت ة
بول س
بغ ض
بط لب
بط اريات
بر ود
بر عاية
باحث ات
با ور
با ختيار
ب خطوة
ب جيزان
ب المشاركة
ب السعودية
ب الخ
ب أحد
ام تحان
الي وتيوب
النوع ية
الميكان يكية
الموا جهات
المطل قة
المص رفي
المساب قات
المتقدم ين
المت علق
الم كيف
الم ظ
الم تصف
اللات كس
الل يلية
الل وز
الل جان
الكيم ياء
الكونغ و
الكرد ية
الكاذ بون
الك وبالت
الك ائنات
القت لى
الفع اليات
الف رس
الف اعل
الف اخرة
الغ ام
العم ود
الع اهرة
الطلب ات
الط بق
الضو ئية
الص ويا
الص غار
الشعر ية
الش وك
الش هداء
الش فاه
الش اه
الش اطئ
الس منة
الس كس
الس طح
الس رقة
الس بلة
الس بع
الز بادي
الرع وية
الرئ اسية
الد روس
الخ ر
التن قيب
الترفيه ية
التخ سيس
التح دي
البي وت
الب شري
الانتخ ابي
الان قلاب
الام ين
الاكت ئاب
الاق سام
الاع اقة
الاست شارات
الاست ئناف
الإ طار
الأ طباق
ال وريا
اق بة
اف ترا
اعتبار ا
اسم ها
است كمال
اس اس
ار يا
اح ب
اجتما عي
اث ة
ا شرف
ئ يل
إع فاء
إ خت
ؤ دي
أي من
أور وبي
أمير كية
أم هات
أس اتذة
أ وز
أ شرف
أ سيس
4 20
26 6
200 2
19 0
13 8
1 19
١ ١
ينته ك
يمكن ه
يم يز
يكت شف
يك م
يع ين
يد ز
يت عامل
يت ات
يت ا
يات ي
ي ملك
ي ذهب
وم د
وق وة
وط ين
وض بط
ور ون
وح اول
وث ن
وت د
والم زيد
والق نوات
والت عاون
والاست ماع
واس تر
وأج مل
وأ لم
و ول
و الكر
نص ري
ند قية
نت ي
نت عرف
نايل ون
نا ز
ن جل
منش أة
مناف سات
مق يم
مق هى
معر وض
مطاب قة
مش كلات
مش اهدات
مر نة
مر تضى
مجموع ه
م هر
للش غل
للأم م
للأس منت
للأ من
لل نشر
لل مقارنة
لل سيد
لل تدريب
لك ة
لد ول
كير الا
كم ان
كت ي
كت ل
كار ثة
ك اسي
ق ومي
في وم
فن ز
فت ين
ع ثر
ظ رة
ط اف
ط اع
ض ى
ض انات
صل ابة
ص ير
ص عود
ص عبة
ص ا
شخص يا
ش وارع
سن ستخدم
سل اسل
سراب يوم
سخ نين
سام راء
س ماع
زيغ ية
ز كي
ز راع
ري ضة
رك بتي
ركبتي ها
رج ع
راه ية
ذربي جان
دور ه
ده ن
دم ياط
در سة
داع ي
خر ية
حوا دث
حمد ان
حاول ت
جي ه
جان به
ج ناح
ج رب
ته ما
تن س
تق اق
تعرض ت
تع تقل
تش ت
تساعد ك
تر ط
تح ط
تح رك
تبي يض
تابع نا
ت ظ
ت ذهب
بي دات
بنا طيل
بن ان
بعد ة
بع اث
بط رس
بح ادث
بالم عدات
بال ليزر
بال است
باب ات
با يت
ب مصنع
ب جر
ب الحق
ايط الية
اور وبا
اني وم
انت ظام
ان ظر
امت لاك
اله دى
النخ يل
الموا هب
المعلومات ية
المع الم
المس ر
الم يل
الم مثل
الم لت
الم تد
الم ان
الم ادي
الم ائي
الم ئة
الل ياقة
الكاري بي
الك ليات
القبي سي
الق طن
الق ابلة
الف طر
الغ ردقة
الع تبة
الطي بة
الط اولة
الط اقات
الض رائب
الص دد
الش جرة
السع ال
الس باحة
الريح ان
الر ش
الدكتور اه
الحي ض
الحمام ات
الج هد
الث لج
التق ى
التق بيل
التع ويض
التد خين
التح ذير
الت و
الت سمية
الت بش
البل دة
الب احة
الاست عمار
الاب تكار
الا ير
الإمارات ية
الإ بلاغ
الأ مطار
الأ فق
الآ لية
ال ون
ال وب
اكل ات
اكت ساب
اق تحام
است عم
اس منت
اس مك
اد ين
اد خل
اح تلال
ا كون
إلي هم
إكس بو
إ مد
إ حالة
أش ار
أحد هم
أح ياء
أ طف
أ ذ
آرائ ك
700 122
58 386
30 9
30 700122
21 6
15 6
15 5
13 9
10 7
10 44
010 30700122
00 6
يه ن
يس عد
ير ن
يح فظ
يح ضر
يح افظ
يت فقد
ي هدد
ي قدر
وي عد
وم واع
وك يا
وغير ه
وص لة
وزير ا
ورد ت
ود عات
وت قول
وت عمل
والع شرين
والج رانيت
والأ رض
وال هدايا
وال ثاني
واس عار
وائ ب
وا ك
و كر
و تركيا
و الحجر
و اسم
هي ري
هر ت
ها ون
ه زة
ني ش
نس ى
ن قط
منش آت
من كم
مض م
مصر ف
مص ممة
مست عمل
مس جلة
مر ن
مر مى
مر تفعة
مدف وعات
مث الي
متح رك
مت هم
م متع
م بد
لي ها
لي بي
للصد أ
لل يوم
لت غيير
لأن نا
ل جامعة
كوم يدي
كر وية
كر رة
كت ورة
كان ي
كا واي
ق ير
ق ح
فلوري دا
فش لت
فران س
فر ح
ف وكس
ف صول
ف حسب
غ ري
عم ارة
عف وا
عز ز
عاد ت
ع وض
ع جة
ع اف
طاق م
ط راف
ط الع
ضع اف
ض منها
ض ارة
صح اح
صال ون
ص ين
ص م
شه ريا
سيق وم
س ند
س لا
زل ت
ز ول
ز از
ز ابي
زابي ث
ريق ية
ري ري
رغ وة
د اني
خط ورة
خز ان
خد ود
خت ام
حي ال
ح فاظ
جي ال
ج ذب
ج ثة
ج بال
ث لاجات
ث ارة
تيا ز
توا جد
تف ريغ
تغ ليف
تع قد
تش و
تس وية
تس لم
تز ويد
تر قية
تر تبط
تب اه
تأش يرة
ت ظل
ت ترك
ت بين
ت ئ
بي و
بي ها
بي كسل
بول ندا
بنت ه
بل ور
بل وجر
بر أس
بد اعي
بالش كل
بار ز
بإ جراء
ب وند
ب وقف
ب مساعدة
ب تحويل
ام يع
الور ق
النس ائية
النبات ي
النا درة
النا حية
المنت دي
المنا ق
المن خفض
المق اطعة
المع الج
المست ندات
المس اء
المر ز
المد لكة
المحظ وظة
المح اكم
المح ادثات
الماك ينات
المؤ خرة
الم خرج
الم جد
الكي ان
الكلاس يكية
الك اب
الفع الة
الف قر
الف ريد
الف ائدة
الع اط
الضو ئي
الضع يفة
الصد مات
الشي عة
الشر عي
الش ورى
الس قف
الد اف
الخط ط
الخ فيفة
الخ طر
الحضر ية
الحس يمة
الح ين
الح لمات
الح شد
الج ليل
الثم ينة
التن سي
التق اط
التص فيات
التص حيح
الت وقف
الت وازن
الت كنولوجية
البوكس يت
البح يرة
الب هلوانية
الب شير
الا يفون
الا وسط
الإ غ
الأهم ية
الأمن ي
الأ ندية
الآ منة
ال وع
ال وصفات
ال واجب
ال ال
ال اض
اك ست
اط باء
اض ل
اس ماعيل
اس رة
ارات ي
ار ق
ار عة
اج نبى
ائ عات
ا يت
إش عار
إ طلالات
إ رجاع
إ تحاد
ؤل ؤ
أو غاريت
أني قة
أن غ
أك ادير
أص فر
أح بك
أت منى
أبرز ها
أ مت
أ خطاء
أ جد
آ دم
8 75
25 6
21 9
21 3
10 8
ين طوي
يق لل
يف اضح
يعرب دة
يصل ه
يرية عشيقة
يريةعشيقة تئ
يريةعشيقةتئ نع
يريةعشيقةتئنع ارضة
يحتاج ها
يح تفل
يج الفيديوهات
يا ك
ي وقع
ي عنى
ي صيب
ي شرح
ي تحول
ويج وز
وووو وووو
ومن اطق
وك يو
وع ب
وط احونة
وش ان
وز ر
ور ط
وحش الطبيعة
وحشالطبيعة الديك
وج بات
وت قع
وب ط
والمنا ولة
والع راق
والصغار ناضج
والصغارناضج الملابس
والد واء
والت حكم
والت اريخ
والإ مارات
وال شركات
وال ذين
وال بريد
واط ئ
وأضاف ت
و ذات
و خصوصا
و خة
و الحر
هار د
ها ئلة
نك ح
نغ ارية
نغارية كتلة
نعم قابلة
نعمقابلة السائل
نظ يره
نس وان
ندي فندق
نديفندق ربة
نايلون المحظوظة
نايلونالمحظوظة الثلاثية
نايلونالمحظوظةالثلاثية الهاوية
ناضجة الناضجة
ناضجة الرجل
نات اللاتكس
ناتاللاتكس لاتينا
ناتاللاتكسلاتينا الجلد
ناتاللاتكسلاتيناالجلد طماق
ناتاللاتكسلاتيناالجلدطماق الساقين
ناتاللاتكسلاتيناالجلدطماقالساقين المثليه
ناتاللاتكسلاتيناالجلدطماقالساقينالمثليه الشرج
نا ها
ن رحب
مي كرون
منه ور
مليش يا
ملاء مة
مقل ع
مق اعد
مغ ذي
مع ادن
مطالب ك
مضاع فات
مض ي
مص ح
مسن آلة
مسنآلة تدلي
مسنآلةتدلي كال
مسنآلةتدليكال وثن
مز اد
مرضة امرأة
مرحة المؤخرة
مدف وعة
مخفي كاميرا
مح جبات
مثليه المثليه
مثليه الخادمة
مثليهالخادمة المراهقات
متزوجة حلي
متزوجةحلي بالم
متزوجةحليبالم مرضةامرأة
ماستر القناع
ماسترالقناع متزوجةحليبالممرضةامرأة
ما عات
م كون
م قط
ليص لك
ليات ماسترالقناعمتزوجةحليبالممرضةامرأة
لي ثيوم
لم وسم
لل مثليهالخادمةالمراهقات
لل فيروسات
لل فتاة
لل شعب
لل شرطة
لل دولة
لل دخول
لل اتصال
لق ضاء
لق سم
لاله نغاريةكتلة
لا فت
ل وكالة
ل وقف
ل وظيفة
ل وضع
ل عملائنا
كري مات
كر ونة
ك جزء
قوية المكتب
قويةالمكتب على
قضيبه نديفندقربة
قصيرة المال
قصيرةالمال التبش
قصيرةالمالالتبش يريةعشيقةتئنعارضة
قرن إدخال
قرنإدخال المستشفى
قرنإدخالالمستشفى عرق
قرنإدخالالمستشفىعرق يفاضح
قذرة الطبيع
قذرةالطبيع يعربدة
قامش لو
ق ها
ق راء
ق تي
في هم
فوز ه
فنز ويلا
فع ية
فر وض
فار غ
ف لس
غض غريب
غضغريب التقبيل
غضغريبالتقبيل المطبخ
غضغريبالتقبيلالمطبخ الكورية
غضغريبالتقبيلالمطبخالكورية السيدة
غضغريبالتقبيلالمطبخالكوريةالسيدة جين
غضغريبالتقبيلالمطبخالكوريةالسيدةجين زر
غضغريبالتقبيلالمطبخالكوريةالسيدةجينزر ناتاللاتكسلاتيناالجلدطماقالساقينالمثليهالشرج
عمر ها
عص ام
عد وى
عب وات
عارية شقية
عاريةشقية تنورة
طي بة
طويلة حفل
طويلةحفل عاريةشقيةتنورة
ط ورية
ضلة قذرةالطبيعيعربدة
ضخمة الزوج
ضخمةالزوج الها
ضخمةالزوجالها ويات
ض ائع
صاح بها
ص نعمقابلةالسائل
ص مام
شي وخ
شك وى
ش قيق
سنا الشرج
سمع ت
سل ار
سر نا
ست ور
ساعد ك
ساب ات
س امي
س اس
س اح
ركبتيها العربدة
ركبتيهاالعربدة الشرقي
ركبتيهاالعربدةالشرقي في
رفع ت
رأس ه
ر وبي
دي ش
داخلية جوارب
دا ون
د خ
د جاج
خفية محلي
خط ى
خ ريف
حين ئذ
حص اد
حس الألعاب
حت ها
حام د
ح اب
جدا البهلوانية
جداالبهلوانية الساقين
جام ع
ث ات
تنا قش
تن فس
تم ارس
تليف زي
تف اهم
تط هير
تضخم الذ
تضخمالذ لالهنغاريةكتلة
تص ور
تص دق
تش اهد
تر حات
تر تفع
تح ف
ت وصيات
ت كتب
ت زيين
ت بت
ت اح
بي تها
بنفس ه
بم ختلف
بر وتوكول
بر قم
بدي لة
بإ ضافة
بإ تقان
ب من
ب الصحة
ب الرغبات
انته ت
ان تقال
ام يرات
ام هات
اليابانية اليابانية
اليابانية الشرج
الياباني اليابانية
الياباني ات
اليابانيات الها
اليابانياتالها وي
الي كم
الوه اب
الوض عية
الوحش الأمع
الوحشالأمع ضلةقذرةالطبيعيعربدة
الهندية أ
الهنديةأ قرنإدخالالمستشفىعرقيفاضح
الناضجة مرحةالمؤخرة
الناضجة كبار
الناضجة قضيبهنديفندقربة
الناضجة المراهقات
الناضجة الكبار
الناضج قضيب
الناضج الشعر
المي لادي
المودي لات
المنوي غضغريبالتقبيلالمطبخالكوريةالسيدةجينزرناتاللاتكسلاتيناالجلدطماقالساقينالمثليهالشرج
المنت شرة
المنافس ة
المكت وبة
المعاص ر
المع زز
المع اهدات
المص نف
المص حف
المشعرة امرأة
المشعرة المشعرة
المشعرة الاستمناء
المشعرةالاستمناء الكعب
المشعرةالاستمناءالكعب العاهرة
المشعرةالاستمناءالكعبالعاهرة مخفيكاميرا
المش فرة
المراهقات اليابانياتالهاوي
المر تبة
المر اس
المذاكرة النشوة
المدلكة نايلونالمحظوظةالثلاثيةالهاوية
المدر سي
المحاس بية
المج اورة
المثليه امرأة
المثلي الرج
المثليالرج يجالفيديوهات
المث لياتماسترالقناعمتزوجةحليبالممرضةامرأة
المتر و
الم عاملات
اللح ظة
الك ندي
القر آ
القت ال
الق ات
الفي درالية
الف ارس
الغ ابات
العم ارة
العجوز الحلمات
العجوزالحلمات الزيت
العجوزالحلماتالزيت كبيرة
الع وسج
الع صور
الطويل مثليه
الطلق ألم
الطلقألم سراويل
الصيد لة
الصح ابة
الص مت
السن مسنآلةتدليكالوثن
الس ين
الس كك
الز اوية
الرس ومات
الر كام
الر ذاذ
الداخلية المدلكةنايلونالمحظوظةالثلاثيةالهاوية
الد موية
الخلف ية
الخ ياطة
الخ وف
الح ريات
الجنسية نكح
الجد وى
الج نيه
الج نائية
الج س
الثدي المثليه
الث وري
التد وير
التأ ليف
الت وزيع
الت ز
البي تضخمالذلالهنغاريةكتلة
البط الة
البالغة الإيطالي
البالغةالإيطالي اليابانية
الان تظار
الاف تتاح
الاص لي
الاستمناء المذاكرةالنشوة
الاست خبارات
الازياء أمي
الازياءأمي وحشالطبيعةالديك
الائتم ان
الأوغ اريت
الأن بياء
الأمل حسالألعاب
الأم هات
الأخ لاق
الأب جدية
الأ مثل
الأ با
الآسيوي الاستمناءالمذاكرةالنشوة
الآسي وية
ال وجود
ال ديم
اك شن
اق ليم
اع راض
اع ادة
اضر ار
اض ة
اص لة
اص لاح
اشتري ه
اخت راق
اح دى
اج رة
ات نا
ائ ض
ا ديداس
ئ ران
إن ك
إسرائيل ي
إ يداع
أن ف
ألب وم
أك ياس
أك واد
أق نعة
أق ترح
أع ظم
أط قم
أص لا
أس وأ
أخ يرا
أح جام
أ ولي
أ قر
آ داب
آ بل
36 3
00 00
٠٠ ٠
يهن ئ
ين في
يكون وا
يق صد
يف رات
يد وي
يخ فض
يج تمع
ي وب
ي مني
وي تر
ونص ائح
وم ز
ول قد
ول ف
وق در
وفي سور
وف وائد
وغير هم
وع الم
وظ فين
وسري عة
وس ائد
وج ا
وتس جيل
وتأ ثير
وت وزيع
وت بلغ
وب ل
وب ذل
وام تحانات
والس نة
والح ياة
والت أ
والإ نس
والأ خ
وال فنون
وات ر
وا هر
وا ضاف
وا ذا
وا ذ
وأج وبة
و ينة
و الحلول
هو ري
نق اذ
نظ يفة
نبات ات
نا يات
نا عمة
نا ث
ن وت
مولد ات
موس ي
مه نة
ملح وظ
مكت وب
مق اول
مصر ى
مش يط
مز ين
مح مي
مح تر
مج فف
مار ت
ما ضي
ما ض
ما ئي
م واليد
لن شر
لمن اقشة
للع ديد
للأس ف
لل غ
لل تعديل
لق ناة
لت قليل
لاد ن
ل عدة
ل زيارة
ل تفعيل
كيم ياء
كوك ب
كر وت
كر ز
قب لي
قائ م
في جب
فل ما
فل تر
فرش اة
فر قنا
فر ز
فات ورة
فات ح
ف ود
ف لسفة
ف كل
غي ث
غ لا
عند هم
عنا ع
عن ب
علاج ه
عرض ه
ط ويلا
ط ريات
ض حت
ص رة
شا ور
ش يا
ش هير
ش اي
سيا ق
سل بية
سل بي
ستر ون
سبوت نيك
زي ق
زل ج
ز رع
ز ائي
رب ين
راص ير
رأي ه
ر بي
ر انيا
ذه اب
ذ اء
دي ها
دي انا
دا وي
د وار
د ريه
خدمات نا
خب ث
حول ه
حق ن
حص ة
ح نا
جو هر
جل اس
ج بيل
ج اي
ته ديد
تلقي ح
تشي يع
تش به
تسع يرة
تس هيل
تز ا
تدوير ها
تخ ضع
تح فيز
تح دي
تح د
تح افظ
تث بت
تت راوح
تب ني
تب ليغ
تأ هيل
بيانات ك
بط ي
بشر ى
با يات
بأ لوان
ب مديرية
ب ذل
ب ذ
ب تع
ب الأسنان
ان ظمة
ان سحاب
ان تح
الي ها
الوه ن
المنش أة
المل ونة
المق ابل
المعروض ة
المر جع
المخ زون
المج اري
المت ميزة
المب كر
الم هرجان
الم هر
الم رسال
الم درجة
الم باد
الل وجست
الكيل ومترات
الك اف
القر وض
الق ائد
الف هرس
الف لس
الف ضل
الف ص
الف رج
الف ج
الغرب ال
الع ميق
الع ث
الع ار
الط يف
الط ويلة
الط هارة
الص ار
الشر وحات
الش ناوي
السعودي ه
الست ة
الس مك
الزمن ية
الز خر
الريح اني
الروا يات
الرز اق
الرب اعي
الراب طة
الر ومان
الر كن
الخاص ه
الخ بير
الح ريق
الجلد ية
الثلاث ي
التن زيل
التر حيب
الت وقيع
الت لاعب
الت داولات
الت ثبيت
الت ب
البلا غ
الب وليس
الب قدونس
الب ق
الانتها كات
الانتق الية
الام ور
الاع شاب
الاست اذ
الار بع
الاح داث
الا يام
الإ عاقة
الإ حت
الأنص اري
الأم يرة
الأس طح
الأثر ية
الآ تي
الآ باء
ال ظل
اكتشف ت
اقترا حات
است فسار
است ثمارات
ار اضي
احتف الات
اب داع
اااا اااا
ا يميل
ا يس
ا كنة
ا ختلف
إ ز
أي دي
أمير كي
أم را
أع وام
أص عب
أر وع
أث اث
أ ليس
أ بيب
أ بد
89 4
39 9
21 5
17 3
16 1
15 9
14 4
14 36
12 9
11 8
يق ف
يف كر
يشرف نا
ير ون
يتن اسب
يتر أس
يت ناول
يت فق
ي وجه
ي ما
ي كس
ي طرح
ون يت
وم علومات
وك و
وف ن
وع بد
وص ات
وست ن
ور غم
وح ر
وت غليف
والماك ينات
والم سا
والع رب
والط لاب
والط اقة
والص ين
والص واريخ
والص لاة
والت وزيع
والت ع
والإ ن
وال صرف
وال ده
وال اقتصادية
وال اجهزة
وال اتصال
وال آثار
وا قي
و العروض
هد فا
نوا فذ
نج اة
مي تس
موظ في
مو ه
منت خ
من غ
مع طر
مع جم
مد بل
مت ميزة
مت لازمة
مت ك
ما هر
م لاحظات
م فع
م علومة
لم ساعدة
للمستخدم ين
لل صناعة
لح ظات
لح زب
لائ ل
لا خت
لا حق
ل عة
ل طلب
ل درجة
ل جان
كولوم بيا
كت الوج
كبير ه
كار تير
ك ليب
ك لاين
قل عة
قر عة
قب ض
ق يت
ق اضي
في مصر
فضي حة
فرا غ
فر وة
فايز ر
ف هذه
عم ود
عقل انية
عاص فة
عا يير
ع زم
ع ربة
ع اهرات
ع ارة
ظ ى
طي ور
طلق ت
ط وا
ضرب ين
ض حية
صح ى
صار وخ
ص نف
ص غر
ص بع
شف اف
شع وب
ش م
سي ات
سن قوم
سما عة
ست ريت
ساء ل
س ني
س اق
زوج ين
زجاج ية
ز كريا
رف ح
رز ق
ر ذاذ
دو امة
د ورية
د ماء
د س
خل ع
خط يب
خز انة
خ خة
حيات هم
حن ين
ح اف
ح ائل
جيت ال
جو هرات
جه ز
جر وب
ج وان
ج مل
ثم اني
تي شيرتات
توقع ات
توضيح ات
تها د
تم وند
تف تيش
تعم يم
تعا قد
تع ريفات
تشيل سي
تش يك
تس عة
تز وير
تر وكي
تر طيب
تحت اجه
تح قيقات
تجاه له
تج يب
تج دد
تأ مل
ت متع
ت خصصات
ت تر
ت از
بين يت
بي زو
بي بة
به ما
برا ديش
بح ل
بال اح
باك الوريا
باب ي
باب ه
با شير
بإ عادة
ب عرض
ب تنزيل
ب المغ
ب الحد
ب الث
ب اقات
ب ؤ
اه تزاز
ان ضمام
ان حاء
امري كي
الوا ضح
النق ابي
الن مر
الن قر
الن سب
المي كروويف
الموج ات
الملا يين
المف تي
المس اجد
المر آة
المحت ملة
المح ورية
الم لي
الم فيد
الم سب
الم زايا
الك و
الك فيل
القص وى
القب ائل
الفرد ية
الفر وقات
الف تنة
الغ ربة
الغ ار
العم لاقة
الع ميقة
الع قيدة
الع صرية
الع ائد
الط رد
الط احونة
الط ائر
الشي وخ
الشه ية
الش فاء
الش غل
الش ديدة
السليم انية
الر وائي
الدل الية
الد قهلية
الخي ال
الخضر وات
الخ طيب
الح لم
الح لاقة
الح ادث
الجما عات
الجز اء
التن وع
التن موي
التمر ين
التعا في
التص اد
التش ريع
التركي بية
الت ين
الت حدث
البلات ينية
البط اوى
الب وم
الب نفس
الب صر
الان د
الامري كي
الالم انية
الاص دار
الاستراتيج ي
الاس هم
الاس اسية
الاتفاق يات
الا خر
الإن ك
الإث نان
الإ نف
الإ ند
الإ خبار
الأص فر
الأص ابع
الأرص اد
الأرج نتين
الأر ثوذ
الأد لة
الأ علاف
الأ سبق
ال هيكل
اق تراب
افي ين
اع ضاء
اع رة
اع تقد
اط لع
اش ية
اسي ما
استر اليا
است كشاف
است شاري
اج راء
اث ية
ات خذ
اب ناء
ئ ام
إش راف
إ يم
إ يف
إ ضاءة
إ صدارات
أي ه
أو دي
أع قاب
أش عر
أد لة
أ جمع
آ فاق
5 50
3 24
22 2
21 1
20 3
199 5
19 87
19 79
15 1
012 3456789
٣ ٠
٠٠٠٠ ٠
ين زل
ين اسب
يل قي
يع اب
يص عب
يت وقف
يت ال
ي وقف
ي مل
ي قرر
ي قرأ
ي علق
ي ختار
ي بين
ويق وم
وي ز
وي حتوي
ومات يكية
ول عل
وك شف
وق يف
وق ام
وف ع
وف تح
وص ى
ور وسيا
ور م
ور ؤ
وجه ه
وج وه
وج واب
وج ة
وبي انات
وبعد ها
والت علم
والإ ست
وال يس
وال بيانات
وا كب
و خي
و السياسية
ها دات
نوع ا
نش أة
نجر ان
ن يم
ن نشر
ن علم
مي ونخ
موقع ه
موج ات
مها جر
منزل ه
مناف سة
من ط
من ادي
مل تز
مغل قة
مضم ونة
مش تبه
مست عد
مسب قا
مس اهمة
مرك بات
مر ين
مدبل جة
مد نيين
مخل فات
مت قدمة
مت ت
مبي اد
م وان
م مثلة
له ما
لمن ظمة
لل ن
لل مساعدة
لل مرحلة
لل فريق
لل تسوق
لق احات
لط يفة
لح ياة
لح وم
لتس هيل
لتح رير
لت كسير
لت خ
لا فات
لا ختيار
ل مرضى
ل محافظة
ل ذ
ل تسجيل
ل آخر
كت ار
كاسي و
ك يت
قي اسية
قوق ل
قر ص
قدم ين
قد ما
قب لة
قام وا
ق هوة
ق ند
فيت شر
فوات ير
فار ق
فات ك
غر اب
عند نا
عن ة
عمل ي
عم لا
عل مه
عل ب
عب ير
ع بي
ع اليه
ظر ف
طن طا
طلا قا
طف لة
طف لا
صوت يات
ص يا
ص واريخ
ص افي
شر وبات
ش وب
ش أنه
سي ه
سم م
سكا ي
ست ست
ست جد
سام ية
س ماء
ز يمة
ز ى
ر قيقة
ر عب
ذي ذ
ذ يرات
دور تموند
د لع
خي ام
خ يل
خ انة
حقق ت
حس ني
حر ارية
ح والى
ح جاج
ح بيب
ح بس
جير ات
جرين تش
جر ت
جاه ز
ج ثمان
ث يف
ث مة
ث لة
تي غرا
تنا ع
تمث يل
تمت د
تل بيس
تق سيط
تف كر
تغير ات
تغ لب
تعرض ه
تع زز
تط وان
تص ب
تشيك وسل
تش ين
تست قبل
تر حي
تد لة
تد ابير
تتح رك
تت وقف
تت أثر
ت من
ت لبية
ت ضي
ت ضا
ت سب
بي طار
بي ثة
بنها ية
بنغ ازي
بم قدار
بم عدل
بلج يكا
بلا ي
بل وتوث
بك ثرة
بشر ط
بش ار
بريط انية
بر وفي
بر مجيات
بر ت
بح الة
بال يد
بار يات
بار ي
بإ سم
بإ حدى
بأ ية
ب هيئة
ب مطار
ب مساحة
ب مجلس
ب تنظيم
ب اص
انج ليزي
انتق ام
ان يس
ان وى
ان كا
ان تف
ام يكا
ام وس
الهي ئات
المل وك
المكاف آت
المقص ود
المقتر حة
المعي شة
المعلم ات
المع ز
المست مرة
المد خل
المج الس
المتصف حات
المت علم
الم ين
الم نع
الم لائ
الم راجعة
الم ائدة
اللي جا
اللغ وية
اللا ئ
الك لاب
الك ف
القط نية
الق لي
الف ول
الف ورية
الطف ولة
الط يز
الض غوط
الصغر ى
الشع راء
الشري فين
الس يسى
الس ط
الرمض انية
الد ائرة
الخط يرة
الخص ومات
الخ ريف
الح راك
الجل وس
الج نة
الج راحة
الته ديدات
التصاد مية
التحديث ات
التج اعيد
الت وصل
الت وسع
الت وت
الت ميز
البي انية
البكال وريوس
البر وفيسور
البر مجيات
البار يت
الاع تراف
الاست شارية
الار ه
الإ ضافي
الإ شارات
الإ ذا
الأند لس
الأ سلحة
ال ير
ال وكالات
ال راج
ال افضل
اق وال
اغ اني
اع شاب
اش خاص
اسلام ية
است شهاد
است خد
است جابة
ارتفع ت
اد ا
اح لام
اح تيا
ابري ل
ئ ى
إش ترك
إحص ائيات
أف عل
أعل مني
أع زائي
أصدقائ ك
أسي وط
أ واخر
أ وائل
أ در
88 2
6 40
480 2
26 5
23 9
23 5
23 2
19 77
19 1
18 3
17 28
14 3
14 2
12 7
ٱ ل
يق يم
يف ه
يست مر
ير تبط
يح مي
يجعل ها
يجعل ه
يج اد
يت سبب
يا ئي
ي ور
ي طة
ي ديا
ي جر
وي وجد
وي أتي
ومن ه
ومن ا
ول يت
ول ود
ول أن
وفي ها
وع ين
وض مان
وصل ات
وس رعة
وس جل
ور فض
ور ج
ود ى
وح لول
وتح ديد
وت نظيم
وبي وتيك
والمر كز
والز وار
والتخ فيضات
والت شري
والأ لعاب
والأ دب
وال فيديو
وال ثلاث
وال ام
وأ ش
وأ سباب
و وسائل
و أي
هم ال
ه لي
نف ث
نسي ج
ند ه
نج مة
نا زل
ميل ة
مي ين
موضوع ات
مو يل
منتجات ها
من قولة
من اص
مق فلة
مق عد
مغ لق
مع وقات
مش اجرة
مست شفيات
مر و
مر ف
مد يرا
مج مل
مج زرة
مج اهد
مايكر وسوفت
ماي كل
ما كرون
ما دية
مئ وية
م وم
م وري
م مثلي
للم غرب
للم علومات
للعام لين
لل منزل
لل زراعة
لل تعامل
لل إعلان
لل أنباء
لف تح
لد ور
لح ين
لتص لك
لت لقي
لت علم
لا دا
ل صحيفة
ل بل
كوب ونات
كت ها
كادي مية
ك الفن
ك از
قض ائية
قص ور
قس د
قر ه
قد س
ق وام
ق والب
ق ماش
ق بيلة
في مكنك
فع يل
فاض ل
فا يف
فا خر
غ ندا
عن ق
علاج ها
عل ة
عداد ات
عبد اللطيف
عار ضة
ع ذر
طف ول
صور ه
صل ية
صب حي
صاح به
ص مت
شي يد
شهر ية
شمس ية
شف رة
شر ع
ش يلي
سي ح
سي ئة
سكا يب
سعي دة
سع ى
سجل ت
ست يل
سب اقات
ساع ه
زل زال
ز هور
ري اح
رق ابة
رب ه
ذه بت
ذا هب
دين ه
دولار ا
دول يا
دول ارات
در عا
د وما
خل في
خار طة
خ رائط
خ تم
حي ط
حل ويات
حز ينه
حاد ثة
حا طة
ح كمة
ح قل
ح را
جلب وع
جعل ها
جدا ول
جان بية
ث وب
توي ج
ته ريب
تناول ه
تن قسم
تق ضي
تعليم ي
تع ريب
تط ورت
تط بيع
تست عرض
تس ريب
تح ركات
ت ولي
ت وضع
ت فرض
ت غط
ت عدد
ت تدخل
ت ابل
بير غ
بير س
بي تكوين
بم علومات
بع يدة
بري ميوم
بر غ
بر اني
بد ولة
بحث ا
بالب شر
بال برنامج
با طن
بإ طلاق
بأن ك
ب وط
ب مؤخر
ب كلية
ب تنفيذ
ب تفعيل
ب المد
ب العربية
ب العديد
ب البحث
اي يس
اه ما
ان خفض
الوض وء
الني جر
النص رة
النز اعات
الن عناع
الن د
الميكان يكي
الميز انية
المن وية
المن ف
المق ام
المفر دات
المف ترض
المض اد
المص ابيح
المش هورة
المت ميز
المب الغ
الم لق
الم عاملة
الم بدأ
الم أكولات
الكي ماوية
الكني ست
الكت ال
القط يع
الق ياس
الق بطية
الق اسمي
الق ائم
الفق ري
الف ريدة
الغ نية
العص بية
الع ظم
الع ز
الصوت يات
الشه ري
الشر وق
السي ئة
السع يد
الس يادة
الرب ط
الر أسم
الدو ارة
الخاص ية
الخ ميني
الحر وب
الحر كات
الج وف
الث انوى
التفا علي
التع ادل
التط ورات
التش خيص
التر اب
التجهيز ات
الت مثيل
الت ليف
الت غ
البط اقة
البروج سترون
الب لاك
الام م
الاصطنا عية
الاخ يرة
الات جار
الإلكتر ونى
الإ حص
الإ بداعي
الأوغاريت ية
الأن ترنت
الأغ نية
الأج واء
الأ فعال
الأ دبي
الأ خت
ال وفاء
اع ثر
استثمار ية
است ه
است قالة
است شارات
است ثناء
از ر
ار يف
ار تي
ار بع
اد قة
اح ونه
اح ص
اب هة
اب تكار
ئ ون
إخبار ي
إ مت
أي ون
أع ياد
أع ط
أص ابع
أس فر
أرض ية
أرض يات
أر ى
أد بي
أث بتت
أ ضاف
أ ذربيجان
أ خطر
أ بحاث
429 85
39 894
29 0
26 9
23 8
20 4
198 36
1728 17
17 4802
16 6
يه زم
يقدم ها
يق ارب
يفر ار
يس قط
يح كم
يت راوح
وورد بريس
وه ان
ون يسية
ومن ع
وم وقع
وم كان
وك لاء
وق م
وصف ه
وس هولة
وس بل
وري ال
ور ان
وج مع
وتص نيع
وبي ل
وب ن
والمط اعم
والع شرون
والت واصل
والت ط
والت خلص
والاست شارات
والأ طفال
والأ راضي
والأ خدود
وال لغة
وال قر
وال صناعات
وال شعر
وال زن
وال ذهب
واس ير
وار ث
وا فل
وأ ماكن
وأ خذ
و كتب
هي دي
هر م
هام ش
ني طرة
نموذج ا
نق ابات
نسوان جي
نت ها
نا زة
نا جحة
ن واب
ن ذكر
ن بدأ
مي ته
مون ديال
موس يقى
منظ فات
من وع
ملح وظة
مل وك
مكان ة
مع ز
مع اون
مع املة
مع املات
مع ارك
مص اب
مش ي
مسل ح
مسر وقة
مسب اح
مسؤول ين
مس ة
مر وان
مح ليات
مح ترف
مج لد
مثل ما
مالي ك
مار تن
مؤك دة
م في
لي تل
لمؤ سسة
لم د
للف كر
للعمل ات
لل ناس
لل ملابس
لل مستوى
لل فن
لل عالم
لل زواج
لل دراسة
لل جيش
لل أشخاص
لقاء ات
لت عليم
لت تمكن
لب س
لإن قاذ
لإ يران
لأ جهزة
ل وج
ل وا
ل مة
ل شخص
ل ث
ل تجربة
ل ئ
كن ي
كر وس
كت ات
ك ويك
ك ويت
ك شن
قيم ين
قي قا
قل ية
قر أت
قدي ما
قدر ها
قال يم
ق يادات
ق مصان
ق ارب
فيتام ينات
في رجى
فليكس و
فريق ه
فر دي
ف است
غز وة
غدا دي
غ ى
غ ناء
عملائ ها
عمر ان
علاج ية
عبد ه
عا قد
ع كا
ع جز
ظ لت
طلع ت
ط وكيو
ط حة
ضي ب
صيح ات
صنا دل
صع وبات
صر ح
صديق ه
ص يني
ص ق
شركت ك
شر ية
شر طي
ش ريف
ش ابة
سير ين
سير اميك
سي خ
سي ارتك
سم كة
سم راء
سل سال
سكري بت
ست قوم
سا و
زي ارتها
ز ميل
ز لاق
ري جي
رد ن
رج س
رج ب
راح ه
رأس ها
ر وت
ذ وق
خاص ه
خ وف
خ لل
خ ضر
خ اطئ
حديث ه
حت نا
حار ث
جيج ابايت
جني هات
جن ود
جميع ها
جل وس
جام د
جام ا
ج وية
ج وه
ج ولد
ج ود
ج اري
ثر ات
ث لج
تيغرا ي
تم كنت
تلفزي وني
تق اء
تع ز
تض بط
تد ليك
تد ريبات
تح و
تأسيس ها
ت ولد
ت مة
ت لي
ت كل
ت غي
ت تعامل
بين ي
بي قي
بي بي
بور صة
بود رة
بو ش
بلاد نا
بل قب
بك ه
بطن جة
بط رق
بش خص
بر واية
بر صيد
بدء ا
بح والي
بات نة
بات ت
با خت
ب فوز
ب تحديد
ب المنزل
ب العالم
ب الخلايا
ب الا
ب آخر
اي هما
اه ن
الود اد
اله وائية
اله جمات
الن ماذج
الن قال
المي زة
المنت ظر
المن قولة
المن عم
المع اني
المشر وبات
المشخص اتي
المش اعر
المسم وح
المست ثمر
المسا كن
المسا عد
المس ح
المس ائل
المر فأ
المحت مل
المح اولة
المجتمع ية
المج اميع
المتط ورة
المت وا
الم فعول
الم خطوطات
الك وري
الك ندية
القط يف
الق حط
الق اري
الفنان ين
الفريق ين
الغ ش
العم الة
العل وية
العض لي
الع ظام
الع شاء
الع دة
الع بور
الض ح
الص وتي
الش مسي
السيا حي
السل عة
الست ار
الس ائدة
الرائ د
الر ف
الذ رية
الد ائري
الخلا فات
الخط أ
الخش بية
الخ سارة
الحل و
الحق ائق
الح ضور
الح شيش
الج ول
الج وانب
التن اس
التق اليد
الترب وي
التح ض
الت وضيح
الت غطية
البن ود
الب وت
الب غدادي
الب ا
الانتق الي
الانتاج ي
الاعلام ية
الاع تق
الاش خاص
الاست وائية
الاسب اني
الاتجاه ات
الائتم انية
الا يج
الا طفاء
الإف صاح
الأن مي
الأكس جين
الأ فريقية
الأ بن
ال يم
ال هو
اقتب اس
استئ جار
است دعاء
است ان
اس ه
اخت ي
احترا فية
اح ت
اته ام
ات ى
اب ز
ائر ية
ائ هم
ا ؤ
إن فين
إن فوج
إره ابية
إره ابي
إر تفاع
إ ني
إ لقاء
أي ق
أوب اما
أنغ ولا
أن ابيب
أطلق ت
أد ت
أج ير
أ شرطة
أ رج
أ راض
66 400
66400 366
49 8
4 30
4 26
37 0
2 37
15 2
14 1
14 00
13 3
08 0
يمكن هم
يمكن ها
يل ون
يق ظ
يص اب
يست عد
يس ار
يريد ون
ير وي
يت قدم
يت غير
يت ابع
ي وان
ي فيد
ي اسمين
ومواع يد
وم عرفة
وم عبرة
وم ض
وم تابعة
وعمل ية
وع ادة
وست كون
وس وم
وس ام
وز و
ود اد
وث ائ
وت اريخ
وب را
وب النسبة
والم عاص
والم اء
والكم بيوتر
والع اب
والط فل
والت كوين
والت أهيل
والأ ع
والأ بحاث
وال صلب
وال ذى
وال اد
واق عة
واج دة
وا هم
وأد وات
وأ ول
وأ فضل
و أنواع
و أنها
هي وستن
هو دي
ه ذة
ني ها
نظ مت
نست عرض
نست طيع
نت منى
نبات ية
ناقل ات
ن در
ميز انية
مي دي
مي خ
مو فيز
منا ظر
من ظم
معد ني
مع ناه
مع اذ
مص نوع
مش تق
مست وي
مس اك
مس ائل
مس ئولية
مراه قات
مر سي
مر ج
مح اسب
مت فرقة
ما وس
مؤتمر ات
م وجهة
م باحثات
لي صبح
للع ثور
للط فل
لل قانون
لل عربية
لل عب
لل سلطة
لل دكتور
لل جامعة
لل انتخابات
لل اعلام
لل اج
لط يف
لت لبية
لان ها
لاع بين
لات فاق
لإ ح
ل ود
ل غير
ل حق
كورد ستان
كن دريه
كر سي
كر بيد
كث يف
كت ابات
كارتير ون
كار فور
كاب يتال
كا يد
ك مل
ك ذب
قدم ها
قب الة
ق ود
ق فل
فر نك
فر غ
فتح ي
فا كهة
ف هرس
ف فة
ف أن
عن يفة
عل نت
عظ يمة
عب ور
عام ي
عا يش
عا شر
ع ميق
ع ميد
ع صرية
ع اطف
طم وح
طم رة
طب اع
ط اقات
صوت ي
صف ية
صاد ق
ص غار
ص ان
شر كائنا
شار كت
ش وشان
ش راف
ش دة
سي ير
سن اب
سما ح
سلسل ات
سل ف
سل بيات
سر ت
ست طيع
سب حان
سات ين
س لك
س رد
زيغ ود
رغ ب
رس نال
رح مته
را يتس
رأ ى
ر ئ
ذكر ها
ذ وف
ذ جي
ديو هات
ديمقرا طية
دير بان
دي اد
خلا فات
خلا ط
خش بية
خ يرا
خ اض
حي وي
حسب ما
حر ك
حبي بات
ح مص
ح قيق
ح افلة
جير سي
جم وعات
جز ئي
جر ش
ج وانب
ج افة
ج اذبية
توضيح ية
تن قية
تم ان
تليفزي ونية
تق ليد
تق طيع
تق تصر
تف ت
تعويض ات
تع تزم
تشيكوسل وفاكيا
تستخدم ها
تست غرق
تس ير
ترك ها
تردد ات
تد قيق
تد بير
تح تفظ
تت ألق
تبر ع
تايم ز
ت وم
ت آكل
بي كو
به ارات
بل ات
بعاث ات
بر لين
بر كات
بر ك
بدر جة
بج مع
بالم ئة
بالع اصمة
بالس جن
بالت الي
ب مقر
ب مح
ب خط
ب حقوق
ب ثق
ب الموقع
ب الخارج
اه الي
ان طلاقة
ان دي
ام يدز
ام ونج
اليه ود
النض ال
الميد ان
المي كر
الممت لكات
المكت بات
المك ملات
المقر رات
المعل مة
المعرف ية
المز يج
المز ود
المز رعة
المركز ى
المر شحين
المح يطة
المح ترف
المح ا
المج اهد
المت احف
الم كي
الم قط
الم قات
الم رب
الم خطط
الم تس
الم بكرة
الم بد
الم ئ
اللغ تين
اللح وم
الل ام
القرص ان
الق ريب
الق اسم
الفر عية
الفر امل
الف عالية
الف شل
الف س
الف اصل
العق ار
العط ري
العراقي ين
الع يدين
الع ة
الط ابعة
الضح ايا
الشع ائر
الش ن
الش قيقة
السع ي
السابق ين
الرط وبة
الرئيس ة
الر مادي
الر عب
الد وائية
الد كتورة
الخمس ة
الخلا ط
الخ يرية
الحلق ه
الحر ف
الح ظر
الح رق
الح جة
الج يم
الج وز
الج وار
الج هاد
الج فاف
الث وم
الث نائي
التور اة
التج سس
البوليس اريو
البلد ية
البرلم انية
البحث ية
الباحث ون
الب وشيه
الب طل
الان مي
الاقليم ي
الاق ل
الاست قبال
الاس ئلة
الاربع اء
الاحتف اظ
الاب احية
الإقتصاد ية
الإف طار
الإست راتيجية
الإره ابي
الإخبار ي
الإ ضافية
الإ تحاد
الأور بي
الأ يسر
الأ حرف
ال وص
ال امة
ال التهابات
اعتداء ات
اش عر
اسم ينة
است بعاد
اس هم
اخ لة
اح داث
اح ترام
اب ح
إنج ليزية
إن شر
إ قرار
إ رس
أي وب
أول ية
أش غال
أخ ضر
أخ رة
4 21
3 19
27 6
22 3
19 55
19 30
18 650
18 00
15 4
15 3
1443 ه
14 8
13 2
يون س
ين فذ
يقوم ون
يع الج
يش يد
يست غرق
يد شن
يح تفظ
يت لقى
ويق يلة
ويد عو
وي ذكر
وي خ
وي تش
ومس ؤول
وم صر
وق تل
وضع ها
وضع ه
وداع ا
وح ب
وج زر
وث ة
وتق وم
وت عليم
وبد أت
والموا ضيع
والم عر
والم رض
والط يران
والتح ديات
والت كنولوجية
والأ عمال
وال يت
وال هند
وال هر
وال نفس
وال علامات
وال شرطة
وال بال
وائ ده
وا كد
وا حت
وإ س
وأ هل
وأ عمال
وأ رب
و وفقا
و تحت
و الكثير
و الحديد
و الجزائر
و إد
هههههههه هههههههه
ها وس
نق دي
نع يش
نر سل
نان و
نا ص
ن يران
ن ير
ن ود
ن طق
موقع ها
من حد
مل ه
مقد ار
مق ص
مق ابلات
معد ن
مظ اهرة
مسر حية
مست عمله
مس عود
مر طب
مر اسم
مد يرة
مد ونات
مد ه
مد ا
محل ول
مح ونة
مح سن
مج هولة
مت ناول
مت صل
مت جدد
مت جد
متجد دة
ماكن ة
م لاعب
م ابين
لله جرة
للح ج
لل ين
لل مط
لل صحافة
لل زوجة
لل تع
لل تطوير
لل تسجيل
لل تر
لل تحقيق
لل إس
لل أن
لف ريق
لش ؤون
لس وف
لج لب
لإ سرائيل
ل قط
ل شهر
ل رغبات
ل تع
ل الات
كوم ات
كوك يز
كل يل
كث رة
كث افة
كت لندا
كت به
كت بة
كبس ولة
ك فاء
قل ه
قد ان
قاد مة
قا ومة
ق يادية
في ينا
فا ة
ف واكه
ف له
ف انت
غرا في
غ د
عي ان
عض وي
عش ائر
عب اد
ع تبر
ع انة
ع اب
ط ير
ط وني
ضي في
ض غوط
صد ارة
ص يف
شرم وطة
ش نت
سود اء
سم دة
ست ه
سبح انه
سب با
س طيف
زي ون
زوج تي
ز ينة
ز وال
ز ها
روب وت
رض اعة
رائ ية
را فيك
ر مال
دي فيد
دي جيتال
دور اي
دا ى
خي الية
خش بي
خاط ئة
خ اطر
حي وان
حل وى
حل ال
جهاز الكمبيوتر
جن ون
ج مي
ثق يله
ث ث
ث ال
توفر ها
تنت شر
تمث ال
تمت ص
تك فل
تك ز
تق ني
تق م
تفاق م
تف وز
تف كيك
تصدر ها
تس ريحات
تس اء
تز وج
ترفيه ية
ترا حات
تر صد
تر تي
تح صد
تجعل ك
تج ميد
تت راجع
تب سة
تاريخ ي
تأ خير
ت وقيت
ت خطر
ت خدم
ت بعد
بيع ها
بي لي
بي كر
بي ضة
بند قية
بن ين
بم بلغ
بلد ك
بل سم
بكر ك
بق يت
بط انات
بصد د
بس وق
بروفي شنال
بر لم
بج راح
بت كلفة
بالم وجات
بالغ ة
بار ين
بار فيوم
باحث ين
با كات
ب كت
ب قرار
ب فتح
ب عمليات
ب حي
ب الطبع
ب الدم
ب الجامعة
ب ادر
ب أول
اير لندا
اهم ية
انت شرت
ان نا
ام راض
ام تصاص
الي ين
الي اسمينة
اله ام
الن مط
الن ك
المه تم
المنت جة
المك عب
المغار بية
المعد ن
المش غل
المسم ار
المسلسل ات
المست جدات
المس ئول
المز عجة
المرك بة
المر سل
المخت بر
الم كاتب
الم فيدة
الم ذهب
الم ذه
الم اسك
اللوجست ية
اللقاء ات
الكل ور
الك ناري
الك ريات
الك ذب
الق وم
الق صف
الق صدير
الق رض
الفر ح
الف تا
الف ئران
الغر ينية
الغ ين
العمل ي
العط لات
العض وي
العام ه
الع ينات
الع ويقيلة
الع ف
الع طية
الضر ر
الشت وية
الش داد
الش اشات
السيل يكون
الس لكية
الس د
الس ام
الر قص
الر بيعة
الر امة
الر ئاسة
الدولي ين
الدفاع ية
الد ورية
الد راجات
الخط بة
الخام ات
الحوا دث
الحسن ى
الحد ودي
الح ن
الح ريري
الح ديدة
الجنس ين
الجان بي
الج ماع
الج غرافيا
الج سيمات
الج ائحة
الثر وة
التش كيلة
الت لاميذ
الت برع
البوس نة
البر تق
البدي لة
البحر ينية
الب وي
الب اق
الان سانية
الام اكن
الاستر ليني
الاست عمال
الاس ود
الاس ماء
الاحتجاج ية
الإ ضافات
الإ حالة
الإ جمالي
الأنظ ار
الأن ث
الأسبوع ية
الأجن بي
الأ يمن
الأ هل
الأ ني
الأ عداء
الأ ستر
الأ ثري
الآ تية
ال ياء
ال واسعة
اف تح
اف ت
اع دي
اع تراف
اط لب
استعداد ا
استط اعت
است ي
است طلاع
اذ ن
احتف لت
اح ظ
ات بع
اب نها
إنفين يتي
إمد ادات
إش راق
إسرائيل ية
إس قاط
إخ لاء
إ قتصاد
إ بداع
أن اس
أمث ال
أف اد
أغ لى
أش ك
أست طيع
أس عد
أز ق
أ وفر
أ ظهر
آ سي
46 6
35 3
3 29
27 006
22 8
21 8
2 21
199 4
19 89
19 6
18 5
17 7
16 8
13 7
13 4
12 27006
050 1227006
٢٠ ٢٠
يق اع
يعرف ون
يع زي
يع تقل
يطالب ون
يش دد
يش ت
يست عمل
يست بعد
يس أل
يد ور
ياد لة
يا هلال
يا زات
يا جي
ي صح
وي غ
ومن ح
ومست لزمات
ومات يكي
وم راقبة
ولد ت
ول يا
ول ما
وق فت
وق ائية
وط نون
وش باب
وسي اسة
وس فر
ور كوب
ود ار
وخدمات ها
وتش مل
وت طور
وت ضم
وت بادل
وب سيطة
وان واع
والم قيمين
والسيا حة
والت راث
والإ طلاع
وال وقاية
وال غي
وال علاقات
وال بل
واق ف
واق ب
واع تبر
وا يات
وا فضل
وإ لا
وأكثر ها
وأ مطار
و عنوان
و علم
و شروط
و الكترونيات
و السياسة
و ارات
هيل في
هم ات
ه ين
ه را
ه ت
ه الي
نيا هو
ني هات
نق وش
نق لا
نف قة
نع مة
نظ ره
نس خت
نز اع
نت نياهو
ناس ا
نا ع
ن وكيا
ن نسى
ن م
ن ريد
ن حتاج
ميث اق
موث وقة
مو ش
مك المات
مك اسب
مك ائن
مفاج ئ
معنا ها
معا ينة
مع يار
مطالب ات
مطاب خ
مض ى
مض مون
مصري ين
مص نف
مش اهير
مس كن
مركز ية
مراج ع
مرا عاة
مد اخلة
مخ يم
محف ظة
مت طورة
مب ارات
ما دوراي
مؤك دا
مؤقت ة
مؤ س
مؤ ثرة
م لل
م علمي
م برا
ليم ون
لي و
لم ق
لم علومات
لم بة
للم كتب
للاس ف
للأس هم
لل نجاح
لل علاج
لل تحالف
لل تح
لل اطلاع
لرغبات ي
لج ماعة
لت وظيف
لت خفيف
لت أسيس
ل وم
ل وزير
ل منتجات
ل عمليات
ل صحة
ل تشجيع
ل ار
كي ان
كون ه
كرب لاء
كار نات
كار د
كات و
كا فيه
ك غ
ك ذ
قدم ه
ق نات
في هي
في فا
فلسطين ية
فض ائية
فص ائل
فس وف
فر حان
فات نة
ف تحت
ف اده
غ صب
غ ش
غ الي
عن يف
عمل ك
عم الة
عش بة
عد وان
عاش وراء
طوان ية
ط لي
ضر وري
صوم عة
صل حة
صح تك
ص قر
ص الة
شي وعا
شي عة
ش وق
ش أ
سين اريو
سيم ونز
سكر تير
سكان ها
سري عا
ست ن
ساهم ت
سام ح
سا ياجي
س ينا
س ندات
زين ث
زجاج ي
ري مة
ره اب
رفض ت
رج لا
رج ات
راص نة
رات به
را وية
را عي
رأ يك
ر ها
ر ن
ر سل
ر خيص
دي ون
دي دي
دون ما
دل اله
دل الة
دائ مة
د ينا
خري جين
حر مان
حر اري
حد اد
حد ات
ح رة
جمع يات
ج غرافيا
ثي وبية
ثلج ية
ثر وة
ث ين
ث يل
توا زن
تها جم
ته ديدات
تن ع
تن صح
تك ثيف
تك ارات
تق ود
تق ريب
تق تل
تف صيل
تف جر
تغ لق
تطلب ات
تص يب
تز داد
تري ليون
تر ون
تر كت
تد ريج
تخ لي
تخ ذ
تح ل
تت واجد
تت مة
ت وصية
ت وحيد
ت وتر
ت مس
ت ذر
ت امر
بي لين
بي ئية
بن طل
بلين كن
بلاست يكية
بل اسر
بق ول
بس مة
برود كاست
بر ه
بج ماعة
بت نا
بت طوير
بالمد فعية
بالر ئاسة
بالت واصل
بال ض
بال شركة
بإ رسال
ب وا
ب مستوى
ب صف
ب ديوان
ب تكوين
ب تعيين
ب برنامج
ب اله
ب المركز
ب القدس
ب ارة
ب أمان
ب أكمل
ايج ى
انج ليزية
ان تصار
ام ها
الير موك
الي وسي
النق ود
النف طي
النشاط ات
الموبايل ات
الموا زنة
المن وفية
المن بر
المن ار
المق برة
المفر وض
المفت اح
المط عم
المص مم
المص ارف
المش اهدة
المستشار ين
المر تفعة
المت كررة
المب ذ
الم ني
الم شرف
الم ري
الكونغ رس
الك نائس
الك فية
الك رات
القي امة
القر ون
الق ير
الق ليلة
الق ضيب
الق بيلة
الفوت وشوب
الفك ري
الف خ
الغ ضب
الغ دير
العنا وين
العقل انية
العش وائي
العبد لي
الع وا
الع رائش
الع باد
الظ لام
الط هي
الصح ون
الص وديوم
الشري كة
الش ابة
السح ابية
الس ور
الس رد
الس ديس
الس خنة
الز يادة
الز لز
الروم اني
الرق بة
الراج حي
الر فع
الذه نية
الدي زل
الدول ى
الد رب
الخص ية
الخز انات
الخري جين
الحكوم ات
الح رير
الح بش
الجه راء
الجز ر
الج نائي
الج رحى
الج راثيم
الج دير
الج الية
الج ائزة
التو ابل
التد ابير
التح ريض
الت مريض
الت غلب
الت أهيل
الت أش
الت آكل
البي طار
البن زين
البل كس
البر هان
الب ورت
الب قع
الب ضائع
الاير انية
الان سحاب
الان تشار
الالم اني
الاشترا كي
الاستخدام ات
الاست ماع
الاس اسي
الاخ وان
الاجتما عى
الإنك ليزية
الإنف اق
الإند ونيسية
الإعداد ات
الإسماع يلي
الإ نقاذ
الإ نش
الإ صدارات
الإ ستر
الإ براهيم
الأف غاني
الأس س
الأرثوذ كس
الأبا ضية
الأ نس
ال وفد
ال اليكتر
ال اجنبية
اق ت
اف ون
اغس طس
اعد ادي
اط باق
است راحة
اس أل
از ان
اخل طي
اتجاه ات
اب دا
ا ود
ا علن
ئ هم
إن قاص
إش ارات
إ ضغط
إ رادة
إ خطار
إ بحث
إ بادة
أهل ية
أن يق
أن قرة
أن فاس
أم كن
ألب اني
أعم اله
أطر وحات
أش جار
أرسل ت
أح زمة
أ لح
أ طباق
أ خصائي
أ حرار
آ باء
96 7
8 50
69 0
50 50
50 4
3 25
24 5
23 3
22 7
21 00
19 96
19 47
19 3
19 2
16 3
ين طبق
ين اقش
يكات ير
يق ات
يعط يك
يع ابية
يشاهد ون
يز ات
يح سم
يت واجد
يت ساءل
ياب اني
ي ظل
وي ؤكد
وم وعد
وم ص
وم شاكل
وم تى
ولي بيا
ول عب
ول ابد
وقص يرة
وقرا طية
وق بول
وق ائع
وغرا فية
وطلب ات
وصي انة
وش ك
وست ات
وس ن
ور سائل
وج ودة
وج وب
وتح ليل
وتح ديات
وب لغ
وب س
والم لابس
والع د
والص يد
والص ابون
والسير اميك
والسلام ة
والج ي
والت لفزي
والتلفزي ونات
والت غليف
والاس منت
والإ ج
وال ية
وال نا
وال علم
وال طرق
وال صح
وال شروط
وال زمالك
وال ديه
وال ثقافية
وال ات
وال آخر
واضح ا
وات يا
وا كت
وإ يران
وأن شطة
وأصبح ت
وأ صول
وأ خرى
و وصل
و وجه
و علي
و خصومات
و الأمان
و الأم
و 6
هيون داى
هيلفي غر
هز يمة
هد وء
ها جر
ه وت
ني بال
نوع ين
نه ام
ننصح ك
نصي حة
نز ير
نا يف
نا فس
نا شئة
ن لاحظ
ن صيب
موك ب
مور دي
موث وق
مو دة
مه ني
مه دي
منظ ور
مند وبية
مناس با
ممل وكة
مما ثلة
ملي ئة
مل ونة
مكان ه
مكاف أة
مقر ر
مقار بة
مف خخة
معالج تها
مع سكر
مع اك
مطلق ا
مص ابا
مش يرة
مسير ته
مست ودعات
مس جات
مس ارات
مد افع
مختلف ه
مخ زون
مخ ازن
مح بي
مح اضر
مج انى
مث له
مث ب
مت أكد
مائ ر
ما زال
مأس اة
م كرم
م كر
م خدرات
م خد
لين ك
لول بية
لو وك
لم شار
لل عروس
لل خطر
لك شف
لغ ز
لح ام
لتح صل
لت زيين
لاس لكية
لادي ش
لإ صلاح
لأصحاب ها
ل ير
ل ورين
ل قطع
ل طلبات
ل شروط
ل رواد
ل خط
ل تشكيل
ل اسيما
ل أعضاء
كوم ان
كش وط
كت ف
كارنات اكا
ك ده
قص ب
قس يمة
قر ع
قر ط
قبل ها
ق قات
فيض انات
في كس
فض ائل
فر ط
فر زات
فج أة
ف كيف
ف أما
غير هم
غي ز
غ وج
غ ادة
عي ب
عليه ما
عل وي
عش وائي
عبد الملك
عائل ته
عائ دا
ع يادة
ع يادات
ع وة
ع وبة
ع مادة
ع طل
ع دي
ع ادية
ظ ور
ظ بي
ط باشير
ط ابع
ض وية
صي في
صنا عي
صغير ه
صد م
شل ال
شفي ق
شف ت
شرا كة
شر عا
شح ذ
شباب ي
شاور ما
شاهد وا
ش وك
ش مل
ش مع
ش غال
ش تى
ش أنها
سيس كو
سي ب
سوري ين
سور س
سم و
سل ية
سقط ت
سري ان
ست يف
ست جرام
س محت
س اف
س ائح
زيد ان
زرا عية
زب دة
ز ويد
ز ج
ري و
ري في
رم سيس
رق مي
رد اس
رب نا
رائ عه
رائ ح
را كم
را شد
رؤ وس
رأي ي
رأ يت
ر وتين
ذه بي
دين ام
دليل ك
دخول ك
د لتا
خدمت ك
خدمات ها
حيات ها
حي وية
حم راء
حل ية
حز م
حر م
حجم ه
ح لى
ح كام
ح اق
جي لا
جه ته
جن ات
جم الك
جعل ت
جر س
ج وب
ث قافي
تيم ية
تي ار
تن مو
تقدم ه
تع ين
تع هد
تع ط
تع تقد
تع ام
تع الج
تصاد م
تص اعد
تشين اي
تس ارع
تز ايد
تحتاج ها
تح ضر
تج ز
تب ويب
تأ هل
ت يد
ت كر
ت سيطر
ت جر
ت اون
بين غ
بي وم
بي ح
بي بات
بن زين
بمق اطعة
بم كة
بكرك وشة
بكال وريا
بك ين
بق وله
بق صف
بع وث
بع ه
بط ول
بط ريق
بري كست
بدور ه
بخ لاف
بح ياة
بح ظر
بجر وح
بتش كيل
بت ونس
بت طبيق
بت ة
بت اع
بالم ائة
بال ولايات
بار ه
باب ل
بأ عمال
ب وني
ب مجموعة
ب راءة
ب تح
ب المنتدى
ب التق
ب الإنترنت
ب ائ
اول اد
انست قرام
اند را
ان يفرار
ان قاص
الهاش مي
النخ بة
النب وى
الن هج
الن قي
الن قص
الن ظم
الن دب
الن حر
الميز ان
المنا خي
المل حد
المكت تب
المك المات
المق بول
المف وض
المف هوم
المف اهيم
المصل حة
المشار كون
المش ورة
المش كلات
المش تبه
المست عمل
المست عرض
المست حيل
المسافر ين
المرز وقي
المر كب
المر ئية
المدف وعة
المخت ارة
المح لة
المتن قل
المؤ هل
الم كون
الم فقود
الم علومة
الم علن
الل باس
الكث يرة
القلي وبية
القض ائي
الق يادي
الق ش
الق ديس
الق بر
الق اطع
الفي درالي
الفل ور
العمر انية
العق ول
العق بة
العب ارة
العام ل
العاج لة
الع يوب
الع طل
الع جلات
الظ اهر
الط ول
الصع وبات
الصد مية
الصار وخ
الص يادين
الص راصير
الص امت
الشرا كة
الش يطان
الش هادات
السي وطي
الس الم
الز هر
الز نك
الز لط
الروح اني
الرمل ية
الربيع ي
الر ك
الر شح
الدف ان
الخض ار
الخبر ات
الخ بيثة
الحكا يات
الحض ارة
الح وامل
الح ذر
الجو هر
الج ور
الج واب
الج مل
الج ليد
الث ع
التف ريق
التف جير
التشكيل ات
التس وية
التر خيص
التج فيف
التبا عد
الت وفيق
الت قد
الت قاعد
الت طرف
الت أخير
البط اطس
البر وتوكول
الاه لي
الان تعاش
الام انة
الاعداد ية
الاش تقاق
الا كس
الا زمة
الإس فنج
الإ طلالات
الأك ادية
الأق راص
الأغ ا
الأسبوع ي
الأس اليب
الأر كان
الأح ذية
الأح اديث
الأبن وس
الأ وت
الأ سمدة
الأ داة
الأ خر
الأ جزاء
الآ ونة
ال وفيات
ال والدين
اك د
اق ين
اط ير
اط ب
اشت باكات
اش كال
استخد امنا
اس طوانة
اس تحمام
اد خال
احتف الية
اته امات
ات ر
ابنت ه
ابع اد
اب ك
ائ تلاف
ا وس
ا فيه
إيج ابيات
إنج ليزي
إنج ازات
إست راتيجية
إ عجاب
إ زاء
إ حد
إ ب
أول ويات
أنشئ ت
أن ماط
أم انة
أم امي
ألف اظ
أص لي
أس د
أرسل ان
أد وار
أ يت
أ صناف
أ بلغ
آ يات
57 188
57188 297
45 6
40 7
300 00
30 3
3 26
3 10
29 1
27 5
27 3
26 7
26 1
22 6
20 9
17 4
16 9
16 4
12 6
10 24
05 57188297
٥ ٠
٢ ٧
يون ان
ينت مي
ين ها
ين جح
يم تد
يك ها
يف سر
يف اء
يع ترف
يست عرض
يدي ك
يد ية
يتر تب
يت ولى
يت كلم
يبحث ان
يا ع
ي قد
ي خل
وه بي
ومر كز
وما ذا
وم ما
وم شاهدة
ولن دي
ول دى
وكولات ه
وف و
وظيف ية
وط يقا
وش دد
وسط اء
وس ويت
وس ب
وري فها
ود فع
ود خل
وح ماس
وح سن
وج هي
وتش كيل
وب كل
وان غ
وان خفاض
والمست ندات
والمر ئيات
والم سلم
والس بب
والزن ك
والد ته
والح د
والج سم
والت وثيق
والت مييز
والت خطيط
والاست قرار
وال ولادة
وال قلق
وال فن
وال طب
وال صناعة
وال شرق
وال دول
وال خمس
واري ث
وا حة
وا جهات
وأو ضحت
وأخ يرا
وأ ين
وأ لعاب
وأ ثر
و ون
و كندا
و كن
و الجديدة
و أمريكا
هيل ز
هي كلة
هو ديات
هلا كية
ه واء
ه راء
ه الة
نها ئيات
نقل ه
نش ارة
نش أ
نس مة
نخ بة
نت ج
ناد را
نا يك
نا قة
ن يرو
ن تحمل
مي ها
موظ فين
مودي لات
مو اسي
منص به
منح ك
مكت به
مك ونة
مق ام
مفع مة
مغ زل
معا وية
مع قدة
مظ لات
مصح وبة
مص داقية
مش وار
مسي حي
مسلم ين
مساج د
محل يا
متت الية
متاب عات
مبرا ة
ماس كات
مؤ يد
مؤ من
م مين
م بت
م امة
ليم يتد
لنا دي
لم راقبة
لم ختلف
للم خ
للإ مام
لل ولايات
لل قرآن
لل عبة
لل صح
لل شخص
لل سياحة
لل ذهب
لل حزب
لل تفاصيل
لل تربية
لف حم
لغ وية
لط في
لط الما
لس نوات
لد اء
لت ين
لب ط
لاحظ ت
لا ص
لأن هم
لأ سباب
ل دراسة
ل ؤلؤ
كول ونيا
كنولوج ي
كم ين
كل وني
كر تا
كت ير
كان تي
كات ر
ك ليات
ك اج
قي بات
قند هار
قر وض
ق نب
ق اض
ق ائل
فوت وشوب
فن لندا
فن انات
فص يلة
فر نسية
فد ان
فا كس
ف ط
ف خر
ف ترات
ف أنا
غ زل
غ بار
غ اب
عل انية
عق دة
ع ها
ع سير
ع ذرا
ع ادات
ظ لم
طل با
طاب عات
ضم انات
ض ياء
صور ا
صب غة
ص ص
ص داقة
شري حة
شروط ه
شر عي
ش ون
ش كري
ش فة
ش دد
ش با
ش اة
سي سي
سي ست
سي ج
سل ع
سعر ه
سح اق
سب ه
س وم
س كين
س ائ
س أل
زين ب
زمن ية
رت بة
را ش
ر وحي
ر ار
ذك ارية
ذا ق
ذ يق
ذ كرة
دور ها
دع ونا
دع ت
داع ية
د وم
د وائر
د عاية
د راجة
خلي جية
خلي جي
خض راء
خدمت نا
خار ف
حقوق ي
حف تر
حساب ها
حس اسية
حر ج
ح لاوة
ح لات
ح جارة
ح ادي
جي بة
جي ان
جوم يا
جز ائري
جر ار
جذ ابة
جاما يكا
جا كرتا
ج وني
ج ربت
ثم رة
ثم اري
ثلاث ين
ثالث ا
ث نا
تين و
تي الات
ته دد
تنا قض
تك من
تك ري
تق يم
تق ب
تفع يله
تف كير
تغ ري
تط ل
تط بق
تش يلي
تش ليح
تسوي قية
تست نكر
تس ريع
تز ين
تركي بات
ترا ه
تر مين
تد وين
تحت ضن
تح ذف
تجرب تك
تت وقع
تت خلص
ت مييز
ت له
ت لاحظ
ت كنولوجية
ت ضامن
ت أي
بي ج
بي تش
بو ينت
بو ابات
بمؤخر تها
بل وغ
بل غة
بل ر
بك فاءة
بض عة
بص مة
بريد ج
بري وس
بري دا
بد منهور
بد اعات
بد ائل
بح وز
بح ماية
بح ري
بت ناول
بت غيير
باه ظة
بالن ظر
بالن شاط
بالت ف
بالت زامن
بالاس كندريه
باعتبار ه
بار تفاع
بار اك
با يا
با ول
با ش
بإ زالة
بأ سلوب
ب هدفين
ب مدرسة
ب خدمة
ب جدية
ب تجربة
ب انتظار
ب العضو
ب الطاقة
ب الصورة
ب الدخول
ب إدارة
اور اق
اوت وماتيك
ان در
الوق وف
اله يدروليكي
النق طة
النق ابات
النف قة
الناف ذة
الموس مية
المنش ور
المنت دب
المناق شات
المن صوص
المن جزة
المكس رات
المك ونة
المقا ولات
المق ابلات
المعم اري
المعد ل
المع ادى
المز منة
المرج عية
المر تضى
المح قق
المح تويات
المتح رك
المت وقعة
المت ظاهرين
المت خ
المب للة
المؤتمر ات
المؤ س
الم واريث
الم ماليك
الم مارسات
الم ضاف
الم بنى
الل وحة
الل واتي
الل قب
الل فظ
الكر وميت
الك ورونا
الك ن
الك راهية
الق وائم
الق طر
الفي نيل
الفس يلة
الفرد وس
الف ستان
العمر ية
العم اني
العلاج ات
العث يم
الع طور
الع شرة
الع زلة
الع رق
الصد في
الصاد رات
الص اب
الشداد ين
الش م
السي براني
الس وشي
الس حق
الس بعة
الس امي
الز اهد
الر كاب
الذ نوب
الذ كور
الدي وان
الد راجة
الخص وص
الخش نة
الخ لع
الخ الق
الحقوق ية
الحق ائب
الح فل
الح شوية
الح امل
الح افظ
الجرا فيت
الج وه
الج وع
الثق يل
الث مار
التفاعل ية
التط ليق
التط بيقي
التص عيد
التر ميز
التر شيح
الت وعية
الت وجه
الت عقيم
الت صفية
الت جميع
الت تويج
البي طري
البنت ونيت
البلا ط
البرتغ الية
البر د
البر ج
البحر اني
البار دة
الب ت
الب ان
الب ابون
البابون ج
الانتق الات
الاقليم ية
الاف ريقي
الاست مارة
الاحترا زية
الإمكان يات
الإست فسارات
الإبراهيم ي
الإ فتاء
الإ عمار
الإ حاطة
الأم ام
الأغ لبية
الأس فلت
الأرج ح
الأ ض
الأ جور
ال ولاء
اكست را
اق ير
اق تر
افترا ضية
اغس لي
اع تراض
اط ا
اصط لاح
اش ا
اس رع
اس رائيلي
ارتك اب
احتج از
اح تساب
اج ي
اث يوبيا
اب لت
اب رز
ا يم
ا علم
إم اراتي
إكس سوارات
إست هلاك
إد انة
إخ فاء
إح ياء
إ طلالة
إ تش
أو اني
أنفس نا
أن قذ
أمام ك
ألب وتيل
أصل ية
أش ارت
أش اد
أس طول
أخ لاق
أخ تر
أح واض
أ ينما
أ يا
أ وف
أ مني
أ ضخم
أ زواج
أ ذن
آ د
9 10
500 00
4 40
4 10
37 9
37 6
30 5
28 7
26 2
20 6
18 4
18 1
17 1
15 8
00 2010
٢٠ ١٩
٢ ٢
يون يف
يونيف ورم
ين ظر
ين ص
ين ام
ين ال
ين اس
يل د
يل ان
يف ت
يغ لق
يغ طي
يع اد
يط ير
يص ير
يص لي
يش ترط
يس ير
يس س
يس ا
يري ح
يخ وض
يج ي
يت و
يت جه
يا ز
ي كلف
ي ضر
ي صال
وي وفر
وه دايا
ون وع
ومس حوق
وم جوهرات
ول وازم
وق تك
وفر نسا
وف ون
وع ظ
وش عب
وش ع
وش ارك
وس وريا
وس ر
ور غ
ور انيوم
وخ ارج
وح سب
وجه ها
وجعل ها
وج دة
وتك وين
وتح دث
وت يري
وت وظيف
وت غيير
وت ؤكد
وب ما
وب سيط
وان ه
والمسلم ين
والم غرب
والم د
والكر اسي
والثلاث ون
والتشري عات
والت ه
والت غير
والت غذية
والإن ترنت
والإد ارية
والإ سلام
والإ بداع
والأ كثر
والأ ز
وال وصول
وال لي
وال صيانة
وال رسوم
وال ثانية
وال اقتصاد
وال اخ
وال آلات
وار ز
وات م
وائ ق
وا فر
وإ نتاج
وإ جراءات
وأ ه
وأ حد
وآ لام
و وزير
و عليه
و خصائص
و امر
و اماكن
و الكتابة
و أسماء
و 1
هر وب
هدف ها
هدف ه
هب تك
هار ون
هار اشترا
ه يرة
ه يدر
ه يت
ه ال
ني وك
نق ش
نش أت
ند ى
نخ لة
ن يد
ن موا
ن فت
ن ضيف
ن حت
ميد لت
مي ان
مول ود
موا طنا
مو ذج
مو اسير
مهم ه
مه ند
منس وبي
مناف س
مل امح
مقط وع
مع قول
مع ان
مط لي
مص نعة
مشاهد ه
مست وطنون
مست شعر
مساح يق
مسؤ ولي
مسؤ ولة
مس مى
مس دس
مرت بة
مر ط
مد ام
مخ الفات
مح ول
متخصص ون
مت نوعه
مت فر
مت فا
مت ظاهرين
مبر وك
ما هاراشترا
م وقة
م ظاهر
م ضر
م سلحة
م خططات
م انية
ليز ك
لي خ
للم ملكة
للش مس
للح بر
للاست فادة
للأ جهزة
لل منتجات
لل محافظة
لل عميل
لل سيطرة
لل تن
لل تعاون
لل تشغيل
لل تس
لل تحكم
لل بناء
لل إنسان
لغ اية
لغ از
لس نا
لت غذية
لاعب و
لات فيا
لات حاد
لا يمكن
لا حت
لأ وروبا
لأ عمال
ل وسيا
ل وجود
ل وت
ل محاربة
ل تصل
ل الة
ل إنهاء
كيم يائية
كي وماكس
كون ف
كوب اني
كو ست
كهرب ائيا
كل نا
كس لي
كر ام
كتاب ا
كام له
ك وز
ك حولي
ك الي
قول هم
قف ز
قط اب
قص يده
قص ي
قادر ين
ق ون
ق وارب
ق ريش
ق اطع
فيس ودان
في في
في ح
فلا ديم
فلاديم ير
فرزات شي
فت ى
فت اوى
فت اح
فار وق
فاء ات
ف مثلا
ف اش
غ وبة
غ ربية
عم رة
عل ت
عقد ت
عص ا
عد نان
عد سة
عام لا
عائ شة
ع يني
ع مي
ع فاف
ظ مات
طوا قم
طمئ ن
طل ال
طر فة
ط هر
ط نة
ط فيف
ط اهر
ضح ك
صيا غة
صي حة
صديق ك
صدي قي
صح ك
صار مة
ص مة
ص راحة
ص باغ
ص اص
شي وس
ش ية
ش نق
سوف ت
سري ه
ست عمل
ست اريو
سامس ونغ
سا وي
س ها
س لي
س أقترح
زوار ق
زجاج ة
ز مني
ري ل
رو اسب
رمز ية
رك اب
راك ش
رائ ض
را كة
را فة
را حات
ر وائ
ر حم
ذب حة
ذ راء
دم ير
درا يف
د يرة
د ماغ
د ليلا
خط ارات
خط ئ
خدم ه
خ انه
حول ها
حجر ية
حبي بي
ح لاقة
ح كما
ح سم
ح ذر
ح جري
ح جة
ح بل
ح الته
ج منة
ج دران
ج اني
ث فة
ث اق
توق فت
توت نهام
توا صلي
تنت قل
تنت خب
تناول ت
تن فذ
تعدي لات
تع كس
تع طل
تع املات
تع اف
تص ويت
تش طيب
تس لل
ترحي با
تر ه
تر نيت
تر كب
تر عة
تدريج يا
تحت وى
تح طم
تح ار
تجاه ل
تج اعيد
تتج ه
تت وافق
تأ خر
ت وري
ت ذاكر
ت تق
ت تف
ت تصل
بيل ار
بي وتي
بي دي
بول يمر
بوز يد
بور نو
بق تل
بعث ات
برص اص
برس الة
برا طورية
بر لمان
بر جاء
بح ساب
بان تر
بال ضبط
باح ي
با ز
ب متابعة
ب فعل
ب ضرورة
ب خي
ب تحديث
ب بط
ب انتظام
ب انتخابات
ب الهاتف
ب المستشفى
ب الجديدة
ب الإسكندرية
ب ئ
انت باه
ان وا
ان عاش
ان طلاقا
ان شر
امكان ية
الوق ائية
الوج بة
اله د
النظ ريات
النا عمة
النا شط
الن طق
الموظ ف
الموا جهة
المنت خ
المنا هج
المنا ديل
المقر رة
المق اس
المق ادير
المغ ني
المعم ول
المع ت
المص ممة
المشخص اتى
المست وط
المست قلة
المز اج
المر غوب
المدف وعات
المحام اة
المح طات
المتداول ين
المت نا
الماث لة
المؤ شر
الم وق
الم قدم
الم فاوضات
الم ثق
الم الدي
الم ادية
اللغ ه
اللا زم
الكيل و
الكر كم
الكثير ون
الكتال انية
الك نف
الك فاية
القي ود
القط ارات
القط ار
الق نيطرة
الفتا وى
الف حل
الف ح
الف ائ
الف ا
العنصر ية
العم انية
العار ضية
الطي بي
الط ماطم
الط لاء
الط عن
الط ازجة
الض ريبة
الض رب
الض خمة
الصف حه
الصح راوية
الص ديقة
الشباب ية
الش يف
الش بهات
الش اعرة
الساح رة
الس مو
الس فن
الس رط
الس حرية
الس ائلة
الز احف
الرط بة
الرح اب
الر كبة
الر سل
الذ راع
الدر اما
الد وسري
الد ماء
الخري طة
الخرس انية
الخ صر
الخ رائط
الحي وي
الحار ث
الح واجب
الح فلات
الح راج
الج مارك
الج ارية
الث واب
التن ميل
التلفزي ونية
التك فل
التط عيم
التس امح
التد فق
الت وقعات
الت وثيق
الت وافق
الت م
الت لك
الت دف
البوي ضة
البن غال
البرتق الة
البر وبيوتيك
الب ير
الب وح
الب لو
الب صرية
الب اه
الاست فسار
الاست عراض
الاس طوانة
الاس بق
الاخ تصاص
الاج راءات
الا ية
الا كثر
الإيج ابي
الإعداد ية
الإث يوبي
الإ حساس
الإ بادة
الأكادي مي
الأص غر
الأ قدام
الأ طر
الآ لام
ال ولد
ال وصفة
ال وثيقة
اق صى
اغ تصاب
اضطر اب
اض رة
اصبح ت
اش د
اش تعال
استر خاء
استخدام ا
است نا
است عرض
اسبوع ين
اس يات
اس كتلندا
اس فة
از ل
از داد
ارج و
اخ ستان
احتم الية
احتم ال
احتف ظ
اج ين
اج زاء
اث ول
ائ مين
إم لاء
إج تماع
إ يس
إ كمال
إ قبال
إ غ
ؤ من
أن ثى
أمت ار
أم ون
أق وال
أف ادت
أغ رب
أسر ته
أس طح
أر وى
أد ق
أخ ري
أح لى
أج اب
أ قام
أ ضعاف
أ سلحة
أ جز
أ بن
آخر ون
3 12
29 9
26 8
24 6
24 4
20 7
19 86
19 49
19 48
18 6
16 2
14 7
يمنح ك
يق ترب
يعيش ون
يع يد
يط لع
يش يات
يسعد نا
يست ن
يد عى
يخ سر
يج معنا
يت عدى
يت صفح
ي وفق
ي قي
ي عل
ي بيع
ويل ي
وي قع
وي ضم
وي بلغ
وما ك
وم ميزة
وم قر
وم دير
ولي ذيق
وليذيق كم
وكس ي
وق طر
وق ط
وق رى
وع ودة
وش هادة
وش مال
وست ار
وس ية
وس بق
وزوج ته
وريد بول
ور كس
ود ون
وح زام
وح ذر
وثق افة
وتن في
وتعي ينه
وتط بيق
وتش غيل
وتخ زين
وت وجيه
وت زيد
وت داع
وت تميز
وبي ه
وب ير
وب تر
وان تم
وان تشار
والمن طقة
والمشار كة
والغي ور
والخ وف
والح سابات
والح جاج
والج نسية
والتق ويم
والإد اري
والإ ف
والأ وراق
وال وسائد
وال فضة
وال رد
واب ق
وا غ
وا ضع
وإ عداد
وإ سرائيل
وأشار ت
وأ قوى
وأ ق
وأ علنت
وأ ط
وأ برز
و وز
و ذكرت
و الجامعات
و ابع
هي بة
هرم ونات
ه وي
ه كتار
ه در
نيف ا
نه ضة
نظ ير
نظ ارات
نص ار
نش تري
نس اعد
نان سي
ناط يس
نائ با
نا قش
ن وال
ن ذل
ن حصل
ن تحدث
مين وطيقا
مير اث
ميان مار
مون ت
موقف ه
موض حا
موز عين
موز عة
موت ور
مو كسلي
مكاف ح
مق بول
مف اهيم
مغ ادرة
مع اناة
مع الي
مع ادلة
مط رز
مص ف
مش كله
مست ودع
مساهم ات
مسا كن
مراس لة
محا كاة
مح مية
مح توا
مت نوع
مت فرع
مار يا
م ينا
لنفس ه
لمن يوم
للمح ترفين
للسيد ات
للح جارة
للت غيير
للان ضمام
للأ خبار
لل مطالبة
لل محكمة
لل قلق
لل طلبات
لل شاعر
لل زوج
لل حرارة
لل تنظيف
لل تصميم
لل ام
لل ا
لقط ات
لق مة
لق راءة
لق ات
لف حص
لف اف
لس ن
لح فظ
لح ضور
لت وليد
لت ناول
لبن انية
لاست عادة
لاب ن
لا قي
ل واء
ل فيروس
ل غرفة
ل صيانة
ل شرح
ل تعديل
ل تدريب
ل تجديد
كيل ومتر
كي و
كور نيش
كوا دور
كلاس يكو
كل هم
كل اب
كس ا
كر ين
كر كوك
كت وريا
كان ديد
كار ن
كا ير
كا ثر
ك اد
قنات نا
قط ب
قض ت
قت له
قال يد
ق شر
ق زح
ق اع
في كتوريا
في ستا
في تش
فعل ية
فاعل ية
ف راق
ف اع
غي انا
غس ال
غر امات
غ طي
عود ته
عط ا
عبد الفتاح
ع قيدة
ع شرين
ع ريضة
ع ذاب
ع بايات
طول ه
طبيع يا
ط واحين
ط رب
ط ائلة
ضا عة
ض وابط
ض رة
ض ان
ض احية
صي دة
صنا عه
صل ه
صر ار
ص وب
ص ه
ص لاحيات
ص ريح
ص ام
شهد تها
شعر ك
شب ان
ش وي
ش ورتات
ش جع
ش برا
ش ائر
سيل يكون
سيا حي
سي ان
سه رة
سني كرز
سم ارت
سقوط ه
سان دة
سائق ين
س وني
س طور
س جلات
س افر
زيا ئية
زي ارته
زخر فة
ز وايا
ز ف
ز عم
ز د
ز ائد
ري كة
ري ط
ري سا
روي ال
روم انيا
روبي اليس
ره ط
رفي ع
رش اش
رب ون
رب اعية
رات ب
را ية
را وتر
را ة
ر خص
ر حل
ر جة
ذي ذة
ذ راع
ده ار
دل الات
دف ن
دف تر
دائ ري
د وبي
د دة
خلي د
خصيص ا
خري جي
خ واص
خ ميس
خ الي
حلف اء
حل ها
حكوم ي
حفاظ ا
حساب ي
حدث ت
حد ا
حبي بها
حاسوب ك
حار ا
ح يم
ح يلة
ح بك
ح بات
ح اصل
جوري مج
جوا هر
جمع ت
جماع ه
جز ات
جرا حي
جر حى
جام دة
جاب اد
ج ورة
ج ودي
ج فاف
ج راح
ج بت
ثم ين
ثل وج
ثر وات
ث ني
تيب اس
تي ان
تناول ها
تن طلق
تما عية
تم يم
تم ك
تك بير
تق دي
تفا وض
تغ ريدة
تعلي قا
تعرف ها
تع ق
تع ض
تطوير ه
تض رب
تص د
تش تري
تست عمل
تركي بة
تر ويج
تر بط
تد وم
تد ع
تحول ت
تح فيظ
تت غير
تبع ا
ت واليت
ت شرح
ت تناسب
بين نا
بين ات
بير اميدز
بوك يت
بوز يوم
بو ه
بني ويورك
بنا ية
بن يت
بن دق
بم أرب
بغ رض
بط انية
بش ائر
بس جن
بر مج
بر كية
بد فع
بالض فة
بالش فاه
بالج هاز
بال ديوان
باع ية
بار ية
بات ات
با يرن
بإ لغاء
بإ ذن
ب لمسة
ب قرية
ب خر
ب جد
ب تن
ب الي
ب الدولة
ب الحياة
ب الأزهر
ب اف
ب ائع
ب أسماء
اي ين
اني ها
انج ليزى
ان تر
امير ون
اليه ودية
الي وسف
الهر مينوطيقا
الهاش مية
اله ضم
النق ش
النق الة
النخ لة
النا صرة
الن عم
الن انو
الموريت انية
المودي ل
المهتم ين
المند وبية
المنخفض ة
المن شار
المق عد
المع قول
المع جون
المع اهد
المض ادات
المص ن
المش ترين
المش اهير
المس يلة
المز اد
المراه قين
المذه لة
المخروط ة
المخ اوف
المح اضرات
المجم وع
المجتمع ي
المج لات
الماث ل
المؤ ثر
الم ليون
الم لاحظات
الم ظل
الم راقب
الم خد
الم ثير
الم بيدات
الله جة
اللبن انيين
الل ص
الكونف درالي
الكر دي
القن صلية
الق يادية
الق مامة
الق لم
الق ارة
الفي ضانات
الفات حة
الغ ني
الغ ناء
الغ س
الغ ز
الغ اء
العين ين
العظم ى
العط لة
العالم ين
الع نب
الع فش
الع اصي
الطلاب ية
الط يار
الط فلة
الط راز
الصاد ق
الصاب ورة
الص ل
الشيخ وخة
الش ك
السياسي ين
السرير ية
الس وا
الس ندات
الس طور
الس جون
الزن بركية
الز هراء
الري ادية
الرس يفر
الراه ن
الر واتب
الر صد
الدي ون
الدوري ات
الدرب اسية
الد ب
الد اع
الخمس ين
الخض وع
الحل وى
الحس ود
الح زمة
الح بل
الح اكم
الح اصل
الح اد
الجن رال
الجرا حية
الج ناح
الج غرافية
الج روح
الج بال
التناس لية
التن بيهات
التلف از
التفا هم
التعويض ات
التع ذيب
التصميم ات
التشغيل ية
التحر ش
الت وكيل
الت مارين
الت غيرات
الت خص
الت حل
الت أهل
البط رير
البر وستات
الب تروكي
الايط الي
الاه ليه
الام راض
الالتزام ات
الاع تصام
الاص لية
الاسلام يه
الاست يعابية
الاست هلاك
الاست عم
الاست شاري
الاس رائيلية
الاح ترام
الات ه
الائ تلاف
الا ولي
الإف راج
الإست ثمار
الإتص الات
الإبداع ية
الإ قبال
الإ فريقية
الإ خ
الأن فلونزا
الأما زيغية
الأش جار
الأس فل
الأز واج
الأد وار
الأح مد
الأ لكتر
الأ ست
الأ ذ
الأ ديان
الأ جل
الأ ئمة
ال وفاة
ال ضا
ال ريس
ال اضراب
اكس بلور
اك وام
اعتبار ها
اع ف
اع تصام
اص رة
اش تك
است اذ
از دياد
ارس يا
اد ع
اخ ي
اح سن
اح ذر
اح جز
اح بة
اجه زه
اث نان
ابنت ها
ابنت ك
اب عات
ا وم
ئ نا
ئ ته
إيج ار
إن هم
إن ستجرام
إمكان يات
إمت يازات
إل زام
إد اري
إح باط
إ قام
إ ضاف
إ رضاء
إ باحي
أو يل
أو ى
أو منك
أو غندا
أنش أت
أن زل
أمر ه
أل واح
أع ماق
أع طال
أ مطار
أ بابا
آ ه
96 6
5 79
4 60
39 4
27 1
25 7
25 2
24 7
24 3
20 25
19 65
٢٠٢١ م
يوم يات
يهم ك
ين س
يل جأ
يق ونات
يق تصر
يق ام
يصاد ق
يص ط
يس اوي
يز داد
ير كا
ير سل
يحت وى
يتح رك
يت مثل
يت علم
يت شر
يات ر
يا وات
ي ولد
ي لاء
ي تحقق
وير جع
وي عود
ون ق
ون رجو
ومن ظمة
ومان شستر
ومؤ سسات
ومؤ تمر
وم لع
وم رح
وم تحف
ولد ينا
وك يت
وك ثير
وك أنه
وغرب ال
وع ود
وط ب
وض وء
وش كرا
وس ات
ود ري
وحد ها
وح جم
وجود ه
وجاء ت
وج ام
وتق وية
وتق نيات
وتق ارير
وتف اصيل
وتج هيز
وت مكين
وت لك
وت قييم
وت دمير
وت جار
وبي ان
وب دن
والهر سك
والمنا ديل
والمق الات
والمعر وفة
والمعاص ي
والمت وسطة
والم نظ
والم ص
والت وتر
والت عمير
والت أكد
والأ هم
وال يوم
وال ولايات
وال قدمين
وال زيوت
وال رق
وال ربح
وال ذكاء
وال دي
وال دراسة
واعد ادي
واض عة
واس عا
واس اة
وار دات
وا جهزة
وإ ست
وإ ح
وأ لا
وأ ست
وآ له
و وهان
و ولي
و وفق
و وفاة
و وتش
و كلمة
و شركة
و خطوات
و حيث
و استخدامه
و أمراض
هي ج
هم وم
هد فت
ها ئل
ه لام
نوب ل
نه ج
نف عل
نش طاء
نسي ق
نس مع
نس مح
نج ات
نت مكن
ناه ز
ناشط ون
ناس بات
نات ج
ناب لس
ن كار
ن فايات
ميم وري
مي ج
منش ورة
منحد رات
من اق
ملل يمتر
ملخص ات
مقات ل
مفر دات
معرف تها
مع بد
مع ارضة
مط ل
مض ت
مصطلح ات
مصري ه
مص درا
مش هورة
مش هور
مس موح
مرور ك
مرك زي
مرك زة
مر فأ
مر صد
مدر ستي
مختص ة
مح رر
مح تاج
متر و
مباد رات
مب وبة
مؤ ق
م فض
م بيق
م أزق
لي صل
لي ج
لي تم
لن حو
لم واقع
لم جرد
للف نان
لل نسخة
لل مستشفى
لل مجلس
لل مؤسسات
لل قراءة
لل علاقات
لل رجل
لل ثبات
لل تش
لل برنامج
لق واعد
لق انون
لف ض
لغ سل
لع قد
لد ولة
لت كنولوجيا
لان جري
لإ علان
لإ ضافة
لؤلؤ ة
لأن ي
لأ طراف
ل ينة
ل وي
ل قطاع
ل خلق
ل اني
ل انتخابات
كوم يكس
كلام ك
كلاس يكية
كلاس يك
كل وريا
كل مته
كر واتيا
كب وت
كار ل
كا في
ك وي
ك وني
ك واليس
ك كل
ك فاية
ك ائن
ك أن
قط عات
قر ابة
قتي لا
قائ متنا
ق وت
ق اق
في قول
في دي
فلات ر
فل و
فس ر
فار غة
ف وم
ف وار
ف وائده
ف ند
ف م
ف دع
ف جار
ف ارد
غرين تش
غالب ية
غ فر
غ رد
غ انية
عين ه
عي ين
عمل يه
علاق ته
عق يد
عرض ا
عربي ا
ع ينات
ع مته
ع ظم
ظاهر ون
طلا عات
طر أ
ط هي
صيد ليات
صوت ه
صل ح
صغير ا
ص قات
ص راف
ص حن
شعر ت
شع ري
شع اع
شبي هة
شان يل
ش وقي
ش واطئ
سيم بوزيوم
سير اميكا
سيد ني
سن ان
سكا يا
سر ح
سخ ان
سب بها
س نس
س طات
س جون
س احل
زي ارات
زوج ي
زراع تها
ز وني
ز هير
ز عات
ريج يم
رك بات
راج استان
را فية
ر وبر
ر واج
ر امية
ر امي
ذ ائف
دي لات
دي ت
دن ياه
دم وع
دعم ها
دست ورية
در اسية
د وك
د وس
د ش
د جن
د افع
خلا طات
خز ون
خ نيف
خ ا
حي ز
حم الة
حل وه
حق ه
حص ار
حر وب
حا كم
ح راف
ح اله
ح الا
ح افة
ح ارب
جنس يا
جر اب
جار ه
ج زي
ج بن
ج الس
ج اعة
ث يرة
ث لاجة
توض يحي
تهم ك
تهد ئة
ته مة
ته ب
تن بيهات
تمث لة
تما دا
تم هيد
تم رير
تل وث
تك افل
تقييم ك
تقييم ات
تق ام
تفض يلات
تف تتح
تف اقية
تغ ادر
تعرف ه
تعامل ين
تع يد
تع ذر
تع ثر
تض منت
تصميم ها
تشغيل ها
تش ترك
تز ازي
ترك ه
ترب وية
ترا فات
تر وج
تخ يل
تح ض
تح ريف
تجاوز ت
تج تمع
تأ لق
تأ ثر
ت مي
ت مص
ت كلف
بيل ر
بيان ها
بي جو
بوم رداس
بور غ
بنا دي
بن و
بن ما
بم ياه
بل ية
بل دى
بك ستان
بغ ية
بع ا
بط بعات
بش ير
بش يء
بس حب
بس ام
بر وتين
بر قية
بر تبة
بد ول
بد بي
بد ائرة
بد اء
بح كم
بح فظ
بت وجيه
بت خ
بالق انون
بالب ط
بال هيئة
باست ور
باخ تصار
ب ولا
ب وف
ب وجه
ب قدرة
ب صرف
ب شرح
ب بيع
ب بطولة
ب المسجد
ب الكثير
ب الطفل
ب السيارة
ب الز
اي باد
اور ان
اوب را
انس حب
انت ظ
ان يم
ان قل
ان طلقت
ان دية
الي ورانيوم
الي ك
الي زابيث
الوز ارية
الوا ف
الو ئام
اله زيمة
النك اح
النا عم
الن عيم
المير كاتو
الموس يقية
الموث وقة
المنا عي
المكت بية
المقات لين
المقا عد
المغ لقة
المع طيات
المط لع
المط اف
المصطلح ات
المص داقية
المشر ع
المش اع
المسجل ين
المستهلك ين
المرك زة
المر ئي
المد اف
المح ركات
المح رز
المح امل
المح ادثة
المتوا صلة
المت واصل
المت واجدة
المت طلبات
المت زامن
المالدي ف
الما وس
الم وض
الم وحدة
الم فضل
الم دي
الم بعوث
الم أس
الل د
الكونف درالية
الكهر ومغ
الكر ملين
الكثير ين
الك ين
الك ور
الك اميرون
الك افية
الق وارض
الق الب
الق اعة
الفلاح ية
الفق هاء
الفر دي
الف نى
الف لك
الف صحى
الف ساتين
الغ ي
العر ش
العد لي
العب اسية
الع نصري
الع اص
الع اجل
الظ لم
الط ور
الط واحين
الط ار
الط ائ
الض ريبي
الصف وف
الصد ارة
الص واريخ
الص داع
الص بر
الشق راء
الش يعي
الش وفان
الش هور
الش جر
الش اط
الش ائعات
السوشي ال
السل بي
السج ناء
الس وائل
الس نية
الس عة
الس داد
الريف ية
الروم انية
الراه نة
الرؤ يا
الرأسم الية
الر في
الر حمه
الذ ئب
الدول ارات
الد ن
الد مش
الخص يتين
الخ لل
الخ لق
الخ لاف
الخ سائر
الحس اسية
الحس اسة
الجن ود
التوكيل ات
التن فسي
التس وي
الترجي ح
التدف ئة
التحول ات
التحض يرية
التجمع ات
التج سير
التب ويب
التأ ريخ
الت مكين
الت كم
الت سمم
الت سا
الت بادل
الت الى
البل وك
البع ثة
البط اقات
البري دي
الب ولي
الب عيد
الب ذور
الب اك
الب اقي
الان كسار
الامارات ي
الاق تباس
الاعتق اد
الاست جابة
الاخ لاق
الاحتف الات
الاح مر
الا كسسوارات
الا ذا
الا ثار
الإنج يل
الإ غلاق
الإ خت
الأنث وية
الأفق ية
الأش غال
الأخ ذ
الأ هر
الأ مد
الأ ظافر
الأ سب
الآ يفون
ال وليد
ال راف
ال الات
اكت مال
افر ين
اف تها
اعت قلت
اط رة
اص نع
اش ياء
استعم اله
استخدام ات
است اد
اس ط
از يا
از ج
ار يس
اد اء
اخ ري
اخ ذ
احص ائيات
احتف اظ
اح لال
اج انب
اتف اقات
ات منى
ات كم
اب ى
اا ا
ا طة
إير ادات
إي صال
إن س
إن ذار
إن د
إم ارة
إف طار
إصدار ها
إسم ه
إج لاء
إج ازة
إث ارة
إ لين
ؤ ولة
أنا شيد
أن تج
أقيم ت
أغ لبية
أش كرك
أس طورة
أر كان
أجن بي
أج ود
أث ارت
أ ير
أ وجه
أ له
أ قرأ
أ علام
أ ضرب
أ رسنال
أ حر
آثار ا
آ مر
آ مال
6 000
50 99
50 1
5 30
5 100
30 8
3 18
29 2
27 9
27 2
26 4
24 9
20 000
199 1
19 60
18 2
14 49
ين قل
يم ار
يك من
يق ظة
يف رض
يش كر
يست دعي
يس هم
يس مع
يس را
يز و
يرغب ون
يد ويا
يد ها
يحت ل
يح تج
يت ون
يت لق
يبحث ون
يا كل
يؤ من
ي سيطر
ي سلط
ي خدم
وي قدم
وي حقق
ونس كو
ومن اسبة
ومل حق
وم صادر
وم شار
وم دى
وم دة
وم حار
وم جموعة
وم تن
وم بيعات
وم با
ول ك
ول ت
وك افة
وقف وا
وق و
وف ت
وف ايبر
وع قله
وع ضو
وش هد
وس فات
وز يت
وري جن
ورس وله
ور قم
ودر جة
ود ير
ود رة
وج ع
وج اك
وث يين
وث ارات
وتوك اد
وتل ميع
وتق نية
وتع الى
وتش جيع
وتداع ياته
وت وفر
وت دخل
وت تبع
وت أتي
وبي شي
وبدن ه
وب قي
والمنا طق
والم وبايل
والم ناسبات
والم ش
والش ؤون
والر عاية
والد ها
والح ي
والتد بير
والتج ارية
والت نظيم
والان قاذ
والاست ثمار
والإ نجليزية
والإ قليم
والإ حصاء
والأ ردن
والأ حداث
وال ليل
وال لغات
وال قدرة
وال طحن
وال رقم
وال رحلات
وال ذ
وال بناء
واق عي
وار تز
وائ ط
وا عدة
وا حي
وإ رسال
وأن ك
وأرب اب
وأ علن
وأ صحاب
وأ ربع
وأ خبر
وأ بو
وآخر ته
و واجبات
و علماء
و خل
و أكدت
و 4
هي ومن
هي ان
هد ئة
ها ئ
ه ض
نون بر
نقد ا
نف كر
نظ ريات
نشر تنا
نت علم
نت ابع
نان ديز
نا غ
نا در
ن كت
ن عرض
ن صح
ميكان يكي
ميث ية
مي ري
موز مبيق
موج ز
مواط نة
موا هب
مو هبتك
مه ن
منش ور
منتخ بات
منتج عات
منت وجات
من و
من اخ
ممثل ين
مل أ
مك ثف
مك بر
مقات لة
مق برة
مغ امرة
مغ امرات
مع اطف
مط هرات
مض اف
مشر وبات
مشاركت ه
مش ير
مش غ
مست ق
مسب وقة
مسب ح
مساح تها
مساء ا
مركز ا
مرا كش
مرا د
مر وحية
مر تفع
مذه ل
مد اد
مخر جات
مح قق
مح ضر
مح ذوف
متخصص ين
مت ين
مت ي
مت واجد
مت لكات
مت د
مبار كة
ما ه
مؤ هلات
مؤ خرة
م علقة
م علق
م ريح
م راقب
م خطوط
م اسة
ليل ي
ليل ى
لي كم
لي ان
لن هار
للمع اصي
للق بول
للت كنولوجيا
للت عرف
للب كتيريا
لل منتج
لل مشاريع
لل مش
لل مركز
لل فنون
لل عرب
لل جماهير
لل جماعات
لل تق
لل تعبئة
لل تخفيف
لل تأجير
لل التحاق
لل أمراض
لك تاب
لك أس
لق وات
لط الب
لح كومة
لح جم
لج مع
لتف تيح
لت داول
لب حث
لائ م
لائ ع
لا فا
لا صة
لا ش
لا ئي
لإ ظهار
ل وقا
ل ودر
ل وائح
ل مرحلة
ل سيارات
ل سي
ل رجل
ل حن
ل حركة
ل تمويل
ل أفلام
ل أسعار
كور س
كو ستا
كن زات
كف اح
كثير ون
كت ه
كان و
كاس بر
كاري ير
كارن يتين
كار ز
كاتر بيلر
كاب ول
ك ويتي
قيم ته
قف زة
قطع تين
قض بان
ق يا
ق راض
فل ية
فل ور
فعل يا
فض ح
فس هم
فس كي
فر وشات
ف ورية
ف هوم
ف نى
ف لاح
ف تفضل
ف اح
غيز ستان
غل ول
غ وي
غ وتيري
غ اثة
عم لاق
عم ارات
علاق تها
عط ية
عض لات
عص ري
عر ش
عب ان
عاد لة
ع واقب
ع اهرة
ظهور ها
طوني و
طريق ها
طرح ها
طالب ا
ط و
ط لاح
ط ت
ط ازجة
ض باب
صل بة
صفح ه
صد مة
صد ام
صاد م
صاد قة
شي ب
شف ط
شف اه
شعر ية
شروع ات
شاحن ات
ش خ
ش جاع
ش ائع
سي ك
سي حدث
سي ء
سن جار
سمع ة
سم ه
سل ق
سكس يه
سفي ان
سد رة
ستر ول
ستخدم ين
ست ين
ست وديو
ست ظهر
سب انيا
س وز
س ميت
ز غلول
ز س
ريكس وس
ري الا
رق ى
رفي ق
رح اب
رب حية
رب اعي
رائ ي
رائ ها
را ها
ر وشن
ر وبية
ذب ذب
دي ج
د بل
خط ا
خرس انية
خرا ط
خر وجه
خر جات
خ وض
خ الف
خ الص
حي ق
حم ى
حل وة
حقوق ية
حف لة
حصر ى
حبي بة
ح مودة
ح مادة
ح جرة
جوريمج ولات
جميل ه
جمع ات
جز اكم
جان بي
جام عية
ج انات
ثق يف
ث ياتر
تي با
تي ارت
ته ى
تنفيذ ها
تنظ ر
تن ص
تمد د
تما ء
تم ويلا
تم الات
تك رير
تك اك
تقل ين
تقديم ها
تف صل
تغ ذيات
تعرف ت
تعرض ها
تطبيق ه
تط رق
تشكيل ات
تش ديد
تست ثمر
تريد ها
تريد ه
تر فت
تر جع
تر بة
تد وينة
تد هور
تد ت
تخ سر
تحط يم
تح ظى
تح ظر
تح رص
تتح كم
تت ويج
تت سم
تب ون
تاريخ ها
تابع وا
ت وصي
ت خلص
ت خطط
بين ه
بيلار وسيا
بي حة
بوس طن
بن ظر
بن ز
بن بركة
بم كان
بلد نا
بل انكا
بك ميات
بق ع
بط بيعة
بش ري
بس رقة
بر وك
بر باعية
بد لة
بحر ارة
بح جة
بح ار
بتش غيل
بان اس
باناس ونيك
بالن قلة
بالق ص
بالس احل
بالت عاقد
بالإ علان
بال لمس
باس مه
بار دة
باد ئ
ب واقع
ب هي
ب هدم
ب منع
ب مشاهدة
ب مسابقة
ب كلمة
ب فاس
ب صور
ب ذوي
ب خدمات
ب ثلاثة
ب ثلاث
ب تنظيف
ب بني
ب بناء
ب السل
ب الروح
ب الخرطوم
ب الحساب
ب التحديد
اول ى
اوران جاباد
اه ية
اه تم
انست غرام
انت به
امن ئي
الي كانتي
الوق وع
الوع رة
الور اثية
النمسا وي
النج اشي
الن ية
الن ش
الن رجس
الن جمة
الن امية
المه ن
المغ امرة
المعت ادة
المط ب
المصل ين
المصط فى
المص باح
المشترك ين
المستخدم ه
المز ينة
المر وري
المر شح
المر تفع
المر آب
المر ء
المد مجة
المد عومة
المخت لطة
المح اضرة
المت غيرات
المت ضر
المالك ية
المئ وية
المؤقت ة
المؤ امرة
الم وعد
الم واليد
الم موج
الم كلف
الم كل
الم سمى
الم ريحة
الم تص
الم تج
الم از
اللق احات
الكيم يائي
الكوار ث
الكو ثر
الكه ف
الكلاس يكي
الكبري ت
الكاب تن
الك وب
الك مامات
الك روس
الك اثول
القي وين
القر وية
الق لعة
الق ادة
الفي بر
الفقه ية
الفق راء
الفعل ية
الفرا شة
الفار سي
الف لل
الف ائز
الغ لا
الغ زل
العم ومي
العم رة
العل ف
العباد ات
العام ية
الع قيق
الع ربة
الع ثماني
الظ هيرة
الظ اهرة
الطبق ات
الطب عة
الط ل
الضع يف
الض م
الض بط
الصوم ال
الصف قة
الصف راء
الص وفية
الص ب
الش يب
السيا ح
السرط انية
الساح لية
الس مع
الس عد
الس حب
الزلز ال
الز ين
الز ائدة
الر وضة
الر ميثية
الدين ام
الدمش قي
الداخ ليه
الداخ لة
الد عاية
الخ واطر
الخ فيف
الخ امنئي
الحض ري
الحض انة
الحص ص
الحص اد
الح قل
الجمع يات
الجما هيري
الجزائري ين
الجار ديان
الج اذبية
الج ابري
الثع البي
الث ورية
التن بيه
التل مي
التق شير
التش اور
التر فيهي
التد قيق
التد بير
التج ريبية
التأثير ات
الت هم
الت لال
الت كيف
الت غير
الت عاملات
الت صرف
الت بديل
البول ية
البنفس جية
البروج ستان
الب كت
الب طي
الب اشا
الب اسل
الان قسام
الام وال
الالكتر ونيات
الاق امة
الافتتاح ية
الاستر خاء
الاست علام
الاس كان
الار اضي
الاخت راع
الاح ماء
الاح كام
الإنس جام
الإل هي
الإس راع
الإ حتياجات
الإ جراء
الإ ثيوبية
الأول مبياد
الأمع اء
الألب اني
الأكس دة
الأع ياد
الأع صاب
الأس ير
الأس اتذة
الأ وز
الأ مس
الأ لمنيوم
الأ عض
الأ ديب
الأ حرار
الأ حدث
الآ جلة
ال ينا
ال وان
ال ريد
ال آلة
اك يد
اك وا
اك و
اك تر
اق سام
اق دة
اف ران
اغ وا
اغ لب
اع ترفت
اص در
اشتر وا
اشت ية
اش تق
است وديو
است هدفت
است مارة
اسات ذة
اس يت
اس مع
اد وية
اد لب
احتياجات ك
احتجاج ا
اح نا
اح ذية
اج نة
ات ص
اب وق
إنفوج راف
إن ش
إ ه
ؤ نا
أون صة
أور وبية
أن تي
أمبير تو
أك تر
أعم دة
أع رب
أطلق ها
أصد ق
أسر تك
أست را
أسبوع ية
أس ط
أح صل
أح ادية
أ وقية
أ فق
أ عمل
أ طلال
أ جري
أ بسط
آن ذاك
76 7
65 5
60 3
6 26
45 1
44 3
4 65
4 47
4 17
4 08
35 7
35 4
35 00
34 5
30 4
30 2
3 179
3 11
25 4
23 1
199 3
199 0
19 80
19 4
16 7
1500 3179
15 7
05 45
002010 15003179
٢ ٣
يواصل ون
ين اه
يل ى
يل تزم
يل بي
يك اد
يغ ادر
يعيش ها
يع ية
يشت غل
يست غل
يس كن
يس خر
ير كب
يد رات
يخ الف
يحي ط
يتصفح ون
يت بريس
يت ألق
ياد ته
يا ح
ي غير
ي ضيع
ي ضاف
ي حد
ي بد
ويس مح
وي فضل
وي ظهر
وه ين
وه بة
وني خ
وني اني
ون ع
ون ش
ون ست
ون ح
وملع قة
ومحار بة
وم وقف
وم وظف
وم واقع
وم ميز
وم ضم
وم صانع
وم زايا
وم حيط
ول كي
وك ادو
وق انون
وفي ه
وفي س
وفوائد ها
وف رض
وصف ها
وص حة
وش م
وش كل
وش خص
وسي ارات
وس يكون
وس يع
وس هلة
وس بة
وس ائط
وري ين
ور جال
ود انت
وج مال
وج ديد
وتنفي ذ
وتن ميل
وتطوير ها
وتص نيف
وت ونس
وت وصيل
وت ناول
وت قليل
وت شي
وت ات
وبر ين
وبر ن
وبرن امج
وب ول
وب مجرد
والموا طن
والم متلكات
والم لح
والم كان
والم عرفة
والم صر
والم رافق
والق ضاء
والفر ز
والف نية
والع ين
والع برية
والط باعة
والش عب
والد ولي
والج يش
والج ماعة
والت ميز
والت كاليف
والبحر ين
والاب تكار
والإد ارة
والإ نج
والإ صلاح
والإ حسان
والأد وات
وال هواتف
وال قط
وال فرق
وال غير
وال ضغط
وال شبكات
وال رئيس
وال دولة
وال خاص
وال بي
وال اجتماعي
واق تصاد
واع ت
وات يم
وا يلد
وا قية
وا در
وألم انيا
وأف ريقيا
وأع ضاء
وأسعار ها
وأس رع
وأ قل
وأ جزاء
و ورش
و كنت
و الكهرباء
و العملاء
و الأسرة
و ئية
و آلة
هي منة
هي ئات
هم ين
هد ى
ها يتي
ه يدروليكي
ه دي
ه جري
ه اما
نيوك اسل
نيا ك
نقل ها
نق ية
نفس يا
نف وس
نز يف
نخ يل
نت يج
نت و
نب لي
ناس فة
نا وين
ن قيب
ن فاذ
ن أمل
ميكان يكية
ميد انية
ميتس وبيشي
ميت ة
مي ونيخ
مي قا
مي شال
مي ش
مي امي
موس يم
موري شيوس
موا صلات
مهم ته
مناف ذ
من سق
ملابس ك
ملائ مة
مق اسات
مفر وشات
مغ ناطيسي
مع ن
مع جون
مع جزة
مط بوعة
مص ور
مص اريف
مش ت
مش اري
مش ابهة
مست وح
مست ند
مست حيل
مست حدث
مسا عدات
مز ار
مر مرة
مر غوب
مر د
مر آة
مدين تي
مد مرة
مد ق
مد عوم
مد د
مد اخل
مخت لطة
مخ زن
محام ون
مح لل
مح ق
مح بة
مح اول
مح اجنة
مجاني ه
مج هود
مج لات
متوا صلة
متفا وتة
مت وافق
مت قدم
مار ية
ما ز
مؤ هل
مؤ لفين
مؤ كد
مؤ ر
م علوم
م علمين
م ضادة
م راق
م ذهب
م بني
م اب
ليك وبتر
لي ما
لي الي
لمن اطق
لمعلومات ك
لمست خدمي
لم ه
للم وت
للح وثيين
للح مل
للح امل
للج بهة
للت علم
للإست مرار
للإ جابة
للأ عمال
لل وداد
لل نقل
لل نفط
لل منازل
لل متابعة
لل فتيات
لل طلبة
لل سينما
لل زمالك
لل رب
لل دعم
لل خروج
لكت ابة
لك زس
لك اميرا
لق يت
لق وى
لق تل
لف لي
لع ق
لص ق
لش غل
لس هولة
لدي كم
لج بهة
لت نا
لت تبع
لان ك
لا كوست
لا زالة
لا حة
لإح ياء
لإ ست
ل نتائج
ل منتدى
ل محاولة
ل عملائها
ل سبب
ل رعاية
ل ذيذ
ل تسويق
ل بي
ل انية
ل انتاج
كي كة
كوا در
كش مير
كريست ال
كري س
كرا يسس
كثير ه
كث ار
كتاب ي
كت ارا
كاير ودار
كادي مي
كاج وال
كا و
كا ث
ك وسيلة
ك عب
ك راه
ك دة
ك حول
قنب لة
قل به
قطيع ه
قط ن
قذ يفة
قار ئ
قاد را
قائ لة
ق يادي
ق مع
ق ارة
في لي
فوري و
فني ين
فق ودة
فر سان
فت يل
فت وى
ف وكو
ف وضى
ف ندقية
ف نا
ف كرية
غير ك
غط ى
غام رة
غ هام
غ ريت
عوا زل
عمل ات
علمت ني
علم يا
عشر ية
عزيز تي
عر س
عدد الزوار
عدد الردود
عاش ور
عات ق
عائ لات
ع ياد
ع فاء
ع صف
ع ريق
ع اليا
ع الج
طمئ نان
طلب ية
طلب ت
طف رة
ط ينة
ضيا فة
ض اح
صح ف
صاد مة
ص يفية
ص هي
ص ت
ص برا
شكل ها
شق ه
شف افة
شر ه
شر ك
ش حنة
ش بين
سيم ون
سيف ورا
سوس يداد
سو يا
سه يل
سنت يمتر
سما حة
سليم اني
سل وى
سك ويت
سف ارة
سري عه
سد اسيات
ست حق
سب ور
سب به
سب ائك
س ورات
س ارع
زر تي
زجاج ات
ز يرو
ز ود
ز هر
ز ت
ز ايدة
ري كا
ري را
رم زي
رط وبة
رض يع
رض وان
رس التك
رائ ف
را يز
را يا
را قة
ر ماد
ر عد
ر الف
ذ وبان
ذ وب
دي ور
دور ى
دور ته
دوا وين
در ويش
در اسي
دخ لك
دات ا
دا وود
دا هم
دا دي
د هر
د لو
د ريم
د راج
د ال
خنيف رة
خش ية
خر ق
ختلف ة
خب يرة
خ وفا
حي ض
حول ك
حقوق هم
حق ول
حف ارة
حر مة
حر فا
حديث ي
حدوث ها
حا وية
ح ينا
ح اجه
ح ائط
جين ز
جل دية
جسد ك
جز ئيا
جر م
جام عي
ج وانا
ج واد
توس ع
تور ط
تو اريخ
تنفي ذه
تنا زلي
تن طبق
تمكن ك
تمت از
تم يل
تم ري
تلفزي ونية
تلت زم
تك ليف
تك اب
تقلي دية
تق لل
تف ند
تع قيد
تع ترف
تط ابق
تصنيف ات
تص دي
تش يد
تش تت
تش ا
تست فيد
تساء ل
تس هم
تس امة
تس ال
تر س
تر تدي
تر بين
تح فظ
تح بط
تجعل ه
تجز ئة
تج ب
تج از
تت علم
تت ابع
تت أكد
تبا كات
تابل وه
تا ثير
ت ولى
ت ذكير
ت امة
بي لية
بور ن
بو هة
بو ما
بنغ لاديش
بم وضوع
بم راكش
بلاد هم
بل ماضي
بل ق
بك ري
بق اعة
بغ ى
بع يون
بع ضا
بض ائع
بشر ية
بس ه
بزاز ها
بري دة
برلم اني
بر ق
بر فق
بر ر
بر اند
بدي لا
بج ازان
بام كان
بالم لل
بالم علومات
بالت د
باس يل
بار ا
بات باع
بأ رب
ب وتس
ب محرك
ب كتابة
ب قلب
ب ضع
ب صحة
ب رائحة
ب حد
ب جنوب
ب جم
ب القطيف
ب القطاع
ب الخبر
اي دي
انع كاس
اند لع
انتشار ا
اليمن يين
الي ونسكو
الي قين
الي اس
الوز اري
الور شة
الوب ائية
الوب ائي
الها ئلة
اله ولندي
اله بوط
النق ابية
النظ رة
النص ب
النسي ان
النس ائي
النا جم
الن خل
الن اموس
المي ثاق
الموا عيد
الموا طنة
المنس وجات
المن ط
المن صات
المن ح
الممت عة
المقبول ين
المفر وضة
المغ ناطيسية
المطلع ين
المط لب
المص ممين
المص ادقة
المص ابة
المسيحي ين
المسل ح
المسر حي
المست قل
المسافر ون
المس جلة
المس اس
المز روعة
المراس لة
المرا عي
المد ون
المخت برات
المخ زن
المح رق
المح تل
المجه ول
المجر مين
المج زرة
المث مر
المتر جم
المتخ ذة
المت بقية
الماس نجر
الم هد
الم كلفة
الم زام
الم ختار
الم تعاملين
اللائ حة
اللا ذ
الل ط
الكس اره
الكار ثة
الك افي
القير وان
القض ارف
القض اة
القص ير
القرن فل
القد ير
الق سرية
الق رب
الق راءات
الفي فا
الفي زا
الفلور سبار
الفلس فه
الف طريات
الف اي
الف اخر
الغ زو
الغ اية
العم وم
العلاج ية
العق وبة
العص ابات
العام لات
العالم يه
الع صلة
الع ذراء
الع جلة
الع افية
الضي وف
الصيد ليات
الصي غ
الص مود
الص لاحية
الص فات
الص عود
الص بار
الشي وعي
الشف افية
الشري ك
الشر ط
الش عار
الش رائية
الش اى
الش اور
الش ائع
السوا حل
السل يمة
السج ادة
الزائر ين
الرح ال
الرج بي
الر ول
الر ض
الديم وقراطية
الد وام
الد ش
الد سوق
الد ائر
الخط ورة
الخط وبة
الخر دة
الخ مر
الخ شاب
الخ رج
الخ تام
الحل بي
الحض ارات
الحص ري
الحج از
الحج اب
الحالي ين
الح نبلي
الح ميم
الح رائق
الجير ى
الجل الة
الجديد ه
الجاه لية
الج وا
الج نايات
الج مر
الث راء
التنا فس
التقويم ية
التف اف
التع ريفات
التركي بات
التخ ميد
التحر ك
التح ية
التج ديد
التأش يرة
الت وفير
الت وبة
الت كامل
الت كاثر
البن زرتي
البطرير ك
البر مج
الباط ن
الباز لاء
الب يرة
الب لي
الب اري
الانف جار
الاف ريقية
الاص د
الاس ماك
الاز هر
الار هاب
الار شيف
الاد اري
الاحتجاج ات
الاح ص
الات حادي
الا كاديمية
الا على
الإنت خابات
الإد ارات
الإحت لال
الإ ناث
الإ شهاد
الأول وية
الأمريكي ين
الأف ريقي
الأغ اني
الأح لام
الأ غسال
الأ جيال
الأ جر
الأ بد
الآ خرة
ال واح
ال واجبات
ال راقية
ال اهداف
ال التحاق
ال ابن
اكي اس
اف كار
اف تراض
اع ه
اع جاب
اص طنا
اص ابات
اش وف
اسي ين
اسي وط
استعمال ها
استعداد ات
است مرت
است فد
است ضاف
اس ف
اس ا
اري وهات
ارض يات
ارج اع
اخت يارات
اخت تمت
احن ات
احترا ق
اح وال
اتي كان
ات ة
ابل ود
اب تك
ا يك
ا أل
إيج ابي
إي بار
إن شا
إن زال
إله ام
إل زامية
إد مان
إد ريس
إحص اءات
إح ضار
إج را
أون يتبريس
أول ياء
أو ريسا
أن ور
أن دورا
أم م
أك واب
أق راط
أع طى
أع ج
أض واء
أص بت
أسبوع ي
أرض ي
أراضي ها
أجن دة
أجل ه
أثر ت
أب راج
أب جدية
أ مة
أ فعال
أ ضيفي
أ رجاء
أ ديب
أ جانب
أ تباع
967 22
910 165
910165 71
900 1
9 74
6 20
58386 189
58386 176
49 0
47 0
46 4
4 32
37 5
34 6
33 3
3 32
3 21
3 16
29 8
26 00
25 1
22 9
21 7
2020 م
2 24
19 85
19 84
19 78
19 67
19 66
17 2
05 91016571
٨ ٠
يني و
ينت شر
ين كر
ين زح
ين تقل
ين بع
يم د
يل حق
يقدم ون
يق تح
يقتح مون
يق اظ
يف ضح
يعرف ها
يط انية
يصل ح
يصاد ف
يص لك
يش تمل
يست لزم
يست فيد
يس لم
ير حب
يخص ك
يح وي
يح ظر
يح سن
يج لس
يت يل
يت واصل
يت صرف
يت زوج
ياوات شا
يا هو
يا ها
ي وصل
ي ضيف
ي ال
ي أمل
ي أمر
وين تهي
ويم بات
ويمبات ور
وي ساعد
وي حظر
وي ؤ
وه يدرات
وه ن
ونت يجة
ومن ظمات
ومق اطع
ومبيعات ها
وم يس
وم مثلي
وم قاب
وم شروبات
وم دن
ولي ه
ول هم
ول ذا
وكل ام
وكان وا
وق لة
وق ضايا
وفي رة
وف قدان
وف عل
وف حص
وغ واي
وعروض ها
وظ في
وط ه
وض وئية
وض غط
وصول ها
وص ورة
وص فت
وشر ك
وش و
وسا طة
وس ين
وس عة
وس ريع
وز وار
وز نك
ور عا
ور اس
ود ليل
وحقوق ك
وح ول
وح ضور
وح ذف
وجد وا
وج يش
وج هاء
وج نوب
وثلاث ة
وتوك ولات
وتر تيب
وتحويل ه
وتح ديث
وت يرة
وت عرض
وت سمى
وت ساعد
وت ذكر
وت بدأ
وبي ا
وب هذه
وب هذا
وب لا
وب ال
وب ارك
وان صراف
والن صف
والم ملكة
والم عارضة
والم الية
والك تب
والس عادة
والز واج
والر خام
والد جاج
والخ ضر
والح كومة
والح قيقة
والتق ارير
والتف كير
والت عامل
والت زام
والإ كسسوارات
والإ قتصاد
والأخ لاق
والأ ج
وال وثائق
وال نز
وال فساد
وال علمية
وال صد
وال رسائل
وال رجال
وال برد
وال بخاخ
وال اختف
وال آن
واست عادة
واحد ه
وات فورد
وائ ه
وإ عطاء
وأس هل
وأ حيانا
وأ حمد
وأ حدث
و وقع
و وثائق
و كت
و علاوة
و الكتاب
و الحلويات
و الأسهم
و الأسعار
و استخدامها
و 3
هيت اشي
هي ك
هي ثم
هون داي
هو ست
هد ار
هان وير
هار فارد
هاتف ية
ني كل
نوا ة
نكر س
نع يم
نظ مة
نش لة
نسب ه
نس بيا
نت يني
نادي ه
نا طق
ن فع
ن ضمن
ن ث
ميم ي
ميل ر
مي لا
مي شيل
موق فا
موت ه
موبايل ات
موان ئ
موا قيت
منه جية
منق وش
منطق تك
منتج ك
منت ظم
من دا
ملي ء
مل ق
مل عق
مل اب
مكان ها
مقد ونيا
مق ترحات
مع قد
مع تدلة
مع ت
مع برة
مع بر
مع اهم
مض يفا
مص د
مص ادرة
مشروع ك
مشتري اتك
مشاركت ها
مش تر
مش ة
مستق بلا
مست قرة
مست دامة
مست خد
مساعد تك
مساح ه
مس فر
مس طحة
مز خر
مز ج
مز اعم
مرط بات
مرض ات
مر فق
مر سيد
مرسيد س
مدق قي
مد نية
مد قق
محفوظ ه
محاس ن
مح صول
مح رز
مح اور
مت وقع
مت عا
مباشر ه
مب كر
مب اني
مان سيرا
ماك ين
مار غريت
ماد ري
ما زالت
م وطن
م ورو
م مثلا
م لاك
م كرر
م عدة
م بية
م اسية
م اسي
م أكولات
له ة
لن وع
لن ها
لمن اه
لم واد
لم قر
لم سات
لم دير
للمع ادن
للم وظفين
للم وضوع
للق صف
للق اح
للإ صابة
للأ ستاذ
للأ زمة
لل وزارة
لل هوية
لل مقاومة
لل مجموعة
لل كثير
لل كتابة
لل قاء
لل شراء
لل سماح
لل حمام
لل تسويق
لل تحميل
لل بقاء
لل اهتمام
لل اتفاق
لل أندرويد
لل أدوية
لك ونها
لقي ام
لق رية
لق ت
لفض يلة
لع ضوية
لس ه
لد وري
لد ورة
لد اع
لح ملة
لج سم
لتخ زين
لتح ضير
لت زم
لبط ولة
لام ع
لاغ وس
لات ستطيع
لا كتشاف
لا ذ
لأن ك
لأ هل
لأ من
ل وظائف
ل وريال
ل وران
ل نقابة
ل عملاء
ل شد
ل خلط
ل حد
ل جهود
ل التهاب
ل أداء
كي ش
كون ج
كو كت
كم بو
كلا و
كلا هما
كرات شي
كر وز
كتر بلر
كت ين
كت م
كب ريت
كان ية
كان ا
كاف ح
كات بة
ك اليد
قي ع
قي امة
قط عية
قط رة
قد موا
قد مته
قد سات
قب اني
ق اعات
في درالية
فور كس
فلا شة
فعل ها
فصل ها
فريق ك
فران سيسكو
فر وش
فر و
فر جه
فا دي
ف ته
غس ان
غام ضة
غ طة
غ ارسيا
عيش ية
عي دة
عن هما
عمل نا
عم ومية
علاج ات
عل ف
عصر نا
عص بي
عش يق
عس اف
عر ات
عائل ية
عائل تك
ع راقية
ع اه
ع اط
ظ مه
ظ اه
طي ار
ط لة
ضم ير
ضا وي
صيد لية
صر فات
صر خة
صر خ
ص وري
ص ممت
ص افية
شه يد
شمع ون
شق اق
شعب ان
شر فين
شر اب
شت اء
شاب ين
ش يت
ش الي
ش ادية
سي وم
سي اسيا
سود اني
سع ت
سر عات
سحق ت
ستون ر
ست يري
سب ها
سا وث
سا كن
سا دة
س طر
س حرية
س اما
زين يكا
زيت ون
زب اء
زائر نا
ز وما
ز كاة
ريد بول
ريت ريا
ريب وك
ري عة
ري سية
رق ائق
رف قة
رس يفرات
را وات
ر ث
ذكر نا
ذكر ته
ذ كريات
ذ رات
دو ارة
ده ان
دكتور اه
دع نا
دست ور
درا ية
داع يا
دا ك
د لائل
د ارة
خي ري
خلا صة
خر د
خ وري
خ وا
خ لى
خ زن
خ رب
حو ذ
حل و
حر اسة
حت ما
حاض رة
ح اسة
ح اث
جيج ل
جيب وتي
جي بك
جني ها
جم يرا
ج ولي
ج وس
ج هاض
ج نازة
ج لي
ج بريل
ج اكس
ج اس
ث واني
ث واب
تيبا زة
تيا ح
توزيع ات
توا جده
تن وي
تن صيب
تن شط
تن ان
تن اس
تلمي ذ
تل بي
تكوين ية
تك يف
تق شير
تق رأ
تق تحم
تق الي
تفض له
تغط يات
تعق يدا
تع ارض
تطور ا
تط ويل
تصر فات
تص دى
تشهد ها
تشغيل ه
تشت هر
تش بع
تست دعي
تس ديد
ترا ح
تر جمات
تذ وق
تد ير
تد عي
تد ئين
تخل و
تخ ليص
تخ ليد
تخ ريج
تخ بر
تحدث ت
تح ياتي
تح ذيرات
تج لب
تت ناول
تابع ونا
تا يج
تأش يرات
ت كرم
ت جرى
ت تفق
ت اء
بيت يس
بي يض
بوم بيو
بود ونغ
بود ا
بن موسى
بن ج
بمعلومات ها
بما دة
بلاغ ك
بكل مات
بع قد
بش اشة
بش ارع
برنامج نا
برا وي
برا ز
بر وس
بر سم
بر ام
بدع وى
بد ير
بحر كة
بحث ي
بتر قية
بت ين
بت هم
بالق ول
بالغ از
بالت جزئة
بالب صمة
بالاح ساء
بال يدين
بال اسم
بار كيه
بار كود
بار كار
با يون
با ين
با كلوريا
بإ نت
بإ طلالة
بأي دي
بأن هم
ب وظائف
ب وطة
ب معهد
ب معرفة
ب مجال
ب مؤسسة
ب لى
ب كسل
ب كتيريا
ب كة
ب قطر
ب فارق
ب ثلاثية
ب تصريح
ب تحقيق
ب المج
ب اللبن
ب الذكرى
ب الجزائر
ب الاتصال
ب الأمر
ب الأحساء
ب اج
اي ش
انخفض ت
انتح اري
ان ق
ان عدام
ان جاز
ان بعاثات
ام ز
ام تلك
الي خ
الوض وح
الود اع
الوج وه
الوج وب
الوا قي
النق وش
النز هة
النا در
النا جحة
النا ج
الن بطي
المون ديال
الموج ة
المواطن ون
الموا صلات
المهبل ية
المه نيين
الملت قي
المل حق
المق يمين
المق اهي
المفاج ئ
المطر وحة
المط هرات
المص رح
المش كله
المسب بة
المساب ح
المس يل
المر ضية
المر بي
المدخل ات
المخ زنة
المخ الفة
المخ الفات
المحيط ات
المح تر
المح امين
المجاهد ين
المج فف
المت كلم
المت طرف
المت را
المبذ ولة
الماك ينة
الماز وت
المؤمن ون
المؤ هلات
المؤ رخ
المؤ ثرة
الم ولود
الم واسير
الم مر
الم محونة
الم ضم
الم سن
الم بت
الم استر
الم اري
الم أوى
الل يرة
الل ذين
الكي انات
الكون جرس
الكول اجين
الكر وية
الك ونية
الك مال
القي اسي
القر ش
الق مري
الق ماش
الق فز
الق ائل
الفي ن
الفي لسوف
الفني ين
الفلا ش
الفل اسفة
الفص ائل
الفر وانية
الف هم
الف ضي
الف رات
الف رائض
الف اتيكان
الغار ديان
الغ ريبة
الغ ازات
العن كبوت
العص ير
العر قي
العد سات
العام ين
الع يادات
الع شق
الع شر
الع بث
الع ادلة
الع ائلات
الع ائ
الظ واهر
الط مث
الط اهر
الط ا
الض خم
الض باط
الض احية
الض ائع
الصح افيين
الص نف
الص ليب
الص ريحة
الص خرة
الص اح
الشه رة
الشع ارات
الشري ط
الشاور ما
الش وا
الش مع
الش لل
الش قيق
الش باك
الش امي
السير فرات
السوي سرية
السل مي
السكن ي
الس ينية
الس يف
الس ند
الس مات
الس قا
الس ارية
الس ادة
الزع تري
الز يدي
الز خارف
الرومان سية
الرج يم
الرا زق
الر قيقة
الدين ار
الدفاع ي
الدف ء
الدر اسى
الداف ئ
الد رجات
الخلا فة
الخز انة
الخ طي
الخ الص
الخ اطر
الحلق ات
الحر ص
الحبش ة
الح وض
الح نفي
الح كام
الح جري
الح بيبات
الح ارس
الجوه ري
الجم هوري
الج ين
الج واز
الج رح
الج ذور
الج بن
الثواب ت
التنظيم ات
التنسي قية
التن ين
التفا ؤل
التع ديلات
التش فير
التش ابه
التسوي قية
التسعين يات
التخطيط ي
التح كيم
الت هدئة
الت ضخم
الت تبع
البيت ية
البل وتوث
البكال وريا
البط ولات
البروستات ا
البرتغ الي
البرا عم
الب ودرة
الب لج
الب سكويت
الب اد
الب ئر
الان ستغرام
الان تباه
الام ونيا
الالكتر ونى
الاق صى
الاعلام ي
الاعت ذار
الاست يطان
الاره ابي
الاخت لافات
الإيج ابية
الإش راف
الإ لتزام
الإ فرا
الإ ضراب
الأول ويات
الأو امر
الأه الي
الأنا شيد
الأم مي
الأق ليات
الأس ابيع
الأرثوذكس ية
الأ ي
الأ وبرا
الأ عمار
الأ عداد
الأ صناف
الآ بار
ال ولوج
ال اله
اكون ت
اف اد
اعل اف
اعتمد ت
اع ياد
اع مل
اض حك
اض اءة
اص حاب
اشت هرت
اش راف
اش دة
استخدام ك
است فاده
است عمل
است بد
اس عة
ارتك ب
ارتفاع ا
ار ماني
اد ها
احتف الا
اح مر
اح كام
اح به
اج رب
اج دد
اترك ه
ات م
اب ته
ائ جه
ائ تمان
ا قدر
ئ له
ئ ت
إيمان ويل
إنتاج ها
إلي زابيث
إخ تر
إحد اهما
إ يقاع
إ يدي
إ كليل
إ قناع
إ عت
إ طل
إ طارات
إ ضا
إ تفاقية
إ تاحة
ؤ هم
أوز بكستان
أهم ها
أليس يا
أق باط
أغ ن
أعمال ها
أعض ائه
أع ين
أع مر
أع اد
أش د
أست ون
أربع ين
أدر كت
أخبار نا
أحد ها
أب ى
أ وتوكاد
أ كتب
أ قصد
أ علق
أ صحاح
أ دي
أ خرج
أ حتاج
أ بين
آ خ
99 99
99 100
76 78
7 14
7 000
5 80
4 15
37 4
36 00
30 7678
30 6
3 27
3 14
23 6
21 80
20 8
20 23
19 75
19 40
0545 307678
01 128
00 ر
0 14
0 11
٢ ٨
١ ٠٠
يه ود
ين تقد
يم ضي
يكا غو
يق ترح
يفعل ه
يف وتك
يعمل ان
يع كس
يش غل
يست عيد
ير ج
ير تك
يد ان
يد افع
يحتاج ون
يحت اجه
يتحدث ون
يت عل
يت عذر
يت سن
يت جز
يات ها
يا فا
يؤ يد
يؤ ك
يؤ دون
ي وضع
ي طرأ
ي سبق
ي خلق
ي خطر
ي خطئ
ي حن
ي أت
وين يكها
وين ي
ويع تمد
وير د
ويد عم
ويد خل
ويت ميز
وي منع
وي طالب
وي جري
وي تحمل
وه ند
ونياني وز
ون قص
ون ائ
ومن اجم
ومع قم
ومع انيها
ومط احن
ومج تمع
ومتن وعة
وم وسيقى
وم عايير
وم عارض
وم شغ
وم ثل
ول يلة
ول كل
ول غة
ول ديه
وك ه
وقت نا
وق س
وفي ضانات
وف هم
وف ريق
وف اق
وعلوم ه
وع اد
وضع ف
وصول ه
وصل نا
وص ديق
وشي قة
ودر اسة
ود و
وخ ميس
وخ مس
وح ضر
وث وق
وتحويل ها
وت ينات
وت وقف
وت ميز
وت فعيل
وت غذية
وت صدر
وت شير
وت دع
وت تكون
وت ت
وبد أ
وب لد
وب خاصة
وب الإضافة
والمنت ج
والمط احن
والمشار يع
والم هند
والم عايير
والم ساندة
والم جموعات
والك لام
والف كر
والف صول
والدكتور اه
والد وري
والح شرات
والج ماعات
والت كامل
والت رج
والترج مة
والبخاخ ات
والب شرة
والاختف اءات
والاب تعاد
والإسلام ية
والإ علان
والأش خاص
وال نفسية
وال نتيجة
وال فيروسات
وال ظروف
وال طلبات
وال شركة
وال روح
وال راحة
وال دهون
وال خليج
وال خصومات
وال بيع
وال بنية
وال اقتصادي
واق عية
واع تق
واص ات
واست قرار
واست فسارات
وار قام
وار بح
واد م
واب ن
وا ها
وا فت
وا ختيار
وإس ماعيل
وإ كسسوارات
وإ غلاق
وأن ظمة
وأ ولاد
وأ عراض
و وصف
و واشنطن
و وا
و تحتوي
و المحلية
و السيارات
و السعر
و الأولاد
و 7
و 5
هوا ة
هر تز
هج وما
هانوير حلات
ها ش
ه ولي
ه وب
ه وائية
ه نت
ه ك
ه ش
ه زات
ه ذ
نيوزيل ندي
ننت ظر
نموذج ية
نقل ت
نقط تين
نق ف
نف وذ
نف هم
نض ال
نص ت
نش واتي
نش عر
ند ب
نجاح ها
نج وى
نبض ات
ن فا
ن راه
ن بينا
مين ية
مون تي
موسيم اني
موس يقية
مواصفات ها
موا كبة
مه ورية
منع ها
منط قي
منح ه
منادي ل
من ين
من فصل
ممثل ية
ملي ونا
ملتز مة
مل ال
مكت بية
مكان ية
مف عل
مغ ناطيسية
مغ ناطيس
معز زة
معا ونة
مع طيات
مع طف
مط اطي
مط اط
مضاع فة
مض بوطة
مص لح
مشتري ات
مسب وق
مسؤول ون
مس م
مز يل
مر خصة
مر أة
مد وح
مد ح
مخت لفين
مخت ارات
مخت ار
مخ اط
مح و
مح له
مح ظ
مجتمع ات
مثل ها
مثبت ة
مت أثر
مت أث
مان دي
مام از
مال وير
مارين و
ما في
ما عدا
ما جد
مؤر شف
م وط
م وجه
م قطعة
م بينا
لين جول
لينجول تس
لي ط
له جوم
لمناه ضة
لمح ة
لم وضوع
لم ثل
لم بات
للمست ثمرين
للمح جبات
للم وبايل
للع ودة
للص ين
للح كم
للح ديد
للاج ئين
للإ قامة
للإ ش
للأ بحاث
لل نوم
لل نص
لل مواصفات
لل مرضى
لل مدنيين
لل فرق
لل عيش
لل رمل
لل خلايا
لل حمامات
لل حب
لل تقنية
لل تعبير
لل تحقق
لل برميل
لل باحثين
لل أعضاء
لف ية
لف ه
لف ترات
لغ تي
لز راعة
لد ار
لح ظ
لح سن
لج سمك
لج ذب
لتح ديث
لت ونس
لت ست
لت أكيد
لت أجير
لافت ا
لاحظ نا
لا فين
لا عات
لا ز
لإن قاص
لأ سلوب
ل ياقة
ل ولاية
ل وجه
ل مراسل
ل فرع
ل علوم
ل طلبة
ل صندوق
ل شركات
ل جهة
ل تعيين
ل برشلونة
ل أم
كيلو غرام
كن يست
كن تم
كم بوند
كل ميم
كست را
كرت ونة
كر دفان
كث يفة
كتاب تها
كت يب
كت سب
كام ري
كاليد ونيا
كاش ف
كار دي
كار اغوا
كا فيا
كا ذبة
ك ومن
ك وبا
ك حد
ك أنه
قيام ه
قن ديل
قلوب نا
قل يله
قض ى
قر آ
قد ور
قد مي
قبل ه
قال ون
ق سن
ق حبة
ق الى
ق اسية
فير اري
في مكن
في لد
في لة
في ق
في دين
في حة
فلسطيني ين
فلسطين يون
فق رة
فع الا
فس خ
فريد ريش
فران كلين
فرا شة
فر ية
فر عون
فر دات
فان ز
فاض ة
ف فات
ف شار
ف ربما
ف تي
ف ام
غوج ارات
غا زي
غ ون
غ نا
غ رس
غ الية
غ اض
غ اري
عيد ا
عم ولة
عل و
عق دي
عق اري
عر قلة
عدد هم
عبد الكريم
عاد تها
عائ لي
ع ميقة
ع فر
ع جرم
ع المنا
ع ابد
ع ائد
ظ ومة
ظ اهرات
طر ط
طب عة
ط ريقي
ضر م
ضا مني
ض ون
صيد ونيانيوز
صم مه
صف ار
صر ت
صدر ه
صحيح ا
صح راء
صباح ك
صاروخ ية
ص حت
شي وع
شور بة
شري طة
شر عت
شر ار
شاب ه
ش يكاغو
ش وكولاتة
ش فا
ش بوة
ش اق
سير وم
سيت ى
سي ؤدي
سه لا
سنت عرف
سل ين
سل وتر
سك وير
سعد اء
ست قام
ست حصل
ست تمكن
ساح رة
سا ك
س من
زيل ال
زي غي
زم لائ
زع فران
زخر فية
زب ائن
زا وي
ز ور
ز هران
ز ادت
رياض ات
ري فة
ري سي
روبر ت
رك از
رف اق
رر رر
راج عات
رائ ه
را خ
را حت
رأ سي
رأ سم
ر وف
ر وعه
ر كز
ر ئي
ذ وى
دي بة
دور ان
ده س
دل هي
دل ال
در جه
در است
دجن بر
داي ما
داخ لة
دا ديز
د ومين
د هب
د بوس
د ائرية
خلي ك
خل طات
خل دون
خصائص ه
خري ج
خر اب
خد ع
خد اع
خاص ا
خ يم
خ نق
خ نشلة
خ ضع
خ سر
حو ارات
حل بة
حفظ ها
حف رة
حصل وا
ح يف
ح ميد
ح كيم
ح شرة
ح جوز
ح جا
جم الا
جد ير
جار دن
جاج وار
ج يف
ج ويل
ج وار
ج هاد
ج غرافية
ج ذر
ج بة
ثم ينة
ث وان
ث نية
ث ت
توم اس
تنت مي
تنا ز
تن شتاين
تن امي
تمويل ية
تل وين
تك اد
تقل ق
تق ط
تق ات
تفجر ات
تف ادي
تف اج
تف اء
تع ظيم
تع طى
تطور ها
تصميم ه
تص ير
تص نف
تش وف
تش ري
تش ابه
تش اء
تسب بت
تس ود
تس مع
تس ريبات
تس ري
تس أل
تز خر
ترا فية
تر ويح
تر حب
تد ريجي
تحويل ها
تحقيق ه
تح وي
تح ولات
تجعل ها
تجرب ته
تج ويف
تث ال
تت واصل
تت لقى
تت كلم
تت عرف
تبر ز
تؤ هل
تأثير ات
ت يس
ت وص
ت وبي
ت مسك
ت ال
بين ة
بي كون
بي تي
بولي فيا
بود كاست
بل و
بل ال
بكر ات
بك فر
بق ايا
بع دي
بص راحة
بسي دي
بس اط
بري ر
بر وم
بر وبر
بر فع
بر اتب
بدر اسة
بد ورة
بد مشق
بد ليل
بد خول
بخي بة
بخ لاصة
بحث ية
بتد ائي
بت وزيع
بت ط
بت ثبيت
بت تبع
بان كيك
بالم ولد
بالم ثل
بالقص يم
بالع يون
بالع رائش
بالس تية
بالر صاص
بالتق سيط
بالت ع
بالأ رقام
بال بيضاء
بال اعتماد
باد ئة
باح ترافية
بات فاق
با ها
بإ ختيار
بأس طوانة
بأ على
ب وفاة
ب ورتات
ب عنف
ب عل
ب زي
ب تصنيع
ب تحليل
ب المقارنة
ب المجمعة
ب الفرنسية
ب الصين
ب الصد
ب الزواج
ب الرد
ب الحب
ب البنوك
ب الإمارات
ب افتتاح
ب أمراض
ب أفغانستان
ب أسرع
ب أة
ايج ابيات
اه تماما
اه ال
انوا كشوط
انف صال
انست جرام
انس انية
انتق ادات
انتخ ابه
انت ظر
ان قسام
ان جيل
ان جز
امن ية
ام ى
ام ب
الوق فة
الوظ يفية
الوط نى
الوس م
الواف دين
الهد وء
اله دية
اله امش
النمو ذجي
النق از
الند وة
الناج حين
النا ظور
الن ط
الن سل
الن بض
الميد انية
الموز ع
المورد ون
المنش ورات
المنا فق
المنا ظر
المنا ضل
المن صب
المن تحر
الممل كه
الممكن ة
المكر رة
المك ابح
المق ومات
المفت احية
المغني سيوم
المغ تربين
المغ امرات
المعن وية
المع تدلة
المع تاد
المطر وح
المطالب ة
المطاط ية
المطار ق
المط ورة
المط عون
المط اب
المص احبة
المست عمر
المسا همين
المس اح
المز ر
المرا ة
المر و
المر مى
المر تك
المدر س
المخل فات
المخد رة
المخ تر
المحم ود
المحلي ين
المحا كاة
المح رم
المح رر
المجر م
المترا كمة
المتر شحين
المت ابع
المبد عين
الماض يين
الم يكا
الم وكيت
الم وصى
الم عيشية
الم رسوم
الم خطوط
الم خططات
الم جيدة
الم تصل
اللح ظات
اللاذ قية
الل وح
الل بان
الكهرومغ ناطيسي
الكنف درالي
الكم امة
الكريست الية
الكرب لائي
الكت ابية
الكاظ مية
الكات بة
الك نب
الك ميات
القوم ى
القر وي
القر ني
القد مين
القاد مين
القاد سية
القات ل
الق مص
الق عدة
الق طب
الق سري
الق بعة
الق بس
الفوز ان
الفص يلة
الف وسفات
الف ضية
الف اضل
الف اض
الغر يني
الغاز ية
الغ نم
الغ دد
العمر اني
العم لاق
العلا وة
العق اد
العف اسي
العط ش
العسكري ين
العس كر
الع يادة
الع نيف
الع زاء
الع جز
الع تي
الطائف ية
الطائ في
الط وابع
الط ق
الط ازج
الض مير
الض ائعة
الصين يين
الصي غة
الصالح ة
الصاح بي
الص ياد
الص م
الشر م
الشر فاء
الشباب ي
السيا دي
السوي سري
السوري ون
السود انيين
السن ن
السلف ية
السلف اد
السل بيات
السكر ت
الس هلة
الس فلية
الس راج
الس جل
الزخر فية
الزب دة
الز مني
الرش اقة
الرسم ى
الرا غبين
الرا زي
الر م
الر شي
الذ وق
الدف عة
الدع ائية
الد عا
الخ تان
الخ امة
الخ اط
الحي وانية
الحوا جز
الحد س
الح ناء
الح مى
الح ز
الجان بين
الج هادي
الج غرافي
الج ذر
الج احظ
الث يران
الته ديد
التمو ين
التكم يلي
التعليم ى
التص ريحات
التس ربات
التزام ات
التخص صي
التخ يل
التام يل
الت وقيف
الت وصيات
الت وأم
الت مدد
الت قط
الت غليف
الت عرفة
الت صدير
الت زلج
الت خلي
الت اجر
الت ابل
البي ضة
البي تزا
البرلم اني
البرازيل ي
البح راوى
الب قرة
الاه لية
الان هيار
الان خفاض
الان تحار
الاليكتر وني
الاقترا حات
الاعداد ى
الاعداد ات
الاستعراض ات
الاست يراد
الاست غناء
الاست ضافة
الاخت راعات
الاحترا زات
الاح لام
الاح تراف
الاح تباس
الاب اء
الائتم اني
الا وامر
الا كبر
الإم براطورية
الإلكتر ونيات
الإجتما ع
الإث بات
الإ يميل
الإ كوادور
الإ طلاع
الأهر ام
الأن با
الأم ونيا
الأم مية
الأستاذ ة
الأربع ين
الأخ ري
الأح ماض
الأب راج
الأ وعية
الأ صحاب
الأ خص
الأ تراك
الأ بناء
الآ لهة
الآ د
ال وين
ال وح
ال لمس
ال غيرة
ال اضطرابات
اكا و
اقليم ي
اقت ناء
اق ول
اق تك
اق امة
افترا ضي
اف تتح
اف است
اغ لاق
است يعاب
است كشف
است قلال
است غل
است شار
است دار
است ثنائي
است بيان
اس فل
اس فر
از مة
از اى
اري ال
ارد و
ار و
ار ن
اذا عة
اد ب
اد اة
اختف اء
اخت ه
اخت تام
اخت بر
اخبار ي
اخ وات
احتفظ ت
اح تض
اجن بيه
اج يك
اج و
اج ازات
اج از
اتخاذ ها
ات ن
اب يا
اب وري
ائ يل
ائ ما
ا قدم
ا شرح
إنتاج ية
إن عاش
إن ستغرام
إن جاب
إف راز
إع صار
إصاب ته
إد راك
إد خ
إج ابات
إ ين
إ هداء
إ راد
إ ختيار
إ جر
إ تباع
إ بن
أين شتاين
أو صاف
أهل ه
أنش ودة
أن فو
أن د
أن تم
أمي ان
أك ا
أقل ام
أع شاب
أطلق وا
أطر وحة
أط لس
أصبح نا
أش كر
أش به
أسف له
أساس يا
أس يا
أس نان
أر ام
أد ية
أخذ ت
أخبر نا
أح ضر
أح جار
أثر ية
أب وت
أ مد
أ ليف
أ عمار
أ زر
أ رجو
أ جدد
أ بعد
آ رت
99100 4
8 080
79 44
76 8
73 17
63 14
626 25
62625 363
579 4
47 9
47 8
46 2
4 37
4 25
4 22
38 9
38 29
38 1
37 3
36 4
35 6
3 59
3 38
3 35
3 17
28 8
28 00
26 3
24 1
2010 م
2 200
199 2
19 81
19 36
19 20
13 00
12 50
01128 991004
010 62625363
000 1
٤ ٨
يييي يييي
يون يفون
يونيفون ك
ين هي
ين مو
ين بغى
يم ث
يقول ون
يقول ه
يض طر
يص ب
يستن كرون
يست متع
ير بط
يدشن ون
يد مر
يخت تم
يخ فف
يحر ك
يحت مل
يحت في
يحاول ون
يتشر ز
يتجز أ
يت يم
يت وجه
يت كرر
يت راجع
يت انيوم
يان غ
يا فة
ي هو
ي هاجم
ي كروويف
ي صدق
ي بعد
ي أكل
وين بغي
ويل يام
وير ى
وير فع
ويد ات
وي صف
وي بحث
وووووووو وووووووو
وني زيا
ونز ول
ون وعية
ون ك
ون شاط
ون ديال
ون حو
ون جيه
ون تاج
ومي لاد
ومن هم
ومميزات ها
ومقر ها
ومع الجة
ومرح با
وماك ينات
ومؤتمر ات
وم وضوع
وم واساة
وم لف
وم عرف
وم ركبات
وم الي
ولي سترول
ولا ي
وكر امة
وك مة
وك ار
وقو امة
وق يان
وق لت
وفي تش
وف لسطين
وف اته
وغرا في
وغ وري
وغوري تز
وغوريتز كا
وغ البا
وغ از
وغ ا
وعالم ية
وع ناصر
وظيف تها
وط بيعة
وص نع
وست رات
وس هل
وزوج ها
وز ارات
ور شات
وخ بر
وح صل
وح ص
وح رق
وح ديث
وجه ت
وجام عة
وجاك يتات
وج هاز
وث ات
وتين غهام
وتوس يع
وتن شيط
وتق لل
وتع ود
وتأ سيس
وت وريد
وت نا
وت مويل
وت عليق
وت عرف
وت شر
وت سبب
وت ثبيت
وبر مجة
وبا يلي
وب نفي
وبنفي كا
وب نشر
وب عدين
وب ع
وب اقي
وب اص
وب أسعار
وان دا
وام ع
والن حاس
والمع اهد
والمح اسبة
والم واقع
والم ل
والم كاتب
والم صادر
والم شروبات
والم ساعدة
والم دير
والم خزون
والم باني
والف حم
والع ظام
والس كان
والد فع
والخمس ون
والخ واص
والح مد
والح رس
والح ديقة
والج هد
والث قافي
والتص اميم
والت عرف
والت عب
والت را
والاست فادة
والإعلام ية
والإ تص
والأن درويد
والأد بية
والأ نظمة
والأ نشطة
والأ ق
وال يونان
وال وقت
وال هدف
وال هاتف
وال نظام
وال نجاح
وال قدرات
وال فق
وال فتيات
وال ديكور
وال ثالث
وال بيئة
واصل ت
واست مرار
واست غلال
واس بابه
واز نة
واج بة
وات فاق
وات ش
وا كثر
وا صابة
وإ ضافة
وأ عرب
وأ ت
وأ بنا
و وقف
و شرق
و تحتاج
و المحافظات
و الكس
و العاملين
و الجزء
و اسي
و إدلب
هوا يات
هههههههه هههه
هم ه
هد في
هاي برد
هات في
ها ينة
ه ونج
ه ناء
ه انات
ه الشي
نين وى
ني وم
نوا ف
نمت لك
نع ام
نظام ية
نشر ته
نش وز
نش ط
نس بي
نزل ت
ند وات
ند ل
نج ارة
نج ا
نا و
نا هيك
نا دين
نا ج
ن وري
ن وتينغهام
ن كشف
ن قر
ن فى
ن فر
ن حب
ن ترك
ن بيرغ
ن بو
ن ؤكد
مي بلين
موظ فة
موضوع ي
موا فاتك
موا جه
مو بيل
مه ارة
منزل ها
مناس به
من حرف
من بج
مليش يات
ملفات ك
مل حم
مكن ة
مكان ا
مقد مي
مق فل
مق ب
مفي ش
مف ترق
معطر ات
معرض ا
معد ان
مع معنى
مع تبر
مط لقة
مط لب
مط ح
مض امين
مصط في
مصر اتة
مص فاة
مشروع ا
مشر قة
مشر فة
مشاهد ته
مش ين
مستحدث ات
مست قيم
مست دام
مست حقات
مسب قة
مسؤ ولا
مرش حة
مر موقة
مر شد
مر ز
مر ارية
مدي ري
مد اف
محتر فة
مح ط
مح ب
مجهول ون
متاب عي
مت و
مت صرف
مت سا
مت أخرة
مبر ر
مان يا
ماكين زي
ماك ينه
مائ هم
مائ دة
ما غي
ما زن
مؤق تا
م وبايلي
م هيب
م لاحظ
م فقود
م ذك
م خص
م تحدث
لون ها
له ام
لموا كبة
لمن صة
لم هرجان
لم كتب
لم صلحة
لم ص
لم سابقة
للم باريات
للم الكي
للق وانين
للف صول
للش ؤون
للتس امح
للت متع
للت ذكير
للب الغين
للان تقال
للاست مرار
للاست متاع
للأ غذية
لل كتب
لل قطاع
لل سيرفر
لل سوق
لل سلطان
لل سلام
لل سبلة
لل رحلات
لل دورة
لل خريجين
لل جدل
لل جامعات
لل ثورة
لل تنسيق
لل تفاوض
لل تصنيع
لل بلكس
لل اشتراك
لل اخ
لكن نا
لق وا
لق ائه
لع الم
لداع ش
لح بي
لج وء
لتس وية
لام تحان
لاست كمال
لاح ياء
لائ ق
لا فر
لافر وف
لا حتياجات
لإ صدار
لأن ظمة
لأ قل
لأ ست
لأست قبال
لأ بي
ل منطقة
ل مر
ل فيلم
ل فرنسا
ل علم
ل رمل
ل رؤية
ل خطر
ل تنزيل
ل بلكس
ل انتخاب
ل ارتفاع
كيم يتش
كيلو واط
كي ري
كوكت يل
كور ين
كمبو ديا
كلين تون
كلاس يكي
كل ى
كل ون
كل مه
كل بة
كف ريا
كر وزر
كر كي
كث ب
كتاب ك
كاني يه
كاز اخستان
كاردي غان
كار ول
كار اس
كا يمان
ك ويمباتور
ك شوف
ك شاشة
ك ابل
قياس ا
قول ون
قر ون
قدر ته
قت لت
قب ضة
قان ونا
قائ ها
قائ دا
ق مح
ق لي
ق بة
ق الته
ق ادم
فير وز
في كتور
في فاء
فود افون
فل ماذا
فل اس
فض ية
فض ائح
فس يتم
فس ائل
فرا يدي
فخ مة
فإن هم
ف وط
ف وا
ف نس
ف لفل
ف عند
ف خور
ف بعد
ف الأمر
ف أكثر
غلا كسي
غل ط
غش قر
غر ية
غر فتين
غ لاب
غ ستن
غ رائب
عن ات
عملائ ه
عملائ ك
عمار ى
عم ه
علم ات
عل اني
عق لي
عص ية
عص ابات
عش ية
عز عة
عرف ه
عبد المجيد
عبد الحميد
عام ه
ع طف
ع ريض
ع راق
ع تمد
طويل ه
طول ها
طق وس
طفول ته
طبيع تها
طار ئة
ط لائع
ط بل
ط الت
ط الة
ضيف ه
ضو ئية
ضع يفة
ضر ورية
صل صة
صفح ته
صار ى
صار ت
صاب ر
ص يلية
ص ميخ
ص بي
ص ادرة
شيد ية
شى ء
شف افية
شف اع
شر قية
شدد ين
شبا شب
شالي هات
شئ ت
ش مير
ش مانيا
ش كاوي
ش حة
ش جر
سيس ية
سيا ح
سي ظل
سي ساعدك
سور ينام
سود انية
سوا حل
سهل ه
سم وحة
سل وان
سل ندا
سل الة
سك يك
سك يتشرز
سر عان
ستر اليا
ست علن
ست حفظ
سب وليس
سب عين
سب أ
ساب قات
سؤ الك
س وليد
س وسي
س كرية
س دير
س دد
س اسة
س ارية
س ائلة
زر كون
زا منة
ز بد
ز اهر
ز اع
ريح ا
ريج يني
ري مات
ري فل
ري ادية
روب و
رق مك
رق اقة
رفي عة
رصد ت
رشاش اتها
رد ت
رج وع
رب ك
را ى
را غ
را زي
ر ود
ر دي
ر اسل
ذكر ناه
ذر وتها
ذا في
دي زل
ده انات
دست اه
دخول ه
دبلوم اسي
دا ثة
د يني
د ني
د راجات
د امت
خي انة
خي ارك
خص اب
خدم ية
خت بر
خبر ات
خارجي ه
خ واتم
خ ضير
خ بين
حي ى
حوا جز
حمل ت
حم ير
حل وان
حري صة
حراج ات
حدود ها
حام لا
حاس مة
ح وثي
ح ليف
ح ظة
ح ذاء
ح بر
ح اضر
جيان يني
جي وب
جي دي
جون ز
جوري مف
جهود نا
جما هيري
جما دى
جل يا
جعل ك
جس ده
جري ئة
جديد ه
جاه زية
جاكس ون
ج يني
ج يران
ج وة
ج وبا
ج ك
ج ثث
ج بس
ثل ث
ث يوبيا
ث وم
تي وب
تي ز
تي بات
توجيه ات
تهن ئ
تها دات
تنفي ذا
تنسي قات
تن ويع
تن درج
تما عي
تم وين
تم را
تلا حق
تل خيص
تق ليص
تق صف
تق ريرا
تق بة
تف شل
تعرض وا
تعبير ا
تع س
تظ اهرات
تصر خ
تص لح
تص عيد
تص ا
تش ريع
تش تمل
تست ند
تس هر
تركي بها
ترك ى
ترا وح
تر شيح
تر سيخ
تر به
تخت في
تخت تم
تخ فض
تحام يل
تح ي
تح سن
تح ريك
تح رش
تح ته
تح تل
تح اور
تح اليل
تج لس
تج ذب
تج دون
تتح قق
تت ولى
تت نا
تت قدم
تب قي
تام با
ت يلي
ت وطين
ت فرق
ت درج
ت تفوق
ت تفاعل
ت تصدر
ت بدا
ت بد
ت باك
ت انيه
ت امي
بيع ي
بي ساو
بي ز
بي ث
بي تنا
بي اني
بوك ليت
بور صات
بود ن
بنطل ون
بمق اعد
بم مارسة
بك وبا
بق انون
بغ سل
بعد ك
بط ت
بض مان
بص عوبة
بسي وني
بس وت
بري ت
بر وج
بر واز
بر ها
بر ني
بر فض
بر خصة
بر اس
بر ئيس
بدور ها
بد نية
بح زام
بج ولة
بث قة
بت وقيع
بت غطية
ببط ء
بالن سبه
بالمغ امرات
بالمج ان
بالم زيد
بالق تل
بالش راء
بالح فاظ
بالتف اصيل
بالب لد
بال اعشاب
بار تكاب
باخت لاف
باحث ون
باح ات
بات و
بات شي
با يتس
با وند
با كي
با طلاق
با شرت
بإ ست
بأكمل ها
بأ مر
ب وي
ب هل
ب مصلحة
ب مسيرة
ب مست
ب فرض
ب عمود
ب عمق
ب صناعة
ب زيت
ب ريق
ب جده
ب تفاصيل
ب المنتجات
ب المحتوى
ب الكلمة
ب العمر
ب العم
ب الطيران
ب الانترنت
ب الأمن
ب اسعار
ب أكادير
ب أحكام
ايميل ك
اي لا
اهتمام اتك
انش ودة
اند ماج
انتف اضة
انتاج ية
انت قد
انت ا
ان دة
ان تم
ان تصارات
ان ابيب
امز جي
الي هودي
الي ق
الي اسمين
الور ك
الوجه ة
الوجه ات
الواق عية
اله الوين
اله ارد
الني ابي
النط اط
النص ية
النج ف
الناس خ
النا دى
النا جح
الن واة
الن صارى
الن شطة
المنع قد
المنا زعات
المن ظم
المن صور
المن صر
المن حرف
المن حة
المل ون
المكس ور
المقتر ن
المفاج أة
المغ ادرة
المع كرونة
المع اناة
المطاط ي
المط فأ
المص لى
المشاهد ين
المسل مة
المستوط نات
المستخدم ون
المستثمر ون
المست ودع
المسئول ين
المسؤول ون
المزدوج ة
المزام ير
المز ادات
المر صد
المدير ين
المد ونات
المد عوم
المخل وقات
المختص ين
المخ العة
المحافظ ين
المح مية
المح اولات
المح اكمة
المجم دة
المتخصص ين
المتح كم
المت كرر
المت عدد
المت شددين
المت أخرة
المباد ئ
الماض ى
الم ول
الم وضع
الم منوع
الم مالك
الم فس
الم فرق
الم عيار
الم عني
الم ضيف
الم شرق
الم راق
الم ذ
الم دا
الم جهود
الم تمثلة
الم بنية
الم بني
الم انية
الم اني
الم اد
الم أل
اللي شمانيا
الله جات
اللاس لكي
الل اتي
الكوم بيوتر
الكوك ايين
الكلاس يكو
الكرد ستاني
الكر امة
الكث افة
الك ب
القلب ية
القرآ ني
القحط انية
القحط اني
القت الية
الق يد
الق طة
الق راصنة
الق ذافي
الفي ني
الفي صلي
الفي زيائية
الفي حاء
الفوت وغرافية
الفن انات
الفلا حة
الفق هي
الفر وق
الفر عون
الفار ق
الف واصل
الف لكية
الف لات
الف قرات
الف طور
الف طرة
الف اس
الف أر
الغس الة
الغ فران
الغ ائب
العالم ى
العاب رة
الع صب
الع داد
الع بوة
الع باس
الع بادي
الع القة
الع ادات
الط رز
الضم انات
الض عف
الض حك
الصنا عى
الصف ار
الصح افية
الصح افي
الشرم وطة
الشر وع
الشر كه
الشر ع
الش يعية
الش وكولاته
الش ودري
الش وار
الش وائب
الش كاوي
السي يرا
السويد ية
السما عات
السل ط
السل اسل
السكان ية
السعودي ين
السح ري
الس يم
الس معية
الس در
الس اكنة
الس ائبة
الز ميل
الز رع
الز ام
الرياض ات
الري ادة
الرجل ين
الرا صد
الرئيس ى
الر هب
الر موز
الر عاة
الر ضيع
الر شد
الر حيق
الر امية
الدي كتات
الدور ى
الدر عية
الداع مة
الد لافين
الخش بي
الخ تم
الحن طة
الحم ولة
الحم وضة
الحق ن
الحر فية
الح يل
الح فلة
الح جاج
الح بة
الح ا
الجول ان
الجن دي
الجز ائية
الجز ائ
الجز ئية
الجز ئي
الجرا حي
الجذ ع
الج وده
الج راح
الثم انية
الثق افات
الث لاجات
التونسي ين
التن غستن
التعا ونية
التش يكية
التسجيل ات
التس ليح
التس ع
التس رب
التر ند
التر طيب
التر شح
التخ فيضات
التج ريبي
الت عمير
الت صرفات
الت شييد
الت سيير
الت زا
البه ارات
البلوك شين
البتروكي ماويات
الباق ورة
الب نا
الب قر
الب شائر
الب در
الب خار
الب اعة
الب اج
الب ائ
الاه لى
الان س
الامير كي
الامارات ية
الاف طار
الاعتداء ات
الاعتبار ية
الاص ل
الاش جار
الاش تباكات
الاستح واذ
الاسب انية
الاذا عات
الاحتيا طات
الاح تيال
الاج تهاد
الا ي
الإنش اء
الإق تصادي
الإش تراك
الإذا عات
الإ يقاف
الإ ي
الإ طفاء
الإ رجاع
الإ رادة
الإ ذن
الإ ب
الأول مبية
الأور بية
الأما زيغي
الأع طال
الأستر الي
الأخبار ية
الأ واني
الأ وائل
الأ صحاح
الأ سلوب
الآ من
الآ فات
ال ولي
ال وفا
ال رافعة
ال امل
ال الف
ال الت
اكت سب
اق ترح
اف راد
اف راح
اغ واي
اعت ذر
اض ى
اض افية
اص لين
اص لا
اص رين
اش يد
اش غال
اش ط
اسر ار
اس نان
از د
ارش ادات
ارش اد
ارج ع
اذا ة
اد سنس
اد ارية
اخت طاف
اخت ارت
اخ نوش
احي انا
احترا في
اجتمع ت
اجتماع ها
اج ابات
اتر كي
ات بة
ات اسف
اب ور
اب له
اب راج
اب اد
اؤ لات
ا وقفوا
إيف نبيرغ
إير انية
إن ني
إن جيل
إعلام ي
إطلاق ها
إضراب هم
إحص اء
إ عمار
إ عج
إ حداث
إ باد
أوب ل
أه ميتها
أنه ما
أن ظر
أن دية
أمام ه
أم يرة
ألم اني
ألح ان
أق وم
أع شار
أص الة
أص اب
أسترا زينيكا
أس يد
أز مات
أر غب
أد لى
أج ور
أج سام
أث ري
أت خلص
أبي ه
أ يتها
أ وي
أ وم
أ وقف
أ سل
أ ذان
أ خط
أ حيان
آ مل
آ بار
آ ء
7 60
7 136
7136 280
6 80
6 12
5099 6
50 6
49 5
45 8
45 4
40 4
40 2
4 85
4 35
4 23
4 19
39 5
37 8
37 2
34 9
30 7
3 36
3 28
29 4
28 6
25 9
19 61
19 59
19 58
19 52
19 41
13 75
1 شقة
00 2
٩ ٥
٤ ٣
يوني ون
يني كني
يني زيا
ينت و
ين ك
ين سى
ين درج
يمثل ون
يمات يت
يل و
يكتشف ون
يك وس
يك ور
يق ين
يق ذف
يق اطع
يف قد
يف ترض
يع امل
يص لى
يشار كون
يستطيع ون
يست نكر
يست كمل
يست اهل
يس ون
يس عون
يس رق
يز يل
ير وج
ير مي
ير تفع
يدي ولوجيا
يدي ه
يد ينا
يد رك
يخ تص
يجعل نا
يجعل ك
يج لب
يج ذب
يج ا
يت وج
يت فاعل
يت عهد
يت ظاهرون
يت أهل
يب ني
يار يت
يات نا
يؤ لف
ي وري
ي هد
ي ها
ي قلب
ي عم
ي شرب
ي زي
ي خلف
ي بق
ي بعث
ي برد
ي أ
ويست مر
وي كيم
ويكيم يديا
وي عرف
وي طلق
وي صيب
وي سبب
وي تها
وي بدو
وه ية
ونس اج
وند وز
ون فس
ون ف
ون أمل
ومق الات
ومح طات
ومح اولة
ومج ربات
ومج انية
ومبا شرة
وم ك
وم قار
وم عا
وم ساعد
وم خصص
وم تطلبات
وم ترا
وم اني
ول ية
ول لم
ول كم
ول علاج
ول ان
وكس جين
وك مان
وك أن
وقيان وسيا
وق ضاء
وق رر
وق برص
وق امت
وق ائمة
وف ه
وف ض
وف صل
وغ لق
وع مر
وع شرين
وظيف تك
وط بعا
وضع نا
وض عي
وص فية
وص رف
وص الة
وص ار
وشر كائنا
وش به
وسل وك
وست ي
وس ير
وس واء
وس قوط
وس رقة
وز نها
وز ا
وري م
ورد ات
ورج يا
ورؤ ية
ور اح
وذ و
ودير ما
ود روس
وحد د
وح ين
وح ياك
وح مام
وح زب
وج و
وج ز
وج ان
وج اع
وثائ قي
وث اوس
وتعي ين
وت وصية
وت وثيق
وت وبا
وت قرر
وت قاليد
وت طالب
وت سليم
وت جديد
وت توفر
وت ؤ
وت أهيل
وت أكيد
وبر بودا
وبات را
وب خور
وب التعاون
وب ئة
وان ع
والن فاذ
والن صر
والمست قبل
والم يز
والم وضوع
والم وارد
والم ز
والم جلس
والم تابعة
والك فاءة
والك شف
والف وعة
والف واكه
والط ائرات
والس ودان
والس فر
والس رعة
والس ر
والج س
والتف جيرات
والت وصيل
والت عليقات
والت طبيق
والت ضامني
والت حليل
والبل ديات
والان ترنت
والإنس انية
والأف كار
والأ ثاث
وال وسط
وال وجه
وال هوية
وال نقل
وال لون
وال لجنة
وال قرى
وال طلاق
وال صغيرة
وال شخصيات
وال رياضية
وال روايات
وال رش
وال رجل
وال خدمة
وال خامات
وال اكسسوارات
وال اكت
وال اقصى
وال ار
وال اج
واس طى
واز التها
وار تفع
واح ياء
واح تفالات
واتر كيه
وات منى
وا فع
وإ علان
وأف لام
وأ هداف
وأ ص
وأ شهر
وأ خت
وأ حب
وأ ثار
و يرة
و وظائف
و وصلت
و وافق
و عرف
و خلق
و ترك
و العملية
و العربي
و السيطرة
و الحرية
و الأمراض
و الأسود
و 14
هي ه
هون دا
هنت اي
هن ومي
هن ري
هد فة
هانوي فنادق
هانوي جولات
هام ه
هاد ئة
هات ين
ها ك
ها دية
ه ذين
ه جرة
ه اري
نين غ
ني سة
ني س
نه وض
نمو ذجي
نق ض
نظام ك
نظ رت
نص رة
نسي انا
نس ين
نز لاء
نج رة
نج اسة
نت وقع
نت هي
نت عامل
ناد ية
نائ ى
نائ م
نا طة
ن وشي
ن وح
ن وائب
ن نده
ن قي
ن زي
ن حاول
ن جمات
ميل ي
ميل ز
مي بيلين
مون د
موظ فيها
موجود ه
موجود ا
موت يلات
مواطن ون
موا ج
مهد دة
مها جمة
مها جرين
منغ وليا
منع ه
منت وج
منت ظمة
مناز عات
من ية
من فر
ممت لكات
ملاب سات
مل همات
مل كا
مل غ
مكن اس
مكت بي
مك و
مك ثفة
مقب ولة
مقات لين
مق الا
مغ ذيات
مغ ار
مع تز
مع ترف
مع ار
مط بوع
مض يفه
مصالح ة
مص ن
مشر وب
مشاركت ك
مش ابه
مستقبل ات
مست عدة
مست ر
مست خلص
مس اس
مس اره
مرور ا
مرف وض
مرا فق
مر ق
مر غوبة
مر ضية
مر ر
مد مج
مد غشقر
مد عومة
مخطوط ه
مخ ز
محتوا ها
محت مل
مح س
مح بوب
مح اكي
مجموع تين
مج ه
مج نون
مج دد
متوا فقة
مت كرر
مت ق
مت زوج
مت ري
مبارات ه
مان جو
ماش ى
مار تين
ماج يك
مائ ل
ما يك
ما يا
ما شن
مؤ امرة
م ياة
م يا
م ونا
م وقعة
م وفق
م هب
م مدوح
م شرق
م ذبحة
م خلص
م خرج
م بكرة
م بابي
م اله
لين كس
ليم ينغ
لون ه
له جة
له ؤلاء
لنفس ها
لموقع ك
لمست قبل
لم ياه
لم ها
لم راجعة
لم خ
للم كونات
للم راه
للم بادرة
للم الية
للق يادة
للع ائلات
للط ابوق
للصح فيين
للش ام
للح وار
للت وظيف
للت داول
للب ائع
للإ خوان
للأ ديب
لل وقوف
لل نهوض
لل نموذج
لل نبي
لل نادي
لل مواطن
لل مواضيع
لل منطقة
لل منتديات
لل منتخب
لل محرك
لل مؤتمر
لل كسارات
لل قناة
لل قلب
لل فصل
لل فحص
لل عين
لل عقارات
لل عجلات
لل طي
لل طلب
لل ض
لل صفحة
لل سودان
لل ربح
لل را
لل دولار
لل حقوق
لل جهاز
لل تنظيم
لل تطبيق
لل تطبيع
لل بيانات
لل بنين
لل بلا
لل بحوث
لل ايفون
لل ار
لل احتلال
لل إدارة
لكن هم
لق وانين
لق مان
لق ضية
لف ن
لف ائف
لغ تك
لع ضو
لس اعة
لس ات
لج ريدة
لتر طيب
لتح اق
لت يكو
لت قدم
لت ظهر
لت زويد
لت خطي
لبن ة
لب شر
لب ريد
لاين ر
لاه تمام
لان قاص
لاق ت
لاط ون
لاست لام
لإ يجاد
لإ قامة
لإ عداد
لإ بلاغك
لأول ئك
لأن شطة
لأ ية
لأ هم
لأ طول
لأ طفال
لأ ج
ل ونساج
ل ومن
ل وط
ل هيئة
ل هواتف
ل ملفات
ل عملة
ل شيء
ل شركه
ل سياسة
ل تمكين
ل تفسير
ل تجارة
كيل ومترا
كون ت
كوك بة
كوز مو
كور ه
كهرب ا
كن ف
كن زة
كلي وباترا
كل ينيك
كل وريد
كري ت
كر اسي
كت وب
كت بي
كب ديل
كاسبر سكي
كار لوس
كا ظم
ك يني
ك ينا
ك وارتز
ك واحدة
ك هر
ك هدية
ك شركة
ك بد
قل ته
قطع ه
قط ف
قص ه
قد منا
قات لة
قائ ما
قا زيق
ق واص
ق وا
ق و
في نت
في رس
فول تير
فوري فر
فور بس
فه مي
فن انة
فل ذلك
فل ترة
فقه ية
فع ى
فض ول
فس نا
فرض ت
فر حات
فح وصات
فت ة
فت اوي
فات ريد
ف ونية
ف واصل
ف ماذا
ف كري
ف قر
ف ريم
ف اقات
غوتيري ش
غز ير
غر زة
غام ض
غ ين
غ لبية
عند ى
عن ت
علي يف
عل ية
عل ه
عقل ية
عط ى
عض وة
عروس ة
عر ى
عر عرة
عر جان
عد و
عد الة
عج ينة
عتي بة
عب اءة
عا شق
ع يا
ع زي
ع تها
ع باره
ع بادة
ع ارات
ظل ال
ظ هرة
طي ه
طي زي
طم ان
طلب ه
طل وب
طرط وس
طبي بك
طالب ت
طالب ة
ط يني
ط ليق
ط احونه
ط احة
ضو ئيات
ضو ئي
ض فاء
ض طر
ض ده
صنع ها
صاب يح
ص واب
ص مم
ص قة
شي ماء
شه ية
شه اب
شقيق ه
شفاع مرو
شف ش
شفش اون
شراء ك
شارك نا
شار لوت
ش ملت
ش تن
شتن بر
ش بهة
سيل يكات
سيد ات
سي بدأ
سي ارتها
سي ارته
سوس ة
سن وية
سمي كة
سلام ه
سل وفاكيا
سل عة
سل ب
سف رة
سعر ها
ستر ى
ستر لين
ست لة
ست حتاج
سان س
ساعد وني
س كة
س فن
س خة
س بيه
س اسي
س اري
زي ما
ز ير
ز وا
ز مز
ز داد
ز خات
ري هام
رمز يات
رك عة
رصاص ة
رس الها
رس آله
رح يله
راض ى
رائ هم
را كب
رؤ يتها
رؤ يته
ر است
ر أت
ر أة
ذه ان
ذك ى
ذات ي
ذ وات
ذ كري
ذ رية
دي سك
دي ح
دل الية
دفع ت
دفاع ا
در و
دبلوم اسية
داني ال
داخ لك
دا يت
دا ها
د وف
د ودة
د وام
د دا
د بابات
د اس
خيار ا
خي صي
خمس ين
خل فين
خل فه
خل فا
خل طة
خص ر
خر دة
خت ه
خار قة
خ يا
خ نزير
خ ف
خ سار
خ برا
خ امة
خ التي
حوث ية
حن ان
حمل ها
حم الات
حظ ك
حضور ه
حصول ه
حسابات هم
حس نا
حس اء
حز ن
حرب ا
حرار ته
حر في
حدث ة
حجوز ات
حجا زي
حبي بتي
حبي بته
حا ويات
ح وم
ح له
ح ذ
ح تفهم
ح به
ح با
ح اور
ح التين
ح ادة
جوريمف نادق
جو هرية
جهود ها
جه ينة
جن با
جمهور ها
جمع ها
جم هوري
جم اليات
جس يمة
جس دي
جز ائرية
جان بها
جان بك
جان با
جا وب
ج والك
ج واء
ج لا
ج ذا
ج بين
ج اسم
ج ارية
ثلاث ا
ثق ته
ث ية
ث له
ث عبان
ث راء
تيم وثاوس
تي ري
تون سي
توليد و
تواجه ها
تنت هك
تن هي
تن غير
تن ال
تمث يله
تم ور
تم زيق
تلق وا
تل ميع
تل غي
تكييف ات
تقد ما
تق اس
تق ارب
تف ال
تغير ت
تغ زو
تعط ينا
تعر في
تعدي له
تعاون نا
تعا ظم
تع ث
تع ارف
تظ ليل
تطوير ها
تطبيق ها
تض اه
تض اعف
تصنيف ها
تصميم ات
تصفح ك
تش ن
تش ل
تش ك
تش تعل
تش اد
تستخدم ه
تست حوذ
تس كن
تس اؤلات
تز ور
تز رع
تز امن
تراف ورد
ترا كات
تر و
تر عر
تر شح
تر تك
تد اب
تخلي دا
تح يي
تح يا
تح ترم
تجن يد
تجميع ي
تت وافر
تاريخ ه
تؤ من
تأ ملات
تأ تى
ت وني
ت وصف
ت وزع
ت لاعب
ت كلم
ت ضيع
ت شر
ت درس
ت خلق
ت تد
ت بارك
بيع ه
بيع ت
بيري ز
بي ده
بور وسيا
بو كة
بن يران
بن كية
بن ظرة
بم هرجان
بم رافق
بم بادرة
بلي ت
بلا غة
بل عباس
بل طف
بكم بوند
بك ليات
بق وارب
بغ ات
بع زل
بع بارة
بط رح
بط ب
بط ان
بط الة
بص يلات
بشخص ية
بش عر
بش أنها
بز خات
بريدج ستون
بريد ية
بروبر تيز
برنامج ا
برج ال
براوي طه
براند فل
برا عم
برا زيل
بر ماح
بر ش
بر الية
بر أي
بدع وة
بخ مسة
بحوز ته
بحر كات
بح ب
بج واز
بت طوان
بت سليم
بت داول
بب ذل
بان ى
بان فجار
بان د
بامكان ك
بالن ت
بالم ياه
بالم درسة
بالق وانين
بالع يد
بالع ودة
بالس رطان
بالد وين
بالج يش
بالج رعة
بالت عليقات
بالإ ف
بالأ بيض
بال ورود
بال فيروس
بال ضرب
با غة
با شر
بإ نتاج
بإ عداد
بأ ناقة
بأ لف
بأ قصى
بأ زمة
ب وح
ب هدوء
ب مضاعفات
ب محاسبة
ب ماء
ب كات
ب قطاع
ب فصل
ب علم
ب شروط
ب سيارة
ب سلام
ب ساطة
ب ذكاء
ب ذرة
ب تركيا
ب بلد
ب الهواء
ب المواضيع
ب المدارس
ب الكرة
ب الذهب
ب الحقوق
ب التعليم
ب افضل
ب إنهاء
ب أهمية
ايجي بت
اي وان
اي زي
اي خ
اهتمام ك
انها ء
انس داد
انتق الية
ان يليا
ان ما
ان طلق
ان سي
ان تش
ان تج
ام وال
اليون اني
الوظ يف
الوس يلة
الوز ارات
الور قة
الهو ى
الهم م
الها ون
اله ياكل
اله واة
اله روب
النموذج ية
النق ض
النف وس
النظ يفة
النظ يف
النظ ارات
النس يم
النز ول
النز لاء
النح افة
النج مي
النا ز
الن قيب
الن فق
الميد اني
الميد الية
الميت ة
الموس يقي
المنش أ
المن قح
المن شاء
المن حد
المن ارة
المن ابر
الممت دة
الملح قة
المل صق
المكان ة
المكاف أة
المك مل
المقا ولة
المق اربة
المغ دور
المعد ني
المع قدة
المع طي
المط حون
المص احف
المش هور
المست هدف
المست ق
المست فيد
المست حق
المس ير
المس كن
المس طحة
المس ائية
المز من
المراه ق
المراس لات
المرا يا
المر ونة
المر حلية
المر اسم
المدرب ين
المد خ
المخ فية
المخ ضرم
المخ ازن
المحر وقات
المحاس بين
المحاس بي
المح ور
المح لاة
المح اصيل
المج ففة
المج ربة
المتهم ين
المتميز ين
المب تكرة
المب تدئين
المالك ة
المؤ لفات
الم وجهة
الم وب
الم لاعب
الم لاحظة
الم قدر
الم فقودة
الم غير
الم عمارى
الم ضي
الم تف
اللي الي
الل وحية
الل وحي
الكار نيهات
الك واكب
الك نسية
الك نبات
الك ان
الك ارت
الك أس
القرص نة
القر ع
القات لة
الق مع
الق صيدة
الق بة
الق اسية
الفق ار
الفرنسي ين
الفرق ان
الفر ار
الفح وصات
الفج يرة
الفاي سبوك
الفارس ية
الفات ر
الفات ح
الف ندقية
الف خمة
الف اش
الف اسي
الغ واصات
الغ لاف
الغ سول
الغ داء
الغ الية
العم ياء
العم الي
العق لي
العط اء
العص ري
العد اء
العاط فية
العاط في
الع وائق
الع مق
الع فو
الع شب
الع بري
الطلب ية
الطرق ات
الط اعة
الض يق
الض وابط
الصيد لانية
الصهي ونية
الصف ن
الصد مة
الصد فية
الصحف ية
الصح ى
الصح راوى
الص قيع
الص دى
الشق اق
الشري فة
الشرا يين
الش كاوى
الش فتين
الش فاف
الش عبة
الش دادي
الش د
الش توي
الش بكه
الش اذ
السوي دي
السن وسي
السلفاد ور
السع ودى
السح ور
السب اعي
الساق ي
السابق ه
الس ومة
الس لك
الس جلات
الس جدة
الس باق
الزهر اني
الزر كون
الز ينة
الز هرة
الز قازيق
الراف دين
الرائ حة
الرا وي
الر ى
الر وض
الر وديوم
الر وائية
الر و
الر قصة
الر فاه
الر عد
الذ كري
الذ ب
الذ ئاب
الدينام يات
الدي انات
الدول تين
الدن مارك
الدماغ ية
الدل الة
الدسوق ي
الدار سين
الخلي فة
الخ يل
الخ شن
الخ تامي
الحل وة
الحل بة
الحكا ية
الحقوق ي
الحص انة
الحسين ية
الحاج ات
الح ياه
الح ى
الح وسبة
الح واري
الح لف
الح قيبة
الح شرية
الح ش
الح سد
الح بار
الح ام
الح الى
الح اكمة
الجن ون
الجس يمة
الجس دية
الج ولات
الج مالي
الج لب
الج سر
الج بر
الج ادة
الثلاث ين
الث ريا
التنافس ية
التلف ون
التق سيم
التص دي
التشكيل ية
التشكيل ي
التسا ؤل
التس هيل
التس ارع
التد ليك
التد ريسية
التخ بط
التج ويد
التج ديف
التبا ين
الت يتانيوم
الت واب
الت نس
الت ميمي
الت مور
الت كرم
الت قطيع
الت فضل
الت عقيد
الت سلية
الت رق
الت ذكارية
الت ايل
الت ابعين
البي لي
البي عة
البول ندية
البه تان
البص مة
البحث يه
الب نجاب
الب كري
الب قالة
الب عيدة
الب ستان
الب س
الاند ماج
الاند لس
الانج ليزى
الان فاق
الان ترنيت
الال وان
الاكت فاء
الاقترا ض
الاق صر
الاف راد
الاغ تسال
الاع مار
الاص ابات
الاش ياء
الاش كال
الاست يلاء
الاست طلاع
الاست شعار
الاست ثنائي
الاس ي
الاس مدة
الاس ماع
الار ضية
الاختصاص ات
الاخبار ي
الاخ وة
الاخ ضر
الاح ياء
الات هام
الاب تعاد
الا يميل
الا وضاع
الا كسي
الا كتر
الا خطاء
الإنج از
الإنت هاء
الإنت خ
الإن فلونزا
الإن زلاق
الإن ذار
الإسلام يون
الإس رائيل
الإد مان
الإحص ائيات
الإث ارة
الإ عدام
الإ خراج
الإ جرام
الأوس اط
الأنب وب
الأنا قة
الأن ثى
الأمري كى
الأم ية
الأم لاح
الألف ية
الأف غانية
الأف راح
الأغ راض
الأع ظم
الأع زاء
الأع راف
الأض واء
الأصلي ين
الأز منة
الأخ وة
الأ وان
الأ هنومي
الأ مثلة
الأ مثال
الأ ضرار
الآ رامية
ال ول
ال واسع
ال التهاب
ال ابلود
اكس ي
اك واد
اق وي
اق س
اق رب
اق راص
اق را
اف لات
اف ق
اف ته
اف ا
اغ ية
اغ تيالات
اعل انية
اعد ام
اعد ادية
اعتق اله
اع ى
اع تمادا
اع ترف
اع ب
اع اني
اض ية
اض افتها
اصط دام
اشتك ى
اشت هر
اشت غل
اشت علت
استنا دا
است مع
است فاد
است راحات
است دامة
اس وان
اس لوب
اس خن
اري ح
ارتفاع ه
ار م
ار تد
اذ بة
اخت لال
اخبار ية
اخ فاء
احتف اء
اح تل
اجر ام
اج ات
اتخذ ت
ابن ه
ابن ك
اب يه
اب احية
اب احي
ا يقونات
ا يقاف
ا ذكر
ا خطاء
إيدي قب
إن فاق
إن تر
إف تتاح
إصاب تها
إش بيلية
إست طلاعات
إس اءة
إرس اء
إد ارته
إجرا ؤها
إ لتزام
إ لان
إ طلاع
إ ضر
إ صبع
إ ريتريا
إ حساس
إ جمالية
إ برة
ؤ ية
أي هم
أول وية
أول مبياد
أنواع ه
أنه ى
أنتي غوا
أمس ية
أمام ية
أم ينات
أم ه
أم راء
ألي كس
ألق ى
ألب انيا
أك وا
أق صر
أف لاطون
أعض ائنا
أطف النا
أضيف ت
أشك اله
أسفر ت
أسط واني
أس يتيل
أس ئ
أرام كو
أر فق
أد ري
أجري ت
أث ث
أبو ابها
أ وقيانوسيا
أ لك
أ لات
أ صي
أ ذكر
أ بها
أ بحث
آل يا
آخر ها
آ ترك
آ با
99 1
96 287
9 11
8 000
75 7
75 421
7 66
7 40
690 242
66 13
60 6
6 78
6 30
59 0
50996 466
50 8
50 7
50 2
5 65
5 40
47 5
47 4
46 8
45 5
44 4
43 690242
40 3
39 2
38 8
37 1
35 5
35 1
34 4
33 69
326 75421
3 34
29 6
28 2
27 4
22 96287
2180 6613
2017 م
20 50
19 82
19 73
19 71
19 69
19 51
19 45
16 88
16 353
1375 603
055 2296287
055 1375603
05 43690242
05 32675421
05 21806613
009 7
٩ ٩
٦ ٦
٤ ٠
٢٠ ٠
٢ ٤
يوم ه
ينتظر ه
يناه ز
ين يوم
ين جو
ين جرح
يم ت
يل ين
يل ز
يل ج
يك ثر
يقود ها
يقا وم
يق م
يف سد
يعرف وا
يع ثر
يع تذر
يع تد
يص احبه
يش وه
يش عل
يش جع
يش بع
يست يشن
يست هلك
يست هل
يست عملها
يس ود
يس هر
يس م
ير كل
ير قد
ير ض
ير تو
يد ع
يخ لي
يتمتع ون
يتسن ى
يت فوق
يت غلب
يت خذ
يت أثر
ياد تها
ياب انية
يؤ هل
ي وصف
ي ود
ي لاحظ
ي صرف
ي تردد
ويمكن كم
ويق لل
ويت ضمن
وي غيب
وي عين
وي ضيف
وي سمى
وي سعى
وي زيد
وي ري
ونغ وي
ونظ افة
ونس اء
ون يمار
ون قلت
ون ظر
ون دي
ون تس
ون ال
وموا طن
وموا ضيع
ومن اقشة
ومن ازل
ومشغ لي
ومح اضرات
ومت خصصة
وم يني
وم مت
وم مارسة
وم صالح
وم شروع
وم ساعدة
وم خت
وم حمود
وم باد
ولكن ي
ولكن هم
ولف تت
ول بنان
ول احظ
وك يم
وك وب
وك اد
وقل بي
وقرا ها
وقر رت
وق وله
وق ه
وق رية
وق ته
وق الوا
وفي ديوهات
وفع اليات
وفر ص
وغ سل
وع يد
وع وية
وع ون
وع موم
وع ز
وظ هر
وظ ات
وط ريق
وض اء
وصف ته
وص در
وشخص يات
وش عر
وش اشات
وش ار
وسي كل
وست حصل
وست ا
وس يم
وس يادته
وس ى
وس وق
وس وء
وس اخ
وز مان
وز عم
ور وح
ور ضع
ودول ية
ودر اسات
ود ائما
وحص اة
وح ينما
وح ياة
وح ق
وج يز
وج وبا
وثق افية
وتن زيل
وتخ فيضات
وتخ ضع
وتح فيز
وت مكن
وت كشف
وت فسير
وت عليقات
وت ظهر
وت طبق
وت شكل
وت سريعه
وت راث
وت خلي
وت جنب
وت تضمن
وبعض ها
وب سبب
وب ريد
وب حث
وب اريس
وانغ تشو
وان يا
وان تهى
وام ثال
والن سيج
والمنظ مات
والمشار كات
والمست ثمرين
والمح اجر
والمج الس
والم نش
والم لي
والملي ئة
والم عم
والم سلسلات
والق ض
والف كرية
والعد الة
والع نصري
والع ناصر
والصيد لة
والص وم
والص غر
والش وكولاتة
والش قق
والش ت
والس ماح
والس كن
والس كر
والس حق
والس جاد
والرق بة
والر ابع
والد قة
والخضر وات
والخ واطر
والح اضر
والج وال
والج سور
والج رعة
والتق نية
والتعليم ية
والتط بيقات
والتاريخ ية
والت وظيف
والت وجيه
والت هاني
والت نسيق
والت عقيم
والت رب
والب تروكي
والان ج
والاست فسارات
والإ فريقية
والأن فلونزا
والأح ذية
والأ ور
والأ نس
والأ ماكن
والأ ل
والأ خبار
والآ فات
وال يات
وال وفيات
وال وحدة
وال هندسة
وال نيكل
وال نصوص
وال ليمون
وال قطاع
وال قصص
وال قس
وال طريق
وال صورة
وال صر
وال شاعر
وال دفاع
وال خطوات
وال خريجين
وال خاصة
وال بنات
وال بعثات
وال التزام
وال اص
واع تقال
واستر اليا
واست نكار
واست مر
واست متع
واز يع
وارز مية
وار ق
واد وات
واخت تم
وات ير
وات ية
وات خاذ
وا في
وا فذ
وا طلب
وا طف
وا ضغط
وإن نا
وإ قامة
وإ خراج
وأف كار
وأف ادت
وأر سل
وأح كام
وأثر ه
وأت منى
وأ وروبا
وأ ثناء
وأ بحاث
وأ ب
وآخر ون
وآ منة
وآ راء
و وك
و وفر
و وزارة
و وركس
و هب
و هاج
و عليها
و ذوي
و خط
و خامات
و الكسارة
و السعال
و الجامعة
و ابة
و أنواعها
و أكمل
هيا كل
هي زل
هو ان
هري رة
هر وبه
هارد وير
هاد فة
ها كات
ه يفاء
ه يدا
ه ويته
ني كاراغوا
ني خ
نق ود
نق ابية
نعرف ه
نص ه
نشاط ه
نش يد
نسخ ه
نسب ته
ند ين
ند خل
نج يم
نج حت
نت ك
نت ظر
ناف ورة
نائ بة
نا ش
ن وص
ن ورة
ن ط
ن رفض
ن حرص
ن بيه
ن أسف
ميل يشيات
ميل انو
ميج ابايت
موقع ا
موع ظة
موظ فا
موض حة
موا زنة
مو خ
مو ئيل
مها جم
مه لة
منف وش
منتجات ك
منت زه
مناق صة
مناف ع
مناف سيه
مناص ب
مناز لهم
منا ها
من طلق
ممت لئ
ممت ل
مما ثل
ملف ك
ملا ط
ملا ذ
مل زم
مكون اته
مكعب ات
مك مل
مقر ها
مقر رات
مقدم ات
مقد ما
مقار نات
مق ومات
مق ترح
مق ادير
مفر غة
مف لس
مف ك
مطل وبة
مض يف
مص غر
مص ارف
مشكل تك
مشغل ين
مشار ك
مش بوهة
مسح وبه
مست ندات
مست ديرة
مست خدمة
مزيد ا
مرس وم
مرح لات
مرت بات
مرب ى
مراجع تها
مرا يا
مر قس
مر عبة
مر تك
مر اتب
مدي ريات
مده شة
مدني ون
مدف وع
مدرس ية
مد ته
مد اهمة
مخل وق
مخ فية
مخ فض
مح ون
مح كوم
مح ض
مح رج
مح جوز
مح توي
مج مد
مج ز
مج رب
مج ازر
متنقل ه
متفر قات
مترجم ه
مت نز
مت طور
مت ط
مت خ
مب تعث
ماي وت
ماي كرو
مالي ه
ما هية
ما شي
ما زيغية
ما زا
مازا غان
ما جدة
مؤثر ات
مؤ لمة
مؤ لفات
م فضل
م فرق
م جرى
م بنية
م بدا
ليل ونغوي
لي فرك
ليفرك وزن
لن يل
لموقع نا
لمن ظومة
لمن زل
لمق اطعة
لمشار يع
لمشار كة
لما دة
لم ج
لم باريات
للي الي
للم لاط
للق هوة
للق اضي
للص غار
للشام تين
للح ظة
للت وعية
للت و
للت غلب
للبلا يستيشن
للاس تحمام
للإ صلاح
للإ سلام
للأ لم
للأ على
للأ ديبة
للأ حرار
لل وقود
لل مناطق
لل مناسبات
لل ملفات
لل مصرف
لل مشغلين
لل مدرسة
لل مدارس
لل علامة
لل شرب
لل سلف
لل ذهاب
لل خدمة
لل خ
لل جهات
لل جمهور
لل تنقل
لل تصدي
لل ترفيه
لل تبليغ
لل بي
لل أفراد
لل أع
لل آخرين
لك ثير
لك انت
لف هم
لف صل
لغ م
لع بت
لس هم
لد فع
لخ سارة
لحام لي
لح ب
لح اق
لتح ولات
لت قي
لت اريخ
لت أمين
لبن انيين
لبشر تك
لان كية
لاع با
لاس لكي
لار وش
لاء مة
لا وات
لا زل
لإ قليم
لإ بادة
لأ هداف
لأ بناء
لأ ب
ل ينا
ل ونج
ل وشن
ل مليشيا
ل معايير
ل محطم
ل فرق
ل شباب
ل شئون
ل سياسات
ل سيارة
ل سباق
ل زيت
ل زام
ل رش
ل حمه
ل جزيرة
ل جر
ل تدمير
ل بيت
ل برامج
ل أشهر
ل أسر
ل آلات
كيا و
كونف درالي
كومات سو
كور ون
كن ه
كن ج
كم اله
كلام ه
كف الة
كس ة
كرا ش
كر دي
كب ري
كان ر
كات ا
ك ينة
ك يتس
ك ذاب
ك الآتي
قيق ه
قيام ك
قوي ه
قن ابل
قل بات
قل الي
قط ري
قض اة
قص ات
قص اء
قسن طينة
قسم ين
قراء تها
قدرات ه
قدر تها
قد ية
قبل ان
قب عة
قاص رة
قاد ها
قا ولات
ق شت
ق سرية
ق راءات
ق تها
ق بي
فيه ما
فين يل
في وتشر
في ده
في تم
في اض
فلس فية
فل وب
فل ان
فعل ته
فض لة
فصل ت
فس كت
فري ات
فرص تك
فر س
فر دية
فر جين
فر ار
فت تح
فا قد
فا علي
ف ويس
ف هى
ف هر
ف ليب
ف كس
ف قرات
ف علي
ف ذلك
ف حل
ف انا
ف ائض
غي لا
غي ري
غي ابه
غن ام
غام ق
غ وار
غ ف
غ زو
غ ات
غ ائم
عهد ه
عن ابة
عمل وا
علاقات نا
عل ل
عق ارية
عط ايا
عريق ات
عروض ها
عج وز
عج لا
عثر ت
عت بة
عبر ية
عبد الواحد
عام لين
عام ات
عا يض
ع وب
ع كر
ع شاء
ع زام
ع ابر
ع ائم
ظ لات
طي زه
طم وحات
طف ولة
طريق تك
طر نج
طر حت
طح اب
طاق تها
ط ين
ط وبة
ط هاد
ط ريف
ط حين
ط بلون
ط ائ
ضياء التصنيفات
ضل ال
ضع ه
ضع فين
ض ليل
ض حة
صي ه
صوت ا
صنع ت
صل وات
صف حتنا
صر حت
صد اع
ص موئيل
ص ريحة
ص ائب
شين كو
شيا ومي
شي ه
شو كة
شه يرة
شن طة
شل بي
شكل ت
شك لا
شعب نا
شري عة
شري ان
شرائ ها
شرائ ه
شر س
شخص ان
شت غل
شت ائم
شام لا
شارك وا
شا ير
ش يميل
ش يع
ش وط
ش وشة
ش وا
ش ج
ش بيه
ش بك
ش بح
ش اش
سيك وريت
سيس كام
سي جد
سي بي
سي بو
سي ئون
سوسي يداد
سو اريه
سنتر الات
سنتر ال
سنت سلم
سن كون
سن حارب
سما يلات
سم اسرة
سم اس
سلط انة
سل با
سكس ية
سكا ى
سفي را
سرق ت
سر مدا
سجل ه
ستر ن
ست يك
ست يشن
ست ائر
سبع يني
سب ير
سب اك
ساف رت
ساعد نا
سؤ الها
س ودة
س والف
س كرات
س رب
س اسية
زيل اند
زي ارتي
زوج تك
زواج ها
زن جي
زن برك
زميل ه
زمز م
ز عاج
ز رعة
ز بادي
ز اني
ز ائ
ريم وت
ريت والز
روت انا
رواج ا
رمض انية
رق صة
رفع ه
رفض وا
رط بة
رض ى
رب ا
رام ز
راك شنال
راس لنا
راس لات
رات رول
را هم
را فضي
ر وفر
ر عى
ر عا
ر طل
ر دة
ذهب وا
ذرا عين
دينام يكي
ديم يا
دي ين
دي ولا
دي ول
دي ري
دي ار
دوا عي
دوا جن
ده قان
درا هم
در وب
در سا
در ام
دخول ها
داون لود
داف ئ
داخل ها
داخل ه
دا كنة
د مه
د مر
د مت
د ك
خن فر
خضر وات
خصوص يتك
خصوص يات
خص صنا
خرج وا
خبر ك
خات مة
خ يرة
خ ياطة
خ ياط
خ انات
خ اف
خ اد
خ ائف
حي ين
حم ض
حم امة
حكم ها
حكم ه
حقيق ته
حق ك
حظ ي
حص ص
حص ائيات
حساب اته
حر فة
حدد ت
حجم ها
حاز ت
ح ها
ح لت
ح رائق
ح جاب
ح ته
ح بها
ح اشدة
جين جر
جيم س
جول ف
جول ته
جوز يف
جوري مرحلات
جل و
جز اك
جري ء
جرا فات
جد ولة
ج ولا
ج به
ج ائز
ج ائب
ج 1
ثيل ين
ثر ى
ث وري
ث امن
ث اب
تي ه
توفير ها
توجه ات
تناس بك
تن ى
تن فرد
تن دد
تميز ت
تمن راست
تمكن وا
تمكن ه
تمت ة
تم ال
تم اسك
تلي جرام
تلت قي
تل زم
تل جأ
تكل فه
تكس رات
تكت شف
تك مل
تك ست
تك اف
تك اثر
تقي يد
تق صير
تق ترب
تق ادات
تفضيلات ك
تفض لها
تفجير ات
تفاعل ية
تفاعل ات
تفا ؤل
تف وسيخة
تف تيح
تغ ليب
تط ارد
تصنع ها
تصا ديا
تص لك
تش غل
تش عل
تسل ية
تسجيل هل
تسجيل ات
تست هلك
تست متع
تست جيب
تساعد نا
تس مي
تس قط
تس عين
تس اوي
تز ود
تريد ين
تري كة
تركي به
ترعر ع
تر غبين
تر ست
تذ كرة
تداول ها
تد عى
تد افع
تخ فف
تحميل ها
تحميل ه
تحمل ه
تحليل ية
تحضير ها
تح يط
تح صيل
تح سب
تح س
تح ديدا
تح به
تج سيد
تث بيتها
تث الها
تتع ارض
تت هم
تابل وهات
تابع ين
تاب خانه
تا يد
تؤ يد
تأي يد
تأس س
ت وف
ت وعية
ت وصلت
ت لب
ت لاميذ
ت في
ت عنى
ت سبق
ت تطور
ت تش
ت تركز
ت بلد
ت اني
ت اتي
بيض ات
بير ى
بوز يه
بوري طة
بوت اني
بوتاني كس
به جة
بنت ها
بنا ئها
بن كهة
بن شاط
بم وقف
بم وج
بم كونات
بم الكي
بلد تي
بلاغ ا
بل ومات
بل وزة
بل ورات
بل حظة
بك ى
بق اع
بعل بك
بع ودة
بع جمان
بط اقتك
بش ع
بس كويت
بس كرة
بس رعه
بس رطان
بري اء
بر وسيا
بر كان
بر شيد
بر بوم
بر بط
بد اد
بد اخ
بخ ماسية
بح وا
بح صة
بح رف
بج وائز
بت قييم
بت ار
بتار ودانت
بالم يكروويف
بالم قدم
بالم عنى
بالك لام
بالك شف
بالق وة
بالق وات
بالق صف
بالسل الة
بالج هة
بالت هاب
بالبط اطس
بالاس كانر
بال وقت
بال وسط
بال بر
باق ل
بار زة
باد وس
بات حاد
با يل
با شا
بإمكان ي
بإ علان
بإ صاب
بأكمل ه
بأس وان
بأس اليب
بأرب عة
بأ لم
ب مواصفات
ب مسجد
ب مس
ب كس
ب قطع
ب سب
ب ذراعين
ب خور
ب خطوات
ب تنسيق
ب تمويل
ب تقول
ب تركيب
ب بغداد
ب المستشفيات
ب المحافظة
ب المحافظات
ب المجلس
ب المؤسسات
ب الليل
ب اللغتين
ب اللغات
ب العين
ب الذات
ب الدوري
ب الدرجة
ب الخط
ب الاشتراك
ب الأعشاب
ب أصوات
اي بور
اول ياء
اه تزازي
انز ستور
انخفاض ا
انج ازات
انت قلت
ان يد
ان جلترا
ان اشيد
امكان يات
امري كية
ام تثالها
ام از
ام ارات
اليون انية
الياب سة
الي أس
الوا عدة
الوا ضحة
الهيدر وجين
الهند سي
الهرم ونات
الهاد فة
اله يماتيت
اله وايات
اله زاز
اله جينة
النمسا وية
النق اب
النف وذ
النسب ية
النز اهة
الناقل ات
الناطق ين
الناز حين
النا جمة
الن ني
الن عومة
الن جمات
الن انوية
المين اء
الميكر وبات
المون تاج
الموس ع
الموريت انيين
الموج ي
الموب وءة
المنف وش
المنتج عات
المنا فع
المنا فذ
المن فذ
الملائ كة
المقط م
المقص ات
المق اييس
المفر ط
المف تر
المغ لي
المغ ذي
المعد ية
المع جزات
المع اقين
المع ادلة
المطب وعات
المط امير
المض اع
المصدر ين
المص ير
المص ور
المص د
المص ارعة
المشر وعة
المش ج
المش تقات
المش ابهة
المست وفين
المست وردة
المست لزمات
المست عصية
المست شارة
المست أجر
المس الك
المرو حيات
المرتك بة
المرب ى
المر وع
المر ورية
المر عبة
المر ت
المد عو
المخ ز
المخ الف
المح ول
المح لول
المح للين
المح تج
المح ب
المثق فين
المث بتة
المتد رب
المت وكل
المت ورط
المت مر
المت زايدة
المبر دة
المبار كة
المب خر
المان عة
المؤ يد
المؤ كدة
المؤ ر
المأس اة
الم كسر
الم قدرة
الم علق
الم ظهر
الم ريح
الم جن
الم جلد
الم تفجرات
الم بيت
الم أث
اللح ام
اللا صقة
الل وازم
الل حية
الل انها
الكي كة
الكومي دي
الكري هة
الكرب وهيدرات
الكر وي
الكت الوج
الكت ابات
الك عبي
الك سي
الك ة
الك اس
الك ارد
القن ابل
القرآ نية
القر فة
القد وة
الق يادات
الق و
الق صور
الق دي
الق بلة
الق اه
الق اء
الفض يل
الفر وع
الفر عي
الفج وة
الفتح ة
الفاض لة
الفار ابي
الف لفلي
الف طرية
الف ري
الف راق
الف ائزة
الغر اب
الغ ريب
العل مى
العق بات
العق اب
العش اق
العبد الله
العب وات
العب اسي
العالم يين
الع قم
الع ريق
الع جيبة
الع ت
الع اهل
الع ال
الع از
الظ فر
الظ اه
الطريق ه
الطبيع ى
الطالب ات
الط وسي
الط ات
الط ائفة
الض حية
الص ودا
الص مد
الص ليبي
الص لح
الص لاحيات
الص فة
الص ربي
الص راط
الص داقة
الشوار بي
الشغ يلة
الش وكولاتة
الش وق
الش مل
الش بهة
الش ا
السيا ج
السويد اء
السوق ية
السما وات
السع يدة
السع دي
السب ورة
الس موع
الس ائد
الز يرو
الرياض ى
الرف اعي
الرغ وى
الرب و
الرا فضي
الرا فضة
الرا عى
الرؤ وس
الرؤ ساء
الذ كريات
الدف لى
الدف ترية
الد ويلة
الد ويل
الد كالي
الد سم
الد اكنة
الخل ابة
الخط ى
الخط رة
الخص وم
الخاط ئة
الخاص يه
الخ ن
الخ را
الخ ارقة
الحل يم
الحض ارية
الحديث ه
الحد ودية
الح وزة
الح مية
الح مض
الح ربية
الح داثة
الح افلة
الح اض
الح اصلين
الح ادثة
الجي وب
الجور جية
الجري ء
الج لي
الثر وات
الث ور
التوجيه ية
التوتر ات
التواصل ية
التنظيم ي
التنسي قي
التليف زيون
التف ريغ
التف اسير
التع قيب
التش يك
التز وير
الترا جم
التر وس
التخطيط ات
التح اليل
التج ميد
الت وك
الت ملك
الت ماسك
الت لاوة
الت قي
الت فعيل
الت ذبذب
الت اي
الت الف
البي ج
البن طل
البلج يكية
البلا زما
البرازيل ية
البد وية
البالغ ين
الب وق
الب واقي
الب سيط
الب ريم
الب اقية
الايج ابية
الاور اق
الانتق ادات
الان واع
الان قل
الان طلاق
الان زلاق
الان تصار
الام كان
الام تناع
الاله ية
الاف لاس
الاعلام يات
الاع تراض
الاص لاح
الاص طلاح
الاص ابة
الاش ارة
الاش ارات
الاستعم اري
الاست يقاظ
الاست هلاكية
الاست ثماري
الاس طورة
الاس طوانات
الارد ني
الار كان
الار باح
الاخت ي
الاخ ونجيه
الاحتيا ط
الاح تكاك
الاج انب
الاب واب
الا ط
الا خري
الا ث
الإنج ليز
الإم تحانات
الإم بري
الإله ية
الإست بدال
الإج ماع
الإ كسسوارات
الإ علانية
الإ عجاب
الإ طلالة
الإ صبع
الإ رشادات
الإ خلاص
الأوروبي ين
الأو كر
الأني ق
الأنس اب
الألم اس
الأع وام
الأط وار
الأس مر
الأس طوانية
الأز هار
الأرج ان
الأر واح
الأح وا
الأح جام
الأثري اء
الأ يدي
الأ مواج
الأ قدم
الأ علام
الأ ذى
الآ يات
ال وجد
ال ضرورة
ال الي
اكس ل
اكتساب ه
افي را
افتتاح ية
اف ى
اف ترض
اعد ادات
اع ون
اظ هار
اط راف
اصط لاحية
اشتري ت
اش غل
استضاف ت
استئناف ه
است يا
است خلاص
اس كندرية
اس فلت
اس عد
اس طوانات
ازداد ت
از ا
ارات يه
ار ها
ار ثي
اد نى
اد عاء
اخر ين
اخت لافا
اخت تم
احتيا طات
احتجاز ه
اح تر
اج ازة
اج ا
اث ار
ات و
ات قان
ابل سي
ابق ين
ابط ين
ابري يل
ابت وب
ابت كر
اب وف
ائ زين
ا ورات
ا فير
ا عدين
إن طلاق
إن خفاض
إمكان ات
إلان ترا
إعلام يا
إعفاء ه
إع ذار
إطل التها
إش راك
إس حاق
إر ث
إباد ه
إ يلون
إ هدار
إ عدام
إ بداعات
إ باحة
إ باء
ؤ ك
ؤ س
أولي فيا
أوب ن
أوب ك
أهداف ك
أه لي
أنا قة
أن طونيو
أموال هم
أم ها
أم لاك
ألق ت
أكادي مي
أق ضية
أعمار هم
أع يد
أطفال هم
أضف نا
أش ارك
أس لاك
أس طوانية
أزر ار
أرد ني
أراضي هم
أخت ي
أخ واتي
أحد ا
أج لك
أث بت
أب وات
أ وقع
أ وقاف
أ ليك
أ كن
أ فر
أ عداء
أ طلب
أ رقى
أ ذهب
أ خص
أ حم
أ حت
أ ثير
أ تحدث
أ باتشي
أ بأ
أ ئمة
آر تس
آ ساب
96 1
9 49
9 06
9 000
89 1
75 4
700 00
6 اكتوبر
6 60
50 95
50 5
50 3
5 89
5 56
49 1
48 2
47 7
47 3
47 2
47 1
44 2
40 9
40 5
4 84
4 41
4 36
4 24
4 18
39 3
38 7
35 8
34 8
3 39
3 22
29 5
28 5
28 4
28 3
27 8
2019 م
19 83
19 56
19 38
19 34
19 29
19 27
19 00
18 48
17 00
100 000
000 54
00 7
00 4
0 30
0 15
ٱ لل
٩ ٨
٧ ٠٠
٣ ٦
٠ ٥
يه ما
ين ين
ين عى
يم بي
يلج أون
يل يق
يل قى
يكت مل
يك يت
يق وي
يق تحم
يفعل ون
يغ لي
يع يق
يع شق
يع تزم
يط بق
يص عد
يش ك
يش تبه
يش ة
يست ند
يست طع
يس ابوري
يز ول
يز رع
يز ا
ير هم
يدرول يك
يدا هم
يد ى
يد عي
يد رس
يحن ط
يحت ضن
يح ظى
يح ط
يح ذ
يح بون
يج و
يث يلي
يتمكن وا
يت ول
يت وافق
يت دخل
يت خطى
يت بين
يت ام
يب قي
يب اع
يا ق
يؤ دى
يؤ خر
ي ومنا
ي وثق
ي هودي
ي ماء
ي كره
ي عة
ي حصد
ي حرص
ي جرى
ي بر
ي ابة
وين صح
ويع تقد
وي قال
وي شكل
وي شار
وي حدث
وي جعل
وي اته
ووضع ها
وه مي
وه ذي
وه ج
ونظ يره
ونت ائج
ون و
ون عمل
ون در
ون ائب
وميس رة
ومي غا
ومه ارات
ومقاب لات
ومع ه
ومع الج
ومضم ونة
ومس ؤولة
ومح افظ
وم يزات
وم واقف
وم واجهة
وم مثل
وم قيم
وم فروشات
وم ضاع
وم سلسلات
وم روج
وم رافق
وم راحل
وم حجر
وم حا
ولكن نا
ول لق
ول جنة
ول ب
وكه ولم
وكل اند
وكس يد
وكس ب
وك هرب
وك لا
وك فاءة
وك أس
وقد م
وق وي
وق وانين
وفي زي
وفي ديو
وف ود
وف دا
وف از
وغير هما
وعمل يات
وع ناوين
وطالب ات
وط نيا
وط باعة
وضع يات
وض أ
وصح به
وص وت
وش يتد
وش هور
وش ح
وش بوة
وش بكات
وسي اسية
وسب ائك
وس يل
وس لط
وس في
وس بب
وس اعد
وس ادة
وري ث
وري اضات
ورفع ت
ور موز
ور قية
ور قلة
ور صد
ور زان
ور ائعة
ور أس
ودي ك
ودي ع
ود ين
ود وري
ود مج
ود م
ود عا
وحد ك
وح وارات
وح لف
وح قق
وح فلات
وح فل
وح سابات
وح ركة
وح اضر
وجي زة
وجود ها
وجه ود
وجد نا
وج يت
وج واي
وج ميلة
وج رائم
وج دي
وث لث
وتوظيف ها
وتوبا غو
وتنت ج
وتط هير
وتص بح
وتص اميم
وتر شيد
وتج اري
وت ويتر
وت وجد
وت نق
وت علن
وت عامل
وت صل
وت سهيل
وت سعى
وت ريد
وت داول
وت ختلف
وت ايوان
وبي ت
وبعد ه
وبط انات
وب وست
وب نات
وب ث
وب الأخص
وانواع ه
وان ضم
وان تقل
واليد وي
والي من
واله واء
واله جرة
والمه نية
والمنا ق
والمعم ارية
والمست لزمات
والمست جدات
والمسا كن
والمخ ازن
والمح بة
والمح اضرات
والم يزات
والم وظفين
والم وت
والم نس
والم كس
والم صنع
والم شروعات
والم ساء
والم راه
والم راكز
والم جوهرات
والل وازم
والل اس
واللاس لكية
والك يكات
والك بار
والك افيه
والق واعد
والق وارض
والف ني
والف لفل
والعق اقير
والعق ارات
والع نف
والع قل
والع سكرية
والع دد
والط بري
والض رائب
والشت ائم
والش اشة
والسيا حية
والس لع
والس ل
والس اعة
والس ؤال
والد تها
والحي وية
والح ليب
والح فظ
والح ديث
والح ب
والجس دية
والج راحة
والج راثيم
والج را
والتق نيات
والتق ديم
والتج اري
والتأ ثير
والت هاب
والت لفزيون
والت شك
والت سامح
والت أمين
والب ذور
والان درويد
والاست قلال
والاس تح
والإف طار
والإ جراءات
والأف راد
والأع ياد
والأج وبة
والأ رج
والأ جنبية
والأ بعاد
والآ ليات
والآ داب
وال يا
وال وضع
وال وس
وال و
وال قيام
وال قدر
وال في
وال فل
وال غرب
وال طيور
وال صفحات
وال صف
وال شيخ
وال دور
وال خل
وال بطولات
وال برمجة
وال اهتمام
وال اغتيالات
وال اعلام
وال استرخاء
وال از
وال احتفالات
وال اتجاهات
وال اة
واسي ب
واسعار ها
واست قبال
واست ثمار
واري وم
وار ير
وار س
واخ تر
واتيم الا
واب حث
وا وضح
وا و
وا ضافة
وا شوف
وا دى
وإ طلاق
وإ تفاق
وإ تاحة
وأه ميتها
وأح ذية
وأ ية
وأ من
وأ ض
وأ صل
وأ ستراليا
وأ حداث
وآ داب
و5 و6
و وحدة
و وحدات
و هيئة
و هران
و خطوط
و خروج
و المحتوى
و المحافظة
و السي
و الحركة
و الجمعة
و إنشاء
و إليك
و أيض
و 2
و 15
هيل تون
هي جان
هم زة
هم ام
هر ه
هانوي بارات
هار ت
هات فيا
ها شم
ه دا
ه جر
ه انا
ه امر
ني وتن
نوع ان
نور ا
نهار ا
نها ئية
ننت فع
نق و
نق ابي
نغ مة
نع ود
نع تقد
نع تبر
نع انية
نع اش
نظر هم
نظ ارة
نض ارة
نص ا
نش ير
نستخدم ها
نساعد ك
نس يم
نس وة
نس ف
نز وح
نز ع
نجد ه
نج معها
نج ان
نت هم
نب ني
نب ذل
ناه ض
ناف ذ
ناط حة
نائ ل
نا شر
نا جم
ن واجه
ن هيان
ن قرأ
ن فقات
ن صنع
ن دة
ن ثق
ن تر
ن به
ن بأ
ن انا
ن امي
ميل ف
مي غ
مي جاب
ميجاب كسل
موعد ا
موسي قي
موس مهم
مودي ز
موج عة
موتور سبورت
موافق تك
مواط نيها
مو صل
مهام ها
مه ور
منها ج
منطق ته
منش أ
منس وب
منتج ة
منا ورات
من قط
من صف
من سي
من تي
من ته
من تس
من اش
ملعق تين
ملتز مون
مل ون
مل كيه
مل صقات
مل جم
مكونات ها
مكن هم
مكن سة
مكت مل
مكان يات
مك ارثي
مقص ودة
مقد مته
مق تر
مق ت
مق اله
مفر وش
مفاج ئة
مف ه
مف علة
مغلق ه
معل نة
معر فت
معد ودة
معد لة
مع ينه
مع ينا
مع ني
مع مارية
مع تاد
مع بأة
مظ هرا
مطلوب ين
مطاط ية
مط ير
مط ورة
مضي ئة
مض يق
مض افة
مصنع نا
مصدر ه
مصالح ها
مصادر ها
مص عب
مص ار
مشروع اتها
مشتر وات
مشاعر ك
مش ى
مش وه
مش فى
مش جر
مش ج
مسل حين
مسحوق الصين
مستوح اة
مست قر
مست عجلا
مست طيلة
مست شاري
مست شارك
مساهم تك
مساعد ه
مساب ح
مس وي
مس وغ
مس جدا
مس اق
مس افر
مس ئ
مزخر فة
مز ادات
مراه ق
مراسل ني
مراس لتنا
مرا وح
مر ونة
مر وعة
مر تقب
مر تب
مر ئيات
مدون تنا
مد و
مد لك
مخ مل
محم ذن
محدد ات
محام اة
مح وري
مح دث
مح ترفين
مح بوكة
مح ال
مجمع ة
مجلس ا
مج ي
مثلي ين
مثل ث
متابعات الوسوم
متاب عيه
متأث را
مت فق
مت غيرة
مت علق
مت عل
مت عد
مت طرفة
مت زايد
مت احف
مبي دات
مان دو
مالي زي
ماسك را
مار ينا
مار وك
مار ب
مائ ها
ما ين
ما فيه
ما طر
ما ديا
ما دات
مؤ شرا
مؤ رخ
مؤ تمرا
م ولات
م وقد
م وحدة
م والية
م غط
م غس
م بورغ
م بك
م بسط
م الطا
م الا
م آ
ليني كس
ليف زيون
ليس وتو
ليخ تنشتاين
لورين زو
لو حدات
لو حد
لنفس ك
لن ص
لمن جم
لمست شفى
لمس افة
لمح بي
لمح اسبة
لم درسة
للمشروع ات
للمست هلك
للمت قدمين
للمت علم
للم قدسات
للم باني
للق واعد
للط يران
للص م
للس فير
للد راجات
للج ولف
للج نسين
للت وثيق
للبيع عقارات
للبي عل
للاع بين
للإش تراك
للإس منت
للأ وراق
للأ مازيغية
للأ لعاب
للأ رض
لل ى
لل وقت
لل وحدة
لل نظر
لل منظمة
لل مصالحة
لل مسيرة
لل مسلمين
لل مجموعات
لل كسر
لل عيان
لل عنف
لل طرق
لل ضغط
لل صندوق
لل سياح
لل رجيم
لل راحة
لل جماعة
لل جار
لل ث
لل تراث
لل بنوك
لل بنك
لل بنان
لل بشر
لل اقتصاد
لل أمير
لل أر
لل آداب
لك ورونا
لق يمة
لق وله
لق اب
لق ائمة
لف كرة
لف قدان
لع ودة
لع ها
لع ائلة
لطالب ات
لسطيني ين
لس رعة
لس اعات
لح فلات
لح فل
لح ج
لتك بير
لتق وية
لتف ادي
لت وصيل
لت وزيع
لت قدير
لت ضيف
لت بدأ
لت بادل
لان نا
لام ة
لاخت بار
لاج تماع
لات ك
لا يين
لا يفون
لا ى
لا هاي
لا في
لا خ
لا جهزة
لا جل
لإ يصال
لإ ستخدام
لأ هالي
ل وز
ل ور
ل واط
ل ملف
ل معنى
ل مرض
ل كسر
ل قياس
ل ضبط
ل شركتك
ل سلطة
ل سلام
ل زوج
ل خبث
ل حدوث
ل ثلاث
ل تكوين
ل تعريف
ل تش
ل بيانات
ل بلدية
ل أمير
ل أسفل
كير ل
كيد ز
كي زة
كي ريبات
كي اس
كويتي ون
كويت ية
كول ور
كول كشن
كور ية
كنولوج يات
كن ق
كن در
كلمات ك
كل مت
كل اسي
كلاسي كة
كسار اة
كس وس
كر ور
كتاب ها
كتاب ته
كت بات
كان دى
كاش ير
كار ا
كاب لات
كا يات
ك وفي
ك وف
ك وري
ك وحدة
ك وبر
ك مصدر
ك راهية
ك ائنات
قير غيزستان
قي صر
قلوب هم
قط نية
قص يره
قشت الة
قس اط
قرن فل
قرط اسية
قر ت
قر ان
قد ره
قح طان
قب الا
قات ها
قاب لية
قاب لا
ق ويا
ق ذف
ق الي
ق الات
فيل الت
في ليب
في قوم
في راترول
في دا
في تو
فنس نت
فن شي
فن در
فل قد
فل ح
فكر ه
فق يرة
فعل ت
فع ات
فض ه
فض فاضة
فز ع
فر ف
فر عية
فحم ان
فت ون
فاير فوكس
فان وات
فان ك
فاق ه
فاعلي ات
فار يل
فاج ئ
فاج أة
فات ر
ف وكلاند
ف قيه
ف قي
ف ظة
ف سيكون
ف ريس
ف دي
فدي هات
ف تنة
ف الب
ف الأول
غن م
غراب يل
غر وب
غر ناطة
غر م
غر داية
غر ات
غادر ت
غ يتس
غ لي
غ لة
غ لام
غ لاء
غ رض
غ راء
غ اي
غ ارة
غ ارات
غ ادرة
غ ابرييل
عيد كم
عن كم
عم لاقة
عم اله
علاق ه
عقل ه
عف وي
عط ورات
عش وائية
عسكري ا
عس ى
عزل ه
عز اء
عر وف
عد ه
عد نا
عد ك
عتي ق
عبر ت
عبد المنعم
عب ود
عاد ته
عائ ض
عا وز
عا شت
ع ياء
ع ناء
ع مد
ع ظام
ع ديد
ع اق
ظهر ه
ظن نا
طي بات
طن ان
طلاق ها
طرق ه
طار يات
طاب ور
ط ياز
ط ويق
ط وارئ
ضيا فات
ضي قة
ضر وس
ضد ها
ضح يتها
ضاء ات
ضا غط
ض وا
صي ص
صور ها
صوت ك
صهي ونية
صلاح يتها
صل اته
صف اء
صعود ا
صد ري
صح ه
ص يلي
ص ون
ص لا
ص را
ص خرية
ص اري
ص اء
شين خوا
شي كل
شي ز
شي حات
شهر زاد
شل ون
شع اعية
شر وق
شر قا
شر طا
شر سة
شر جي
شخص يتك
شت وية
شب اع
شاه ير
شا وي
ش يلة
ش يفر
ش معة
ش كيب
ش كاوى
ش فرات
ش حات
ش اطر
ش اسعة
سيس ميه
سير وي
سير اليون
سي ور
سي ري
سوار فسكي
سوا زيلاند
سن قدم
سن تحدث
سمع ان
سما يل
سلوك يات
سلم ت
سل س
سق اط
سفر ه
سع را
سخ يف
سجل ها
ستست مر
ست م
ست ق
ست شهد
ست ساعدك
ست رة
ست تم
ست بقى
ست بدأ
ست اد
ست اجرام
سب يرو
ساند ز
سانت ا
سام وا
س مسار
س كوب
س امر
زيا ئي
زه ري
زل ين
زع ماء
زع بي
زر ت
زا ين
ز عزعة
ز حلة
ز ائدة
ريد ات
ري جنسي
روب ل
روا يته
رمز ا
رك بة
رفض ها
رفض ه
رف اهية
رغ بته
رص يدا
رس ام
رس الته
رس ائ
رد ية
رخص ه
رحلات ها
رب ها
راب عا
را قصة
را زات
رئيس ها
رأسم ال
رأ فت
ر وى
ر واندا
ر مي
ر مان
ر كب
ر تب
ذه ن
ذر ه
ذ ري
ذ ال
دينام يكية
دير ك
دي الها
دون غ
دومين يكا
دولار ين
دوك اتي
دوبي كارز
دفع ية
دعا وى
دع وته
دع ما
درس ون
در عة
دخل ها
دب ى
دار ين
د وب
د نا
د عاة
د ج
د انا
خيالية 2018
خلف ها
خلا فا
خط رة
خط ابه
خصوص ي
خص وم
خز ينة
خت ين
خام ه
خاض ها
خاص 2021
خار جة
خ ونة
خ نان
حيا ز
حوث يا
حم ية
حلم ه
حلق ه
حق ها
حق بة
حط ين
حضر ية
حريق ا
حرص ا
حر ى
حر اس
حد ار
حت ين
حت ة
حاول وا
حاف ز
حاض نة
حاج ات
ح ورية
ح ورة
ح قي
ح شد
ح سنة
ح رس
ح بيت
ح افل
ح اسب
ح ارة
جين كياو
جي وش
جي ستي
جي ء
جوه رة
جه ان
جمهور ه
جمع ه
جعل ني
جس مي
جس دية
جز يره
جز ئية
جر ون
جذ اب
جد ته
جاه ل
جام عه
ج وفاء
ج نت
ج نائية
ج نا
ج فنشي
ج ج
ج ثم
جثم انه
ثلاث ه
ثق يل
ثق ف
ثق افات
ثر وب
ث يان
ث منا
ث كنة
ث را
ث بوت
ث ب
ث افة
توي ست
توا ير
توا ضع
ته يس
ته دم
ته جير
تنظيف ها
تن ياهو
تن ق
تن فع
تن شئ
تن شأ
تن سب
تن ذر
تن خفض
تم اس
تليف ون
تلق ت
تل اندي
تك بد
تك ارية
تقد يرا
تق صر
تق سم
تفقد ية
تفر ز
تغ ني
تغ ذي
تعيين ه
تعل مت
تعريف ها
تعدي لها
تعاون ين
تع يق
تع ي
تع قي
تع ري
تع انين
تع اطي
تطبيقات تطبيقات
تط يح
تط ول
تض اف
تض ارب
تصنيع ها
تص غير
تص عد
تشرين 1
تسهيل ات
تسليم ها
تست طع
تس ون
تز قة
ترق ى
تراجع ت
ترا عي
تر وم
تر ضي
تدخل اتها
تد مر
تد ريبي
تد ئ
تحدث نا
تحت في
تح كي
تح رز
تح ذ
تجميع ها
تج ده
تت محور
تت كرر
تت عدى
تت راكم
تبع ات
تبا عد
تب كي
تب ارات
تا فيلالت
تأ كل
ت يت
ت لم
ت لع
ت غسيل
ت راء
ت ذكارية
ت تن
ت تكفل
ت تشكل
ت تسلم
ت انى
ت الي
ت اس
بين ى
بيت ادين
بيت ا
بون دي
بول مان
بور كينا
بور تس
بوتس وانا
بوت ان
بو يا
بو كنق
بو خ
بنك يران
بنفس ها
بنطل ونات
بن وع
بن وا
بمق اس
بمشروع ات
بمرافق ته
بم ميزات
بم راكز
بلغ اريا
بل ه
بل ديات
بك از
بك اء
بق ضي
بق ائمة
بغ از
بعض نا
بع كس
بع قب
بع تك
بطريق ه
بط عم
بط رد
بش ك
بش ان
بش ارة
بسي ارتك
بس لاح
بس طة
بز به
بري ء
برا عة
بر وز
بر وح
بر وت
بر وابط
بر هان
بر غم
بر عات
بداخ لك
بدأ نا
بد ران
بد ار
بحر يني
بحر وف
بح اج
بج دي
بتس ديد
بتخ زين
بت سم
بت ان
بان ه
بان ك
بالن يابة
بالم عروف
بالم ديح
بالله جة
بالق ياس
بالف ترة
بالرياض شركة
بالج ماعة
بالج بيل
بالث بات
بالتد ريج
بالت وصيل
بالت طليق
بالأ مس
بال راحة
بال بيت
بال اهتزاز
بار ها
بار سال
بار تداء
باب از
با و
با طل
بإصاب ته
بإ يقاف
بإ ف
بإ غلاق
بإ صدار
بأن ي
بأن نا
بأ ق
بأ جواء
ب وحدة
ب مواصلة
ب منتجع
ب مستقبل
ب مثال
ب مت
ب ليز
ب لك
ب قليل
ب قصد
ب فلسطين
ب عملها
ب ظروف
ب ضم
ب صيغ
ب ختيار
ب حدود
ب ثر
ب تنميل
ب تعزيز
ب تحسين
ب بيانات
ب المناسبة
ب المجتمع
ب الطائف
ب السيارات
ب الزيت
ب الرقم
ب الدفاع
ب الحصول
ب الجمعة
ب التنسيق
ب البنك
ب الانجليزية
ب الانجليزى
ب الإسلام
ب الأمان
ب الألم
ب اسل
ب إدراج
ب إدخال
ب أنواعها
ب أم
ايج اد
ايج ابية
اي ض
اي ز
انفجار ان
انف وج
انف راد
انضمام ه
انز لاق
انت يل
ان لس
ان قضاء
ان فرد
ان ض
ان ص
ان سخ
ان سان
ان زل
ان تعاش
اماز ون
ام ور
ام بو
اليم امة
الوز يرة
الوا ي
الوا قية
الهم زة
الها ئل
اله ير
اله الات
النق اشات
النق اء
النشر م
الناف ثة
النا خب
الن يسابوري
الن يج
الن دى
الن حت
الموضوع ي
الموجود ين
الموت وسيكل
المه نة
المنهج ية
المنا ضلة
المنا صب
[...]
